'<pad>_'
'<EOS>_'
'_'
'，_'
', _'
'._'
'。_'
'и_'
'- _'
'в_'
'-_'
'а_'
'е_'
'я_'
'не_'
'·_'
'的'
'на_'
'， _'
'、_'
'和'
'у_'
'й_'
'что_'
'在'
'"_'
'с_'
'. _'
':_'
'了_'
'о_'
'..._'
'м_'
'ы_'
'是'
'不_'
'我'
'!_'
'(_'
'к_'
'Category_'
')_'
' (_'
'他'
': _'
'了'
'по_'
'то_'
'как_'
'х_'
'的_'
'ть_'
'：_'
'有'
'一个'
' -- _'
'你'
'он_'
'/_'
'没有'
'ь_'
' - _'
'это_'
'被'
'但'
',_'
'но_'
'Я_'
'！_'
'его_'
'ю_'
'ом_'
'我们'
'из_'
'ой_'
'她'
'го_'
'?_'
'？_'
'л_'
'从'
'他们'
'за_'
'-- _'
'人'
'把'
'И_'
' "_'
') _'
'人_'
'ли_'
'ов_'
'说_'
'（_'
'都'
'А_'
'; _'
'т_'
'中'
'会'
'ся_'
'对'
'от_'
'ая_'
'quot_'
'到'
'地'
'不'
'a_'
'В_'
'而'
'大'
'... _'
'上'
'与'
's_'
'个'
'\\_'
'же_'
'用'
'Категория_'
' &_'
'ты_'
'时_'
'1_'
'他的'
'ей_'
'里'
'так_'
'并'
'我的'
'их_'
'все_'
'было_'
'小'
'ми_'
'для_'
'2_'
'将'
'上_'
'меня_'
'这'
'这些'
'“_'
'мы_'
'里_'
'要'
'она_'
'你的'
'一'
'这个'
'ет_'
'或'
'很'
'们'
'去'
'中_'
'ла_'
'为'
'н_'
'然后'
'" _'
'3_'
'бы_'
'ем_'
'ую_'
'ка_'
'就'
'也'
'拉'
'向'
'или_'
'ый_'
'мне_'
'Но_'
'特'
'以'
'能'
'the_'
'e_'
'已经'
'был_'
'像'
'所有'
'до_'
'来'
'《_'
'）_'
'斯'
'克'
'уже_'
'那'
'开始'
'они_'
'它'
'только_'
'ки_'
'ами_'
'4_'
'这是'
'ее_'
'5_'
'因为'
'后_'
'着'
'前'
'比'
'多'
'ого_'
'不是'
', - _'
'ые_'
'Это_'
'我_'
'卡'
'Он_'
'德'
'新'
'可以'
'是的_'
'所'
'她的'
'我们的'
'》_'
'想'
'。 _'
'чтобы_'
'阿'
'когда_'
'该'
'当'
'你_'
'性'
'6_'
''_'
'года_'
'”_'
'利'
'下'
'ых_'
'又'
'还有'
'尔'
'ах_'
'"._'
'вы_'
'7_'
'西'
'更'
'Не_'
'最'
'时'
'一样_'
'如果'
'加'
'I_'
'无'
'现在'
'；_'
'年'
'ться_'
'8_'
'y_'
'斯_'
'马'
'什么_'
'其'
'сь_'
'他_'
'伊'
'她_'
'есть_'
'Да_'
'水'
'是_'
'于'
'ни_'
'd_'
'非常'
'别'
'9_'
'得'
'关于'
'者'
'子'
'of_'
'吧_'
'天'
'им_'
'ий_'
'да_'
'ие_'
'法'
'再'
'还'
'если_'
'点'
'那些'
'ам_'
'0_'
'всё_'
'Ты_'
'科'
'过'
'俄罗斯'
'让'
'ют_'
'后'
'需要'
'ым_'
't_'
'工作_'
'ия_'
'高'
'米'
'好'
'只有'
'еще_'
'内'
'海'
'巴'
'ась_'
'время_'
'任何'
'金'
'亚'
'没'
'во_'
'之'
'очень_'
'г_'
'лся_'
'名'
'由'
'будет_'
'те_'
'была_'
'吗_'
'尼'
'三'
'而且'
'Что_'
'塔'
'哦_'
'себя_'
'世界'
'国家'
'ое_'
'р_'
'通过'
'нет_'
'n_'
'Template_'
'这种'
'基'
'以及'
'со_'
'тебя_'
'可'
'нас_'
'手'
'ись_'
'问题_'
'人们'
'были_'
' -- -- _'
'给'
'格'
'A_'
'纳'
'他们的'
'to_'
'达'
'ить_'
'必须'
'ется_'
';_'
'者_'
'来_'
'自己'
'где_'
'长'
'只'
'出'
'Как_'
'На_'
'特_'
'为了'
'。”_'
'布'
'даже_'
'只是'
'ему_'
'头'
'安'
'黑'
'太'
'却'
'夫'
'克_'
'罗'
'就是'
'看到'
'瓦'
'日'
'её_'
'就像'
'Мы_'
'С_'
'哈'
'этом_'
'雷'
'ку_'
'a'
'不会'
'кто_'
'子_'
'этого_'
'ный_'
'and_'
'些'
'того_'
'может_'
'自'
'чем_'
'我会'
'том_'
'家'
'做'
'什么'
'под_'
'你们'
'Она_'
'быть_'
'д_'
'所以'
'进行'
'白'
'вот_'
'或者'
'当然_'
'У_'
'in_'
'迪'
'塞'
'一些'
'自己的'
', -- _'
'него_'
'年_'
'му_'
'там_'
'可能'
'萨'
'发'
'普'
'说'
'ные_'
'种'
'甚至'
'раз_'
'都是'
'ной_'
'просто_'
'的人_'
' «_'
'请'
'好吧_'
'我想'
'i_'
'ных_'
'下_'
'德_'
'东西_'
'勒'
'Ну_'
'тебе_'
'которые_'
'部'
'爾'
'тся_'
'而是'
'维'
'无法'
'谁'
'奇'
'继续'
'有人'
'ло_'
'ещё_'
'使'
'花'
'圣'
'ок_'
'跟'
'打'
'根据'
'门'
'工作'
'分'
'году_'
'ная_'
'成为'
'去_'
'шь_'
'Так_'
'光'
'洛'
'好_'
'老'
'10_'
'林'
'诺'
'正在'
'开'
'奥'
'两'
'本'
'можно_'
'ил_'
'姆'
'心'
'托'
'при_'
'应该'
'этот_'
'那么'
'них_'
'外'
'起'
'波'
'лись_'
'不能'
'点_'
'здесь_'
'即'
'山'
'包括'
'国'
'生'
'}_'
'决定'
'та_'
'呢_'
'", _'
'лась_'
'其他'
'больше_'
'成'
'整个'
'这一'
'o_'
'我要'
'已'
'ься_'
'm_'
' -_'
'看'
'它_'
'без_'
'四'
'次'
'州_'
'сти_'
'希'
'放在'
'它们'
'一样'
'on_'
'ен_'
'但是'
'Вот_'
'时间'
'家_'
'лет_'
'化'
'爱'
'亞'
'吉'
'的人'
'себе_'
'那个'
'呃_'
'сейчас_'
'提供'
'中的'
'us_'
'索'
'车'
'皮'
'但我'
'всех_'
'после_'
'сказал_'
'试图'
'l_'
'год_'
'等'
'半'
'啊_'
'了一'
'突然'
'沙'
'南'
'先'
'委员会'
'нам_'
'который_'
' _'
'进入'
'两个'
'ский_'
'тут_'
'如何'
'为什么'
'ии_'
'帕'
'力'
'is_'
'сть_'
'神'
'Вы_'
'走_'
'美国'
'S_'
')._'
'文'
'行'
'性_'
'不要'
'О_'
'тоже_'
'根'
'作为'
'ях_'
'жизни_'
'许多'
'面'
'要求'
': "_'
'新的'
'梅'
'夫_'
'因此_'
'曼'
'古'
'话_'
'尔_'
'我在'
'博'
'） _'
'笑声_'
'他们_'
'社会'
'知道'
'恩'
'один_'
'ничего_'
'более_'
'ней_'
'兰'
'五'
'莫'
'吃'
'ке_'
'вас_'
'如果你'
'艾'
'ью_'
'还是'
'ать_'
'而不是'
'拉_'
'Нет_'
'来自'
'国际'
'正'
'事'
'第一'
'r_'
'надо_'
'才'
'2017_'
'蒂'
'方'
'真'
'完全'
'Если_'
'杜'
'列'
'человек_'
'人的'
'知道_'
'他在'
'Они_'
'ями_'
'ко_'
'事实上_'
'我是'
'同'
'喜欢'
'问'
'红'
'你会'
'口'
'因'
'叫'
'生活_'
'们_'
'ось_'
'体'
'处'
'图'
'全'
'馬'
'ного_'
'火'
'球'
'得到'
'政府'
'希望'
'并不'
'К_'
'条'
'потом_'
'快'
'через_'
'ения_'
'事_'
'C_'
'公'
'埃'
'科_'
'羅'
'своей_'
'上帝'
'反'
'找到'
'也许'
'莱'
'机'
'людей_'
'一起'
'受'
'非'
'美'
'鲁'
'让我'
'теперь_'
'沃'
'贝'
'y'
'重'
'всего_'
'看_'
'об_'
'提'
'赫'
'身'
'木'
'2'
'地方_'
'5'
'день_'
'学'
'坐在'
'进'
'вам_'
'этой_'
'组织'
'钱_'
'戈'
'库'
'流'
'также_'
'入'
'12_'
'应'
'道'
'тем_'
'位'
'卡_'
'问题'
'ал_'
'号'
'我不'
'你可以'
'则'
'动'
'По_'
'ним_'
'代'
'泰'
'ния_'
'路'
'但是_'
'空'
'二'
'k_'
'能够'
'上的'
'相'
'定'
'来了_'
'ер_'
'女'
'怎么'
'各'
'ик_'
'公司'
'ит_'
'拿'
'州'
'ыми_'
'ние_'
'离开'
'突然_'
'孩子'
'放'
'叶'
'свою_'
'连'
'写'
'伦'
'朋友'
'ской_'
'ясь_'
'3'
'ра_'
'先生_'
'带'
'лишь_'
'派'
'O'
'有一'
'I'
'你是'
'生活'
'日_'
'всегда_'
'2000_'
'星'
'准备'
'://_'
'伯'
'ят_'
'过_'
'由于'
'一直'
'尽管'
'总是'
'Шаблон_'
'区'
'человека_'
'потому_'
'活'
'区_'
'这里'
'回'
'自己_'
'Все_'
'什'
'如此'
'菲'
'朝'
'几'
'e'
'很多'
'эти_'
'雅'
'ются_'
'万'
'，“_'
'男人'
'听'
'教'
'ение_'
'间'
'是个'
'总'
'нужно_'
'联合国'
'切'
'人类'
'军'
'朋友_'
'北'
'несколько_'
'据'
'干'
'地_'
'爾_'
'毛'
'&_'
'穿'
'作'
'11_'
'省_'
'пока_'
'娜_'
'特别'
'ную_'
'Когда_'
'жизнь_'
'嘿_'
'ская_'
'除了'
'U'
'因此'
'глаза_'
'发展'
'代表'
'много_'
'发现'
'знаю_'
'! -- _'
'看着'
'h_'
'霍'
'月'
'ны_'
'一名'
'手_'
'受到'
'you_'
'ан_'
'热'
'听到'
'D'
'耶'
'所有的'
'开始_'
'民'
'納'
'мой_'
'现在_'
'物'
'保护'
'люди_'
'约'
'тот_'
' '
'? _'
')。_'
'ти_'
'出来_'
'n'
'P_'
'找'
'就会'
'ва_'
'ed_'
'拥有'
'女孩'
'深'
'第二'
'电'
'嗯_'
'书'
'C'
'色'
'时间_'
'故事_'
'今天'
'每'
'？ _'
'妈妈'
'士'
'Мне_'
'o'
'奧'
'), _'
'往'
'研究'
'感到'
'好的_'
'之后_'
'T'
'тогда_'
'走'
'是啊_'
'石'
'我们_'
'之前_'
'直接'
'死'
'钱'
'G'
'такой_'
'ин_'
'员'
'未'
'我就'
'D_'
'死_'
'森'
'买'
'ru_'
'B'
'才能'
'чего_'
'原'
'阿尔'
'ц_'
'ского_'
'合'
'сам_'
'恩_'
'перед_'
'1'
'度'
'ведь_'
'4'
'笑了_'
'好了_'
'над_'
'每个'
'查'
'兹'
'莫斯科'
'妇女'
'队'
'线'
'地区'
'气'
'M_'
'有点'
'M'
'лось_'
'bord1_'
'苏'
'此'
'技术'
'ное_'
'风'
'管'
'城市'
'd'
'再次'
'几乎'
'世界_'
'氏'
'縣_'
'边'
'會'
'也是'
'接受'
'er_'
'два_'
'语'
'重新'
'理'
'认为_'
'ing_'
'明'
'S'
'свои_'
'{\\_'
'乌'
'也不'
'使用'
'扎'
'并且'
'前_'
'了解'
'平'
'蒙'
'形'
'雪'
'尼_'
'器_'
'共'
'片'
'хорошо_'
's'
'ным_'
'块'
'主要'
'E'
'法_'
'东'
'ям_'
'»_'
'直'
'K'
'15_'
'卢'
'赛'
'信'
'这样'
'另一个'
'虽然'
'死了_'
'亚_'
'一种'
'但他'
'У'
'姆_'
'儿童'
'HD_'
'維'
'然而_'
'他是'
'如'
'变'
'医生'
'X'
'精神'
'地方'
'另一'
'ешь_'
'语_'
'经济'
'型'
'c_'
'第一次'
'河_'
'这么'
'http_'
'P'
'见'
'自由'
'个人'
'мира_'
'越'
'及'
'六'
'行动_'
'нее_'
'获得'
'们的'
'哥'
'直到'
'史'
'欧洲'
'времени_'
'g_'
'科学'
'瑞'
'家庭'
'战'
'一切_'
'達'
'20_'
'И'
'es_'
'经'
'改变'
'东西'
'ну_'
'座'
'кой_'
'сразу_'
'з_'
'A'
'感觉'
'情'
'在我'
'盖'
'真正的'
'低'
'b_'
'8'
'近'
'B_'
'水_'
'своих_'
'[_'
'至少'
'期'
'которая_'
'样'
'话'
'变成'
'主'
'起来_'
'警察'
'交'
'戴'
'住'
'当时_'
'执行'
'你不'
'нибудь_'
' — _'
'）。_'
'行动'
'密'
'不知道'
'计划'
'ма_'
'声音_'
'人民'
'7'
'ia_'
'曾'
'де_'
'衣服_'
'市'
'стал_'
'России_'
'N_'
'数'
'短'
'辛'
'自然'
'七'
'э_'
'почему_'
'建议'
'своего_'
'какой_'
'***_'
'化_'
'совсем_'
'никогда_'
'между_'
'弗'
'情况_'
'帮助'
'место_'
'讲'
'超'
'班'
'喝'
'那里'
'政治'
'са_'
'  _'
'式'
'车_'
'站在'
'i'
'茨'
'施'
'令人'
' {\\_'
'是一个'
'住在'
'也没有'
'ца_'
'США_'
'项'
'场'
'儿'
'母亲'
'V_'
'V'
'份'
'Олимпийских_'
'0'
'血'
'F'
'it_'
'我也'
'穆'
'снова_'
'视'
'认为'
'女人'
'枪'
'的一'
'孩子_'
'地球'
'вместе_'
'类'
'that_'
'森_'
'努力'
'H'
'附近_'
'我有'
'器'
'和_'
'支持'
'八'
'门_'
'市_'
'害怕'
'安全'
'佩'
'цы_'
'ев_'
'дело_'
'核'
'回到'
'飞'
'方面'
'头_'
'寻找'
'ости_'
'铁'
'管理'
'参加'
'руки_'
'ому_'
'关'
'сказать_'
'именно_'
'10'
'没错_'
'格_'
'不同的'
'权'
'属_'
'6'
'给我'
'力_'
'公司_'
'着_'
'L_'
'算'
'件'
'М'
'www_'
'30_'
'多_'
'мог_'
'почти_'
'台'
'которой_'
'经常'
'所以_'
'情况'
'张'
'选择'
'L'
'дома_'
'离'
'眼'
'报告_'
'双'
'了一个'
'这样的'
'娜'
'系统'
'кого_'
'感'
'利_'
'级'
'当时'
'事情'
'通'
'聖'
'很好_'
'乌克兰'
'保'
'转'
'产'
'N'
'的时候_'
'生命'
'свой_'
'杰'
'处理'
'人员'
'F_'
'越来越'
'那是'
'苏联'
'河'
'各种'
'会议'
'部分'
'有个'
'字'
'собой_'
'道_'
'死亡_'
'在这'
'ость_'
'早'
'当我'
'保持'
'军事'
'М_'
'друг_'
'野'
'玛'
'列表_'
'塔_'
'理解'
'克里米亚'
'第三'
'три_'
'层'
'» _'
'号_'
'莉'
'этих_'
'报告'
'曼_'
'ила_'
'桑'
'an_'
'我很'
'告诉'
'妈妈_'
'эту_'
'信息'
'到了'
'田'
'ж_'
'都在'
'хочу_'
'али_'
'：“_'
'最后'
'检查'
'千'
'路_'
'永远'
'E_'
'p_'
'旧'
'指'
'всем_'
'刺'
'同时'
'ков_'
'16_'
'福'
'迅速'
'天_'
'所以我'
'我和'
'相信'
'声音'
'便'
'以前'
'l'
'看看'
'могу_'
'ина_'
'站'
'这就是'
'接'
'方式'
'岁_'
' , _'
'奇_'
'丝'
'收'
'天啊_'
'百'
'про_'
'等等_'
'um_'
'假'
'этим_'
'The_'
'有些'
'基_'
'似乎'
'送'
'常'
'他会'
'一位'
'13_'
'na'
'对于'
'ёт_'
'конечно_'
'狗'
'历史'
'画'
'делать_'
'按'
'控制'
'我可以'
'ции_'
'表'
'你在'
'! _'
'玩'
'机构'
'日本'
'С'
'没有人'
'员_'
'9'
'酒'
'费'
'利用'
'뗄'
'薩'
'которых_'
'面_'
'爸爸'
'救'
'失去'
'失'
'куда_'
'ya'
'说话_'
'德国'
'康'
'它的'
'指出_'
'14_'
'ком_'
'ka'
'意'
' – _'
'胡'
'局'
'十'
'J'
'那里_'
'太阳'
'00_'
'土'
'让他'
'ец_'
'总统'
'当你'
'рядом_'
'дом_'
'諾'
'体_'
'сделать_'
'龙'
'威'
'制'
'немного_'
'麦'
'鱼'
'18_'
'力量_'
'他不'
'такое_'
'17_'
'实'
'因为我'
'должен_'
'妻子'
'法律'
'接近'
'学生'
'决定_'
'個'
'За_'
'至'
'称'
'下来_'
'想_'
'ился_'
'院'
'果'
'儿子'
'我们可以'
'具有'
'你想'
'考虑'
'Его_'
'хотя_'
'мир_'
'告诉我_'
'单'
'战争'
'完'
'Н'
'T_'
'2001_'
'角'
'起_'
'我们得'
'大_'
'出现_'
'其中'
'б_'
'都不'
'國'
'凯'
')，_'
'断'
'夜'
'发生'
'动物'
'R'
'觉得'
'生物'
'季'
'城'
'п_'
'船'
'--_'
'草'
'某种'
'周'
'назад_'
'斯特'
'回来_'
'25'
'活动'
'天主教'
'摩'
'我们会'
'现'
'欧'
'就在'
'«_'
'轮'
'让我们'
'быстро_'
'О'
'父亲'
'ите_'
'ими_'
'%_'
'表示'
'如果我'
'满'
'大家'
'变得'
'”，_'
'ль_'
'лучше_'
'过来_'
'提出'
'线_'
'汉'
'机_'
'50'
'有一个'
'мной_'
'30'
'1999_'
'顿'
'蘭'
'晚'
'教育'
'灯'
'ут_'
'сказала_'
'своим_'
'ает_'
'存在_'
'出生_'
'Про'
'Кто_'
'英国'
'爬到'
'活动_'
'装'
'我觉得'
'微'
'будут_'
'нул_'
'er'
'支'
'报'
'иться_'
'足球'
'书_'
'解'
'眼睛_'
'爱_'
'тех_'
'ья_'
'дня_'
'區_'
'量'
'登'
'调查'
'вдруг_'
'.._'
'树'
'ала_'
'会_'
'么'
'部队'
'2008_'
'22_'
'此外_'
'区域'
'仍然'
'王'
'死亡'
'脚'
'сегодня_'
'na_'
'Z'
'蓝'
'在_'
'h'
'每个人都'
'愿'
'外_'
'齐'
'松'
'时候_'
'度_'
'女孩_'
'之间的'
'23_'
'及其'
'другой_'
'al_'
'谢谢_'
'并没有'
'在一起_'
'G_'
'уж_'
't'
'Ne'
'40'
'ел_'
'英'
'温'
'21_'
'ном_'
'但你'
'голову_'
'должны_'
'站_'
'我没有'
'换'
'到_'
'Только_'
'是否'
'堡'
'вшись_'
'担心'
'ье_'
'других_'
'k'
'远'
'强'
'音乐'
'节'
'拒绝'
'党'
'韦'
'слова_'
'вать_'
'称_'
'играх_'
'章_'
'副'
'內'
'一下_'
'ция_'
'ство_'
'巨大的'
'宗教'
'占'
'W'
'男子'
'毒'
'计划_'
'来说_'
'创造'
'先生'
'纳_'
'空间'
'for_'
'.'
'终于'
'求'
'我们在'
'弄'
'群'
'油'
'文_'
'县_'
'ию_'
're_'
'设计'
'三个'
'be_'
'然'
'医生_'
'R_'
'га_'
'm'
'首'
'难'
'我把'
'的地方_'
'丹'
'不再'
'сон_'
'造成'
'сторону_'
'魚_'
'学校'
'19_'
'晚上'
'坦'
'坐'
'同样的'
'特别是'
'对不起_'
'佛'
'调'
'结果'
'金_'
'任'
'他说_'
'вопрос_'
'25_'
'部_'
'光_'
'亲'
'银行'
'选'
'走了_'
'犯罪'
'心_'
'印度'
'стороны_'
'вообще_'
'v'
'诺夫'
'有时_'
'好像'
'他们在'
'ч_'
'могут_'
'运'
'身体'
'貝'
'腿'
'消失_'
'洗'
'одной_'
'А'
'声'
'国_'
'取'
'别人'
'; 。_'
'楼'
'ём_'
'руку_'
'ov'
'长_'
'可能是'
'После_'
'战争_'
'К'
'的是_'
'对_'
'九'
'йте_'
'was_'
'奈'
'后来'
'中心'
'ика_'
'让你'
'房间_'
'йся_'
'Теперь_'
'者的'
'той_'
'耳'
'关系_'
'立即'
'工'
'国王'
'эта_'
'确定'
'解释'
'世'
'моей_'
'信息_'
'hi'
'影响'
'猫'
'故事'
'黑暗'
'草_'
'联邦'
'和其他'
'самом_'
'Ю'
'立'
'一切'
'行_'
'一次'
'），_'
'街'
'打开'
'亚历山大_'
'которого_'
'给你'
'经过'
'眼睛'
'城市_'
'моя_'
'肯定'
'没人'
'击'
'米_'
'之间'
'中国'
'有关'
'大的'
'会议_'
'ики_'
'Д'
'是一'
'ди_'
'Y'
'联'
'性的'
'人权'
'萊'
'., _'
'牛'
'美國'
'组织_'
'穿过'
'师'
'жить_'
'not_'
'脸'
'建立'
'压'
'偷'
'传'
'z'
'父母'
'导致'
'ту_'
'想法_'
'З'
'省'
'学习'
'华'
'乱'
'спросил_'
'такие_'
'г'
'推'
'带着'
'O_'
'我已经'
'团'
'动_'
'области_'
'00'
'电话'
'只要'
'参与'
'ro'
'23'
'解决'
'系统_'
'改'
'В'
'明天'
'极'
'意识到_'
'стали_'
'目前'
'目_'
'底'
'共同'
'ra'
'不过'
'деле_'
'II_'
'20'
'如此_'
'但她'
'零'
'游'
'будто_'
'Почему_'
'中央'
'хотел_'
'跑'
'物_'
'x_'
'和平'
'ив_'
'П'
'來'
'ст_'
'掉'
'学_'
'结'
'奖'
'不想'
'整'
'排'
'000'
'率'
'法院'
'架'
'分_'
'全球'
'ские_'
'： _'
'考'
'生_'
'文件'
'把我'
'崩溃_'
'Может_'
'K_'
'28'
'我不知道_'
'采取'
'灵魂'
'服务'
'她们'
'例如_'
'伊_'
'никто_'
'словно_'
'поэтому_'
'24'
'sa'
'当局'
'之前'
'不仅'
'одна_'
'Т'
'沒'
'оно_'
'认识'
'条_'
'尾'
'充满'
'伟大的'
'чуть_'
'on'
'食'
'达_'
'记得'
'一世_'
'w_'
'读'
'联系_'
'去了'
'前往'
'做了'
'тому_'
'在这个'
'Я'
'错_'
'士_'
'юсь_'
'долго_'
'预'
'正如'
'帮'
'都会'
'进行了'
'的是'
'最终'
'大学'
'26'
'魯'
'知'
'汽车'
'bo'
'板'
'轻'
'国家_'
'ki'
'的话_'
'牙'
'對'
'屬_'
'居民'
'产生'
'Ло'
'防'
'笑_'
'文化'
'影响_'
'момент_'
'de_'
'服'
'很快'
'谁_'
'聪明_'
'安_'
'лицо_'
'Ш'
'shad0_'
'行政'
'能力_'
'段'
'何'
'каждый_'
'骨'
'里的'
'迪_'
'药'
'即使'
'детей_'
'谈'
'我得'
'勒_'
'Re'
'魔法'
'孩子们'
'ель_'
'行为'
'只能'
'or_'
'ha'
'NGC_'
'愿意'
'одного_'
'耶夫'
'事件_'
'卖'
'Lo'
'莎'
'法国'
'大家都'
'冰'
'всю_'
'Ra'
'甲'
'射'
'确保'
'病'
'拖'
'室'
'女人_'
'стало_'
'Ри'
'黑暗_'
'舒'
'留在'
'大学_'
'прямо_'
'кая_'
'迷'
'职'
'r'
'庫'
'me_'
'24_'
'精'
'弹'
'不可'
'точно_'
'混蛋_'
'把他'
'冷'
'做_'
'运动'
'治'
'为什么_'
'ских_'
'ль'
'营'
'da'
'著'
'电影_'
'生命_'
'拜'
'引'
'努'
'неё_'
'作出'
'либо_'
'говорит_'
'这里_'
'跳跃_'
'离开_'
'Е'
'as_'
'感_'
'годы_'
'60'
'担任'
'少'
'овать_'
'01_'
'茨_'
'艺术'
'我不知道'
'情_'
'значит_'
'31'
'养'
'x'
'电影'
'样_'
'发现_'
'元'
'言'
'步'
'丁'
'Для_'
'默'
'环境'
'因为他'
'ka_'
'你有'
'他们会'
'杯'
'商'
'你就'
'这样_'
'破'
'東'
'我不能'
'中心_'
'Всё_'
'Q'
'等_'
'成员'
'飞机'
'左'
'停止'
'Р_'
'Д_'
'没有_'
'最近'
'完成'
'修'
'le_'
'Le'
'森林'
'亞_'
'个_'
'ри_'
'ги'
'at_'
'La'
'男人_'
'照'
'最后_'
'建'
'当然'
'岁'
'домой_'
'in'
'绿'
'我不想'
'办公室'
'内_'
'举'
'一点_'
'буду_'
'Г'
'岁的'
'但我们'
'业'
'хоть_'
'proza_'
'f_'
'ce_'
'這'
'讨论'
'母'
'异'
'共和国'
'образом_'
'Ку'
'Б'
'200'
'警'
'生产'
'球_'
'灰'
'或许'
'тобой_'
'ar'
'第一个'
'曾经'
'об'
'面前_'
'套'
've_'
'暗'
'女儿'
'品'
'весь_'
'вер'
'Хорошо_'
'2010年'
'顶'
'目标_'
'欢迎'
'朗'
'a的'
'伤'
'”。_'
'является_'
'к'
'ia'
'2012_'
'gi'
'兵'
'которое_'
'}{\\_'
'u'
'组'
'愛'
'尖叫_'
'Т_'
'Н_'
'1998_'
'某些'
'дальше_'
'除'
'穿着'
'ник_'
'дверь_'
'en_'
'蘇'
'脑'
'目'
'本_'
'ор_'
'ными_'
'знал_'
'ri'
'肯'
'标'
'宇宙'
'夜间'
'力量'
'初'
'ти'
'какие_'
'Би'
'	_'
'斯基_'
'影'
'夏'
'стала_'
'деньги_'
'П_'
'; ，_'
'50_'
'香'
'等待'
'清'
'чи'
'歌'
'权_'
'нашей_'
'думаю_'
'tion_'
'项目'
'互相'
'丽'
'работы_'
'против_'
'би'
'足'
'朱'
'您'
'品_'
'印'
'你要'
'Mo'
'27'
'造'
'西班牙'
'出_'
'давно_'
'То_'
'隆'
'认'
'西_'
'最高'
'尤其是'
'奇怪的'
'加强'
'主义'
'которую_'
'al'
'！"_'
'诺_'
'结束_'
'刚'
'其他人'
'质'
'秘密'
'回家_'
'充满了'
'但他们'
'伤_'
'ха_'
'ф_'
'ov_'
'我去'
'媒体'
'мире_'
'u_'
'雨'
'维奇_'
'同意'
'29'
'肉'
'政'
'备'
'包'
'公民'
'一旦'
'ш_'
'ует_'
'Из_'
'*_'
'承认'
'俄'
'丈夫'
'опять_'
'唱'
'之一_'
'ответил_'
'28_'
'也有'
'电话_'
'Р'
'with_'
'en'
'散'
'действительно_'
'ta'
'shad1_'
'我知道'
'事情_'
' ._'
'音'
'是什么_'
'务'
'佐'
'从未'
'лы'
'2002_'
'加入'
'公约_'
'但在'
'de'
'27_'
'谢'
'林_'
'实现'
'地区_'
'v_'
'维奇'
'确实'
'мои_'
'物质'
'他说'
'яя_'
'таких_'
'问_'
'反对'
'! - _'
'许'
'小组'
'人都'
'туда_'
'случае_'
'这不是'
'这一点_'
'带来'
'非洲'
'真的'
'现代'
'感谢'
'快_'
'届'
'學'
'以便'
'часть_'
'鸟'
'然后用'
'圖'
'亲爱的_'
'си'
'двух_'
'ter'
'ne'
'Li'
'用_'
'方案'
'乔'
'стоит_'
'Э'
'ke'
'首先'
'花_'
'新闻'
'够'
'т'
'связи_'
'Sa'
'我只是'
'和我'
'你知道'
'一个人'
'ус_'
'ства_'
'通常'
'賽'
'界'
'复'
'在一'
'不同_'
'понял_'
'Тогда_'
'X_'
')'
'的东西_'
'处_'
'以来_'
'不同'
'ци'
'среди_'
'Список_'
'過'
'灵'
'停'
'黄'
'遇到'
'甘'
'сюда_'
'города_'
'Конечно_'
'c'
'De'
'集'
'酸'
'选择_'
'行为_'
'合作_'
'Ал'
'2010_'
'禁止'
'片_'
'每天'
'促进'
'ор'
'ними_'
'照顾'
'然后被'
'原因_'
'关系'
'мся_'
'город_'
'第2'
'有时'
'命令'
'同一'
'升'
'儿_'
'部分_'
'我不会'
'Гор'
'p'
'那样'
'涅'
'месте_'
'Однако_'
'村'
'封'
'如果我们'
'俄罗斯_'
'около_'
'靠近'
'碰'
'武器_'
'期间_'
'服务_'
'會_'
'最后一'
'我们必须'
'他们不'
'слишком_'
'ti'
'ng_'
'跳'
'托_'
'房'
'島_'
'可怕的'
'наш_'
'ились_'
'Вы'
'网'
'敢'
'ду_'
'靠'
'加_'
'вокруг_'
'隊_'
'二十'
'ять_'
'сама_'
'Где_'
'40_'
'容'
'ич_'
'ек_'
'成功_'
'he'
'革命'
'恢复'
'思想'
'她是'
'坎'
'回答_'
'命'
'仅'
'po'
'電'
'尤'
'劳'
'公共'
'二世_'
'不断'
', "_'
'首先_'
'男孩'
'土地'
'不在'
'две_'
'говорил_'
'b0_'
'26_'
'188'
'鱼_'
'电子'
'我不是'
'ри'
'могли_'
'Кон'
'le'
'证明'
'罪'
'瑟'
'安德烈_'
'坏'
'видел_'
'09_'
'長'
'配'
'都有'
'进一步'
'移动_'
'他把'
'他们是'
'细'
'粉'
'程'
'留'
'弗拉基米尔_'
'布拉'
'ками_'
'ta_'
'li'
'遗'
'显然'
'撒'
'抓'
'好的'
'几个'
'ly_'
'la'
'爆炸'
'游戏'
'我知道_'
'建议_'
'нем_'
'девушка_'
'войны_'
'难以'
'获'
'编'
'独立'
'察'
'ина'
'训练'
'聚'
'源'
'恶'
'她被'
'但这'
'ова_'
'Там_'
'柯'
'我现在'
'成了'
'展示'
'работу_'
'другие_'
'голос_'
'领'
'華'
'民主'
'是在'
'委员会_'
'первый_'
'игры_'
'друга_'
'ани'
'Ин'
'今天_'
'илась_'
'100'
'额'
'允许'
'乐'
'ана_'
'Поэтому_'
']_'
'70'
'11'
'更加'
'幸福'
'ед'
'взгляд_'
'Na'
'=_'
'45'
'环'
'是我'
'探'
'таки_'
'Ла'
'紧'
'居'
'增'
'при'
'ни'
'增加'
'位于'
'激'
'什_'
'Е_'
'存'
'倫'
'依'
'сами_'
'戰'
'周围'
'医院'
'свое_'
'одно_'
'нему_'
'ли'
'говорить_'
'. - _'
'科夫'
'滑'
'所有人都'
'建筑'
'唯一'
'прис'
'То'
'bi'
'负责'
'找到了'
'告诉我'
'亿'
'一只'
'ском_'
'Г_'
'80'
'队_'
'那女孩'
'照片'
'毛_'
'怀疑'
'场_'
'Za'
'钟'
'达到'
'贸易'
'禁'
'抱歉_'
'思'
'затем_'
'ат_'
'32'
'食物'
'青'
'走到'
'科尔'
'最好的'
'под'
'бар'
'Ha'
'转弯_'
'歐'
'Ведь_'
'正确的'
'期间'
'市场'
'刻'
'сколько_'
'ря'
'马_'
'语言'
'让他们'
'提高'
'官'
'大会'
'ели_'
'麻'
'瓜'
'格拉'
'尽'
'位_'
'такого_'
'та'
'над'
'ис'
'ги_'
'的手'
'武器'
'一_'
'ша'
'致'
'我们都'
'她不'
'合作'
'健康'
'знаешь_'
'ды_'
'Не'
'2014_'
'罗马'
'文件_'
'声_'
'你好_'
'一条'
'Ман'
'若'
'湖_'
'克拉'
'供'
'今晚'
'ена_'
'Ха'
'边_'
'漂亮_'
'我们不'
'当他'
'发生_'
'倒'
'наши_'
'se_'
'说的_'
'联系'
'的大'
'样的'
'想要'
'属于'
'二_'
'пор_'
'аться_'
'Сейчас_'
'si'
'房子'
'冲'
'克里'
'начал_'
'ится_'
'la_'
'Su'
'187'
'08_'
'."_'
'的小'
'湿'
'次_'
'我看到'
'减'
'住_'
'таким_'
'ишь_'
'co'
'过去'
'蛇'
'玻璃'
'很难'
'пре'
'Ка'
'12'
'重要'
'言_'
'案_'
'星_'
'年轻'
'如果他'
'吹'
'э'
'пути_'
'高_'
'毫无'
'昨天'
'吻'
'нельзя_'
'ены_'
'背'
'目标'
'本身'
'尼古拉_'
'宣布'
'世纪'
'Или_'
'!"_'
'避免'
'纸'
'歐洲'
'斯基'
'學_'
'儿子_'
'保证'
'тра'
'那就'
'追'
'自我'
'真正'
'现实'
'無'
'兹_'
'以色列'
'付'
'чи_'
'полу'
'мор'
'an'
'Se'
'辆'
'攻击'
'助'
'ации_'
'鬼'
'面对'
'想象'
'ра'
'они'
'дела_'
'Do'
'语言_'
'窗户'
'武'
'футболу_'
'места_'
'ви'
'！ ！_'
'这个_'
'设'
'航空'
'名_'
'ха'
'страны_'
'знает_'
'ете_'
'ga'
'青年'
'眼神'
'注意到'
'时候'
'抽'
'回答'
'一辆'
'一切都'
'хи'
'тер'
'觉'
'神_'
'特拉'
'烟'
'си_'
'кажется_'
'37'
'词'
'扔到'
'富'
'兰_'
'женщина_'
'Da'
'间_'
'约翰_'
'窗户_'
'烏'
'意大利'
'在那里'
'ле_'
'象'
'用于'
'生活的'
'我没'
'室_'
'卡拉'
'вая_'
'2016_'
'款'
'拍'
'投'
'得很'
'你也'
'man'
'52'
'比_'
'枪_'
'族'
'收集'
'后面_'
'кон'
'вор'
'35'
'語_'
'痛苦_'
'灵魂_'
'打算'
'从而'
'也不是'
'решил_'
'ди'
'Мар'
'Ж'
'Б_'
'资料来源_'
'方向'
'开发'
'ту'
'силы_'
'34'
'01'
'记'
'游戏_'
'当我们'
'ал'
'Спасибо_'
'Потом_'
'附近'
'酒_'
'衣'
'当地'
'害'
'развития_'
'ch_'
'04_'
'舞'
'累'
'待'
'内部'
'信_'
'不管'
'сделал_'
'самого_'
'наконец_'
'Хо'
'Организации_'
'Бо'
'st_'
'马上'
'食物_'
'网络'
'彼得_'
'她在'
'右'
'отец_'
'ва'
'相互'
'听着_'
'义'
'енный_'
'ja'
'07_'
'第十'
'我们要'
'局_'
'存在'
'剧院'
'军队'
'Во_'
'顿_'
'阿拉'
'还没'
'较'
'终'
'瓶'
'瓦_'
'提到'
'仍'
'Под'
'no'
'ko'
'马尔'
'情绪'
'值得'
'也会'
'яр'
'ры_'
'he_'
'b'
'To'
'Ro'
'起来'
'看起来'
'治疗'
'摇晃_'
'尼亚'
'导'
'否'
'会有'
'прос'
'минут_'
'з'
'головой_'
'號'
'然后把'
'演'
'尝试'
'堆'
'件_'
'主人'
'жу_'
'От_'
'Di'
'29_'
'22'
'害怕_'
'圆'
'专'
'чу'
'ж'
'露'
'紧急'
'哪里_'
'各国'
'раньше_'
'z_'
'观察'
'给他'
'ши'
'Наций_'
'－_'
'试'
'系'
'的地'
'威胁'
'哪'
'共和国_'
'他也'
'主席'
'этому_'
'кое_'
'без'
'端'
'章'
'睡觉_'
'每一'
'有_'
'属'
'могла_'
'Су'
'Ан'
'清楚_'
'杯_'
'急着'
'对我'
'стью_'
'02_'
'第四'
'方法_'
'制造'
'出现'
'правда_'
'нула_'
'私'
'来到'
'нии_'
'моего_'
'При_'
'are_'
'别人_'
'ёл_'
'ай_'
'機_'
'我们就'
'床'
'一般'
'вар'
'Ад'
'我們'
'并在'
'席'
'ще'
'неу'
'вновь_'
'随'
'心跳'
'嘴'
'吸'
'lt_'
'fnMicrosoft_'
'5年'
'..."_'
'面前'
'院_'
'洞'
'临时'
'такая_'
'ро'
'Объединенных_'
'议'
'结果_'
'战_'
'ран'
'ноги_'
'Л'
'ba'
'Sha'
',- _'
'家人'
'客人'
'银'
'节_'
'孩'
'свет_'
'理解_'
'斑'
'学校_'
'совершенно_'
'мать_'
'летних_'
'ден'
'Александр_'
'ion_'
'62'
'06_'
'来的'
'杀'
'持续'
'尸体'
'宁'
'基金'
'在你'
'在一个'
'办公室_'
'你不能'
'тро'
'ское_'
'вой_'
'ав'
'Ф'
'Ай'
'ck'
'51'
'.	_'
'我突然'
'我对'
'呼吸'
'你知道_'
'начала_'
'должна_'
'га'
'Мор'
'Ма'
'Ди'
'罗_'
'神经'
'支付'
'善'
'证'
'私人'
'盧'
'厄'
'危险_'
'動'
'ча'
'тор'
'Л_'
'2008年'
'记录'
'数_'
'控'
'客'
'женщин_'
'али'
'YaHei_'
'躺在'
'城_'
'因为你'
'口_'
'кий_'
'дер'
'43'
'38'
'2006_'
'缺'
'示'
'生活在'
'我还'
'котором_'
'большой_'
'Ta'
'55'
'逝世_'
'莫斯科_'
'职业'
'的所有'
'主义_'
'ятся_'
'своими_'
'Ч'
'Ра'
'31_'
'189'
'这次'
'病_'
'比赛_'
'掉_'
'失去了'
'土耳其'
'协调'
'做什么_'
'俄罗斯联邦'
'事件'
'ул_'
'пять_'
'Мин'
'Здесь_'
'Bo'
'船长'
'真是'
'机会_'
'帮助_'
'下午'
'часто_'
'су'
'нами_'
'42'
'33'
'2006年'
'际'
'的一个'
'正式'
'开_'
'它是'
'凱'
'一年'
'Са'
'+_'
'我们是'
'士兵'
'公开'
'цев_'
'тело_'
'ответ_'
'нос'
'второй_'
'要么'
'方式_'
'你还'
'作用_'
'Бу'
'Бог_'
'针对'
'部门'
'敌人'
'命_'
'нь_'
'ении_'
'et'
'41'
'21'
'100_'
'阻止'
'问题的'
'逃跑_'
'英雄'
'的问题_'
'然后_'
'漢'
'来吧_'
'工作的'
'享受'
'тре'
'сильно_'
'н'
'конце_'
'部长'
'逐渐'
'舍'
'泽'
'法律_'
'山_'
'冬季'
'тон_'
'акт'
'速'
'突'
'父亲_'
'来的_'
'展'
'好好'
'任务'
'世界的'
'подо'
'ори'
'нный_'
'Та'
'di'
'根_'
'ц'
'ста'
'со'
'пор'
'найти_'
'возможно_'
'Ни'
'Даже_'
'61'
'超过'
'藏'
'納_'
'相当'
'为_'
'иде'
'всей_'
'Сер'
'衣服'
'蔚委谓伪喂_'
'未来'
'多少'
'图_'
'告'
'你怎么'
'ше'
'нные_'
'же'
'us'
'gt_'
'el'
'Ja'
'65'
'開'
'还在'
'翻'
'没有被'
'案'
'暴'
'擦'
'所以你'
'想到'
'变化_'
'gu'
'Al'
'笑'
'知识'
'兄弟'
'са'
'ry_'
'邪恶的'
'跟他'
'计'
'见_'
'茲'
'漂亮的'
'明_'
'减少'
'син'
'путь_'
'да'
'5日_'
'里面'
'基本'
'сердце_'
'un'
'my_'
'is'
'H_'
'63'
'那样_'
'结束了_'
'出了'
'но'
'56'
'还有_'
'计算'
'秘书长'
'看了'
'甚至连'
'方面_'
'怪'
'守'
'因为我们'
'出现在'
'равно_'
'жи'
'麥'
'的声音_'
'炸'
'歌_'
'否则_'
'傑'
'vo'
'资源'
'论'
'能力'
'肥'
'民族'
'機'
'收到'
'ч'
'хочешь_'
'ме'
'дней_'
'ur'
'ment_'
'Co'
'熊'
'正是'
'效'
'成员_'
'不得不'
'ня_'
'ol'
'58'
'53'
'软'
'說'
'莎_'
'脏'
'联合'
'状'
'无论'
'別'
'严重'
'ла'
'ица_'
'добро'
'ба'
'По'
'ci'
'量_'
'睡'
'放弃'
'國家'
'化学'
'休'
'任何人_'
'ления_'
'w'
'Ka'
'2012年'
'洛夫'
'母亲_'
'李'
'挺'
'念'
'准'
'事务'
'сил_'
'имя_'
'魔'
'牌'
'有多'
'早上'
'彼得堡'
'帮我'
'分子'
'this_'
'77'
'满足'
'丘'
'”'
'язык_'
'ера_'
'ено_'
'4aH00_'
'05_'
'踢'
'赶'
'表_'
'大脑'
'名字_'
'名字'
'имеет_'
'os'
'Ko'
'39'
'谈论'
'船_'
'爬'
'忘了'
'安德烈'
'娃_'
'之后'
'юн'
'еть_'
'ер'
'赖'
'国家的'
'呼'
'克斯'
'истории_'
'енные_'
'36'
'驻'
'贾'
'货'
'谈谈_'
'观'
'有趣的'
'堡_'
'ун'
'смерти_'
'长期'
'购买'
'芬'
'联盟'
'的事_'
'理事会'
'必'
'川'
'具体'
'увидел_'
'рукой_'
'Ви'
'va'
'do_'
'Ho'
'道德'
'词_'
'落'
'神父'
'狼'
'时代_'
'徒'
'卷'
'努力_'
'一次_'
'ющий_'
'ev'
'66'
'载'
'美丽的'
'置'
'积极'
'快点_'
'家庭_'
'却被'
'分析'
'一项'
'самое_'
'происходит_'
'ность_'
'зан'
'вал_'
'谷'
'祖'
'石头'
'电视'
'然后又'
'拯救'
'报_'
'店'
'在这里'
'卡尔'
'иков_'
'跟我'
'破坏'
'照片_'
'机构_'
'小行星列表_'
'因为他们'
'习惯'
'хотелось_'
'ля'
'Й_'
'60_'
'缺乏'
'学院'
'同时_'
'可能会'
'人口'
'ру'
'м'
'еся_'
'Ми'
'Ли'
'ne_'
'Y_'
'64'
'裂'
'立刻'
'步_'
'лад'
'б'
'...._'
'('
'王子'
'心理'
'发展_'
'利亚'
'ре'
'понять_'
'Ти'
'by_'
'老师'
'比如'
'我们有'
'思考'
'亮'
'ша_'
'пер'
'пару_'
'这是我'
'足球俱樂部_'
'能源'
'第五'
'狗_'
'汇'
'医疗'
'前面_'
'住了_'
'他还'
'одну_'
'Х_'
'Си'
'Об'
'Джон_'
'57'
'頓'
'阳光'
'邦'
'邀请'
'诗'
'访问'
'笔'
'程序'
'按照'
'战斗'
'布_'
'宾'
'处于'
'历史_'
'прав_'
'овой_'
'нашего_'
'выс'
'Ор'
'Но'
'Ар'
'頭'
'这么做_'
'真的_'
'留下'
'插'
'措施_'
'把她'
'意味着'
'想法'
'帝'
'审查'
'字_'
'不了'
'самый_'
'ми'
'воды_'
're'
'随着'
'评估'
'缔约国'
'第3'
'机会'
'方面的'
'方_'
'捷'
'拉斯'
'值'
'代_'
'人类_'
'наших_'
'99'
'邻居'
'速度'
'蒂_'
'期_'
'易'
'摆脱'
'小_'
'坏了_'
'他被'
'пу'
'особенно_'
'дар'
'te_'
'g'
', '
'麻烦_'
'略'
'爸爸_'
'搞'
'尊重'
'叔叔'
'充分'
'他就'
'亲王'
'一起_'
'па'
'ос'
'мысли_'
'ино'
'Ро'
'ni'
'68'
'2009_'
'达尔'
'范'
'症_'
'湖'
'恰'
'对你'
'实际上'
'发出'
'пи'
'Пере'
'Есть_'
'72'
'解释_'
'敬'
'提供了'
'幸福_'
'园'
'公寓_'
'信任'
'системы_'
'кому_'
'женщины_'
'енно_'
'her_'
'2011_'
'高级'
'过的'
'记者'
'的信'
'改变_'
'手指'
'固'
'参'
'俄罗斯的'
'цен'
'кан'
'Фи'
'do'
'选举'
'車'
'發'
'望'
'师_'
'司'
'凡'
'不可能'
'ры'
'кор'
'енных_'
'ду'
'будем_'
'Ar'
'2011年'
'锁'
'罗斯'
'纽'
'旅行'
'方案_'
'冻'
'下的'
'上帝的'
'части_'
'ф'
'нет'
'любовь_'
'te'
'da_'
'Te'
'44'
'活_'
'护'
'在他'
'兄弟_'
'—_'
'нат'
'бор'
'До'
'or'
'76'
'電影_'
'平静_'
'希望_'
'大约'
'响'
'公里_'
'交通'
'го'
'глазами_'
'ou'
'go'
'; &_'
'豪'
'议会'
'简'
'教授'
'我被'
'任务_'
'ву'
'59'
'阿拉伯'
'镇'
'过来'
'规'
'荷'
'皮肤'
'爬_'
'我一'
'慢慢地'
'感觉_'
'意识'
'忙'
'动物_'
'办'
'位置_'
'伊万_'
'不见了_'
'уд'
'внимание_'
'Пока_'
'You_'
'Pi'
'" "_'
'绿色'
'素'
'有什么'
'关心'
'фи'
'领导'
'注意'
'最佳'
'料'
'教育_'
'刀'
'决'
'сме'
'Po'
'足球俱乐部_'
'裸'
'沙_'
'房间'
'尾巴'
'嗨_'
'命运'
'冲进'
'不到'
'ности_'
'бес'
'ад'
'Потому_'
'Гу'
'pa'
'风吹'
'重要_'
'运动_'
'红色'
'盯着'
'电脑'
'招'
'年轻的'
'商业'
'ол'
'мама_'
'игр_'
'to'
'mi'
'Pro'
'8日_'
'论_'
'消除'
'斯坦'
'审议'
'坚持'
'做的'
'人类的'
'举行'
'вс'
'ар_'
'Фа'
'花了'
'祈祷'
'礼'
'烧'
'景'
'族_'
'一定'
'само'
'еб'
'Син'
'wi'
'500'
'颗'
'痛苦'
'我从'
'开展'
'带到'
'契'
'充'
'一下'
'часов_'
'ночь_'
'Ко'
'54'
'现在我'
'但不'
'伏'
'чик_'
'ление_'
'Те'
'Джо'
'An'
'退'
'输'
'西方'
'虫_'
'礼物_'
'潘'
'法官'
'没事_'
'彼得'
'全部'
'ше_'
'три'
'15'
'音乐_'
'药_'
'總'
'答'
'瑞典'
'没有任何'
'止'
'政策'
'得到了'
'埃尔'
'价'
'专家'
'слово_'
'око'
'Ф_'
'9日_'
'韋'
'我只'
'意识到'
'征'
'岛'
'妻子_'
'同样'
'反应_'
'поко'
'have_'
'es'
'46'
'， &_'
'阿爾'
'第二十'
'种族'
'知识_'
'沿着'
'德拉'
'女儿_'
'卫生'
'以为'
'информации_'
'Просто_'
'При'
'Ос'
'ra_'
'美元_'
'海洋'
'庭'
'将在'
'安全_'
'到了_'
'乎'
'ыр'
'думал_'
'Хар'
'Ba'
'7日_'
'" - _'
'桌'
'恐怖'
'巴西'
'小时'
'定_'
'安娜_'
'ам'
'Совета_'
'Пре'
'Да'
'2009年'
'航'
'男'
'快乐_'
'年轻人'
'埃及'
'因为她'
'发表'
'关注'
'交给'
'тысяч_'
'Фу'
'Лу'
'Ле'
'附'
'脉'
'物理'
'更多的'
'描述'
'持'
'扔进'
'工人'
'到达'
'优'
'ре_'
'Ша'
'НИ'
'80_'
'47'
'03_'
'跟踪'
'洋'
'孔'
'奥运会_'
'吓'
'错了_'
'熟'
'是不'
'技术_'
'发_'
'сло'
'zi'
'hu'
'远_'
'让人'
'标准'
'挥'
'工作人员'
'國_'
'告诉你'
'再见_'
'他想'
'今晚_'
'ю'
'мужчина_'
'анти'
'Ва'
'91'
'69'
'48'
'薄'
'梦'
'恐惧_'
'延'
'墙'
'台_'
'主人_'
'рез'
'ати'
'58_'
'頓_'
'英國'
'票'
'津'
'普通'
'是最'
'抓住了'
'愤怒的'
'寄'
'乳'
'пле'
'мало_'
'зо'
'бу'
'Хотя_'
'ob'
'79'
'2007_'
'理论'
'武装'
'時'
'抓住'
'我看'
'случилось_'
'полностью_'
'ман'
'лица_'
'иногда_'
'ари'
'Х'
'Ладно_'
'Be'
'賽_'
'纯'
'普京'
'意_'
'尖'
'叙利亚'
'借'
'丈夫_'
'помощи_'
'кре'
'енной_'
'ай'
'Тан'
'71'
'都没有'
'每年'
'有了'
'明白_'
'提出的'
'把你'
'戈_'
'分享'
'ро_'
'мая_'
'75'
'2015年'
'2014年'
'186'
'过去_'
'費'
'腿_'
'泥'
'模'
'担心_'
'巴斯'
'права_'
'овал_'
'нуть_'
'ний_'
'ман_'
'зло'
'глаз_'
'вший_'
'Со'
'ꆣ'
'这样做_'
'确'
'旅'
'数据'
'小心'
'大喊大叫_'
'争吵_'
'час_'
'голове_'
'ап'
'МА'
'До_'
'Ги'
'pe'
'ch'
'ad'
'78'
'2017年'
'" (_'
' = _'
'马拉'
'那你'
'道路_'
'说明'
'硬'
'奇怪_'
'吓坏了_'
'ёр'
'ян_'
'ьный_'
'де'
'дать_'
'67'
'4日_'
'185'
'还没有'
'记忆'
'研究_'
'我必须'
'幸'
'島'
'事实_'
'юр'
'чка_'
'помочь_'
'кроме_'
'довольно_'
'ают_'
'Меня_'
'Кол'
'com_'
'J_'
'2004_'
'血_'
'紅'
'空气'
'有很多'
'刑'
'出去_'
'做出'
'侧'
'也很'
'х'
'теле'
'лит'
'идти_'
'вся_'
'видеть_'
'Мо'
'In'
'6日_'
'32_'
'迈'
'约翰'
'笑容_'
'段_'
'女性'
'пред'
'мою_'
'зас'
'до'
'Хи'
'От'
'3日_'
'2004年'
'葉'
'沉'
'正常'
'投资'
'息'
'制定'
'俄罗斯人'
'体育'
'一份'
'можем_'
'вые_'
'РА'
'Надо_'
'Вер'
'El'
'74'
'莉_'
'票_'
'广'
'巨'
'全国'
'се'
'руках_'
'пра'
'компании_'
'гар'
'Кор'
'Ис'
'Аб'
'from_'
'Ti'
'III_'
'Ga'
'看来'
'校'
'权利_'
'岛_'
'听_'
'出生'
'保持沉默_'
'不用'
'шка_'
'скую_'
'ya_'
'th_'
'鲜'
'谈话'
'科学家'
'的新'
'曲'
'幻'
'宽'
'始'
'发现了'
'勃'
'самой_'
'оз'
'кс'
'Давай_'
'ic_'
'2013年'
'鸡'
'睡在'
'涉及'
'她会'
'ма'
'лав'
'зачем_'
'Ре'
'ВА'
'走到了'
'试验'
'构'
'怕'
'妮'
'奶奶'
'單'
'一天'
'фа'
'оро'
'которым_'
'ицы_'
'Тур'
'90'
'35_'
'超级'
'自由_'
'洲'
'梦想'
'怀'
'以下'
'东正教'
'ьте_'
'че_'
'нь'
'кол'
'sha'
'ma_'
'j'
'be'
'闻'
'重大'
'继续_'
'的最'
'斯克'
'意见_'
'奥尔'
'大多数'
'令'
'ын'
'сто'
'кот'
'знать_'
'достаточно_'
'власти_'
'Эн'
'0年'
'重要的'
'跟你'
'而我'
'疯了_'
'状态_'
'澤'
'期待'
'昂'
'律师'
'带来了'
'希腊'
'就像在'
'尚未'
'威廉_'
'國際'
'他們'
'不错_'
'ума_'
'тихо_'
'менее_'
'one_'
'man_'
'che'
'ar_'
'雷_'
'除非'
'错'
'普_'
'既'
'播'
'拖到'
'去了_'
'偏'
'众'
'一个无'
'тур'
'разо'
'п'
'нес'
'например_'
'дети_'
'7年'
'裡'
'结婚_'
'焦'
'呼吸_'
'刚刚'
'健康_'
'трав'
'доме_'
'tra'
'ter_'
'000_'
'身上'
'赞'
'识'
'火_'
'显示'
'方法'
'得不'
'岸'
'即将'
'举行的'
'щих_'
'следует_'
'ру_'
'он'
'любви_'
'ки'
'ием_'
'Кроме_'
'Вам_'
'lu'
'Or'
'Ki'
'還'
'男性'
'爱情_'
'气_'
'明白'
'旁边_'
'并非'
'吊'
'тен'
'своё_'
'видно_'
'Га'
'su'
'pro'
'as'
'Ste'
'Gu'
'质量'
'订'
'结构'
'比较'
'是因为'
'很多_'
'归'
'化的'
'余'
'стоял_'
'ред'
'отца_'
'казалось_'
'вет'
'На'
'Андрей_'
'Ri'
'容易'
'境'
'在她'
'井'
'чен'
'отношения_'
'Тор'
'Му'
'ac'
'进了'
'简单的'
'病人'
'格里'
'奖_'
'古老'
'典'
'ющие_'
'чём_'
'фильм_'
'ура_'
'ук'
'парень_'
'медленно_'
'Ту'
'16'
'. _'
'课'
'案件'
'权力'
'我认为'
'惊'
'情报'
'实际'
'ющих_'
'работать_'
'нно_'
'ев'
'души_'
'Па'
'per'
'no_'
'ge_'
'空间_'
'盘'
'桥'
'伦_'
'不久'
'бра'
'ар'
'Ь_'
'Через_'
'Мак'
'»._'
'Bu'
'87'
'85'
'逼'
'走廊_'
'独'
'测'
'斯拉夫'
'卡斯'
'тельно_'
'пол'
'мо'
'вы'
'Ц'
'ku'
'6年'
'进去_'
'而言_'
'羊'
'真理_'
'盟'
'来说'
'必要'
'久'
'ьно_'
'нав'
'лин'
'кем_'
'ины_'
'Чемпионат_'
'Кур'
'ce'
'92'
'闭'
'结束'
'细胞'
'方向_'
'我来'
'忘'
'割'
'хочет_'
'стать_'
'ну'
'裸体'
'袋'
'最好'
'和你'
'制_'
'出去'
'зат'
'дев'
'бур'
'безопасности_'
'Гар'
'we'
'sky'
'2年'
'非法'
'降'
'迫'
'而不'
'注'
'所以我们'
'或是'
'夏季'
'剑'
'他们都'
'乘坐'
'улице_'
'пап'
'ела_'
'ot'
'73'
'19'
'"'
'飞行'
'金属'
'能量'
'砸'
'桶'
'未来的'
'如何_'
'内务部'
'候'
'人和'
'丁_'
'какая_'
'ици'
'их'
'Ше'
'Итак_'
'赛_'
'看到_'
'理_'
'汗'
'条件_'
'戰_'
'巴_'
'他与'
'ька_'
'ур'
'тела_'
'произошло_'
'новый_'
'зу'
'возможность_'
'вид_'
'fi'
'Me'
'葛'
'注意_'
'永'
'文学'
'教会'
'强调'
'天空'
'喜'
'上有'
'一点'
'яв'
'рас'
'постоянно_'
'посмотрел_'
'ови'
'моих_'
'ался_'
'Сергей_'
'97'
'* _'
'随后'
'金融'
'重复'
'表明_'
'斯塔'
'че'
'вроде_'
'mp'
'82'
'项目_'
'难民'
'阿斯'
'解放'
'茶'
'童'
'犹太'
'柏'
'敌人_'
'战略'
'工业'
'墨西哥'
'сти'
'оло'
'округ_'
'bu'
'领导人'
'预算'
'观众'
'见过'
'表明'
'综合'
'社'
'甜蜜_'
'每次'
'有些人'
'暴力'
'数学'
'快速'
'开枪_'
'在山'
'俄羅斯'
'ыс'
'пришлось_'
'подумал_'
'пан'
'много'
'группы_'
'Ча'
'll_'
'je'
'f'
'龍'
'罗夫'
'父'
'残'
'数字'
'我相信'
'冒'
'имени_'
'ере'
'Мер'
'um'
'So'
'3年'
'阅读_'
'遭到'
'角_'
'纪念'
'画_'
'律'
'官员'
'塞尔'
'在那里_'
'国内'
'发射'
'不需要'
'ович_'
'кос'
'далеко_'
'ng'
'Ni'
'麗'
'这是一个'
'背着'
'石油'
'瑪'
'比賽_'
'我知道你'
'我喜欢'
'委'
'你说'
'他和'
'亲爱的'
'之外_'
'про'
'очки_'
'отс'
'денег_'
'Пар'
'Оп'
'ie'
'Ol'
'89'
'45_'
'遵守'
'運'
'走吧_'
'责任_'
'第二次'
'第1'
'涂'
'洛_'
'援助'
'情感'
'发生了什么_'
'势'
'办法'
'之中_'
'专门'
'ска'
'кую_'
'жу'
'другом_'
'вещи_'
'аль'
'Sam'
'49'
'體'
'阅读'
'诺夫_'
'讓'
'蒙特'
'然后从'
'派_'
'替'
'对话_'
'安静_'
'伙'
'休息'
'丢'
'уг'
'работе_'
'кра'
'внутри_'
'Сан_'
'ation_'
'Gi'
'14'
'页_'
'那么_'
'许多人'
'规定'
'為'
'混'
'意义_'
'对她'
'增加_'
'呼吁'
'医院_'
'他突然'
'ули'
'тон'
'твой_'
'ик'
'Тут_'
'Кар'
'96'
')、_'
'餐'
'经验'
'报道_'
'我能'
'急'
'开车'
'并被'
'展示了'
'四个'
'咬'
'使用_'
'полно'
'ган'
'бре'
'ste'
'all_'
'83'
'62_'
'36_'
'静'
'透'
'沃_'
'未来_'
'普遍'
'抗'
'建设'
'在我们'
'共产党'
'уди'
'сан'
'помощь_'
'откуда_'
'какое_'
'жи_'
'дела'
'взял_'
'Пу'
'ul'
'ab'
'Du'
'而且还'
'紧张_'
'知_'
'打断'
'我总'
'年的'
'学习_'
'娃'
'免'
'伤害'
'价格'
'мар'
'двери_'
'виде_'
'Кан'
'car'
'Ser'
'脸_'
'胸'
'月亮'
'最大的'
'悲伤_'
'床上_'
'希_'
'尼古拉'
'娅'
'天气'
'司机'
'作品_'
'слов_'
'район_'
'жа'
'Се'
'НО'
'lo'
'95'
'81'
'船只'
'疑'
'犯'
'江'
'抱'
'态'
'很有'
'宝'
'农'
'从事'
'上面'
'чки_'
'новые_'
'ках_'
'деятельности_'
'дат'
'Нам_'
'fe'
'; '
'64_'
'33_'
'2005_'
'!.._'
'让她'
'臭'
'答应'
'把它'
'司法'
'ё_'
'шься_'
'ческие_'
'ле'
'ей'
'ба_'
'ze'
'du'
'Go'
'88'
'钥匙'
'表现'
'用的'
'权利'
'战士'
'在天'
'卢布_'
'你和'
'你不会'
'他的脸'
'своем_'
'кро'
'Мат'
'ut'
'od'
'W_'
'鼓励'
'采'
'跑_'
'碎'
'植物'
'提出了'
'我们需要'
'就不'
'发生在'
'博士'
'了吗_'
'фер'
'скоро_'
'проблемы_'
'вен'
'Воз'
'Вал'
'Бога_'
'Ак'
'we_'
'ru'
'qui'
'ed'
'34_'
'1年'
'18'
'贴'
'渴望'
'实施'
'失望_'
'太空'
'了我'
'一场'
'четыре_'
'решение_'
'понимаю_'
'мо_'
'кар'
'изо'
'Бер'
'oc'
'7月'
'퓚'
'逃'
'美洲'
'移动'
'朋友们'
'戰爭_'
'圈'
'唯一的'
'你的_'
'他非常'
'仔细'
'числе_'
'це'
'мы'
'ило_'
'Иван_'
'wa'
'Fa'
'风_'
'节日'
'第5'
'波兰'
'有的'
'批'
'戈尔'
'学会'
'大量'
'几天'
'具'
'作家'
'作_'
'但要'
'今年'
'也就是'
'руками_'
'одним_'
'од'
'нс'
'находится_'
'й'
'Чу'
'Пе'
'КО'
'ts'
'ma'
'gen'
'Ya'
'Cha'
'. '
'这些人'
'社区'
'特里'
'扔'
'喬'
'压力_'
'厂'
'别的'
'伊朗'
'企业'
'代表团'
'上帝_'
'упа'
'плохо_'
'некоторые_'
'зов'
'вает_'
'Ам'
'2013_'
'详细'
'访'
'糟糕_'
'的工作'
'然后去'
'材料'
'改善'
'彻底'
'单独'
'佩特'
'тан'
'стран_'
'коп'
'ери'
'гор'
'вниз_'
'Ки'
'Еще_'
'重_'
'要求_'
'約翰_'
'猪'
'毁了'
'有关的'
'德里'
'发生的'
'你一'
'不愿'
'емся_'
'гре'
'ге'
'Ы'
'Ber'
'", - _'
'鯰_'
'身体_'
'等着_'
'瓦尔'
'有一天_'
'思考_'
'忘记'
'帶'
'在K'
'哭'
'北京'
'тель_'
'скорее_'
'вышел_'
'вижу_'
'Этот_'
'ig'
'ho'
'13'
'面包_'
'眼_'
'月_'
'布里'
'女子'
'国王_'
'哭了_'
'争'
'рос'
'землю_'
'еде'
'ck_'
'Man'
'8年'
'4年'
'2007年'
'谢尔盖_'
'謝'
'给我们'
'税'
'真实'
'猛'
'摧毁'
'掌'
'指挥官'
'我都'
'惊慌失措_'
'喊'
'吃_'
'两年'
'ча_'
'се_'
'прив'
'необходимо_'
'ил'
'dis'
'2005年'
'股'
'玩_'
'学生_'
'向我'
'хотела_'
'спросила_'
'порядке_'
'качестве_'
'ид'
'говорят_'
'вами_'
'брат'
'Кри'
'Их_'
'Аль'
'Si'
'9年'
'98'
'86'
'300'
'180'
'02'
'绝对'
'给她'
'清理'
'拿着'
'我们将'
'就能'
'培训'
'ун_'
'однако_'
'мере_'
'ек'
'выше_'
'все'
'ВО'
'im'
'don_'
'适合'
'與'
'等着'
'痛'
'溫'
'明确'
'文化_'
'我最'
'怎么了_'
'巴尔'
'女士'
'壁'
'医学'
'他有'
'эн'
'Шо'
'Джа'
'Con'
'84'
'語'
'笑话'
'相信_'
'柱'
'幅'
'将军'
'之间_'
'三_'
'мыш'
'лет'
'дал_'
'дал'
'вин'
'Умершие_'
'骑马'
'诚'
'著名的'
'英雄_'
'相关'
'疾病_'
'烈'
'曲_'
'大部分'
'大声'
'塞进'
'加利'
'ху'
'ош'
'обо'
'ля_'
'всему_'
'века_'
'ается_'
'kin'
'2cH111211_'
'闭嘴_'
'邊'
'燃烧_'
'挖'
'抱怨_'
'把手'
'尿'
'宣'
'婚'
'例'
'你能'
'介绍'
'丹_'
'下一'
'столько_'
'сосед'
'мен'
'куп'
'ве'
'будешь_'
'Bar'
'70_'
'飛'
'需要_'
'萨_'
'給'
'的火'
'痛_'
'状况'
'消息_'
'海岸'
'扩大'
'我们还'
'夫人_'
'历'
'克莱'
'сы_'
'можете_'
'городе_'
'ван'
'Ян'
'kov'
'can_'
'User_'
'94'
'2000年'
'署'
'線_'
'波尔'
'政府_'
'撞'
'捕'
'慢'
'宝贝_'
'安排'
'存在的'
'大學_'
'地下'
'保险'
'他似乎'
'шен'
'рон'
'отношении_'
'нных_'
'нео'
'ee'
'cHFFFFFF_'
'Hi'
'車_'
'耶稣'
'美_'
'犹太人'
'爱的'
'改变了'
'我希望'
'恐惧'
'性的_'
'庆祝'
'奥_'
'和人'
'公司的'
'你得'
'他自'
'наверное_'
'многие_'
'должно_'
'Че'
'Зачем_'
'Ев'
'Бар'
'ina'
'hy'
'Is'
'附近的'
'肠'
'火车'
'海_'
'撞到'
'宫'
'关键'
'保留'
'你去'
'传统'
'人员_'
'щен'
'ший_'
'удалось_'
'течение_'
'спокойно_'
'сно'
'пос'
'известно_'
'жан'
'uk'
'Alexander_'
'面包'
'阶段_'
'运输'
'約'
'独自'
'数据_'
'委员会的'
'夫的'
'在这里_'
'全面'
'价值'
'те'
'последний_'
'пол_'
'кап'
'вали_'
'Ничего_'
'Ме'
'out_'
'183'
'链'
'解_'
'肖'
'罪_'
'第4'
'秘密_'
'猎'
'是你'
'拍摄'
'广场'
'客户'
'及时'
'参加了'
'他对'
'хе'
'тесь_'
'с'
'меньше_'
'каким_'
'знаете_'
'в'
'Фе'
'Сегодня_'
'МО'
'Ему_'
'ich'
'5日'
'2016年'
'顾'
'逮捕'
'贝尔'
'白色'
'取决于'
'别人的'
'判'
'ще_'
'хо'
'увидеть_'
'тели_'
'порт'
'оти'
'звер'
'Тро'
'РО'
'Ново'
'Бен'
'za'
'ip'
'Il'
'Car'
'39_'
'请求'
'补'
'脱'
'缩'
'确认'
'款_'
'拉夫'
'嫉妒_'
'头发'
'地点_'
'受害者'
'发抖_'
'原子'
'击中_'
'ши_'
'конца_'
'ели'
'дос'
'вших_'
'СССР_'
'Vi'
'No'
'道路'
'连接'
'见到'
'袭击'
'胜'
'租'
'太多'
'外国'
'发生了'
'一个小'
'сол'
'своему_'
'поли'
'оказался_'
'комнату_'
'жил_'
'еже'
'ас'
'Ста'
'tu'
'his_'
'ent'
'Lu'
'As'
' ,_'
'虚'
'至1'
'聪明的'
'破碎的'
'爷爷'
'清楚'
'提供的'
'措施'
'性别'
'对此'
'在俄罗斯'
'加拿大'
'公寓'
'став'
'рублей_'
'лу'
'кин'
'ировать_'
'и'
'вполне_'
'бед'
'Пер'
'ver'
'U_'
'93'
'17'
'**_'
'陷入'
'而已_'
'考虑到'
'羅馬'
'组成_'
'的事'
'男孩_'
'提交人'
'在整个'
'反应'
'似乎是'
'两名'
'ш'
'поскольку_'
'исто'
'зи'
'земли_'
'бан'
'ye'
'ok'
'av'
'9月'
'自动'
'社会主义'
'看见'
'率_'
'炮'
'春天'
'履行'
'家的'
'填'
'净'
'买了'
'яет_'
'рин'
'она'
'ко'
'дя_'
'вых_'
'вес'
'Ру'
'Sergei_'
'限制'
'藤'
'老板'
'素_'
'秋天'
'径'
'小时_'
'喀'
'ётся_'
'чин'
'уют_'
'ским_'
'ров_'
'мб'
'зе'
'Шу'
'Бал'
'pi'
'ist'
'ani'
'8日'
'3cH2F2F2F_'
'责'
'蓋'
'矿'
'登记'
'洞_'
'我想我'
'将会'
'垃圾'
'回答说_'
'哲学'
'們'
'伊斯'
'一家'
'ял_'
'стол_'
'ров'
'мед'
'заметил_'
'Олимпийские_'
'Ир'
'2月'
'0日_'
'達_'
'还活着_'
'规定_'
'苏维埃'
'维尔'
'给我_'
'结婚'
'生物_'
'甚至没有'
'浮'
'格雷'
'有效'
'想想'
'帝国'
'匈牙利'
'京'
'яз'
'шо'
'цию_'
'рыб'
'общем_'
'аз'
'fs12_'
'Tu'
'震'
'释放'
'距离'
'蛋'
'艺术家'
'类_'
'相信我_'
'海军'
'智'
'教授_'
'教區_'
'她有'
'合_'
'人在'
'中有'
'上了'
'очка_'
'нной_'
'ку'
'ита'
'жа_'
'вз'
'Чтобы_'
'Из'
'ЗА'
'min'
'ev_'
'：'
'进行_'
'返回'
'调查_'
'证_'
'的头'
'现实_'
'明天_'
'接受_'
'抵达'
'我需要'
'在地'
'同意_'
'倍_'
'丹尼'
'严重的'
'ыва'
'щего_'
'тор_'
'пис'
'му'
'ка'
'иш'
'дра'
'глазах_'
'Ген'
'https_'
'hin'
'37_'
'2003_'
'鼻子'
'长的'
'篇'
'皇家'
'甜'
'猜'
'治疗_'
'所有人_'
'均'
'喂_'
'勤'
'党_'
'他妈的'
'шн'
'сте'
'прежде_'
'помощью_'
'первой_'
'мое_'
'лы_'
'каждого_'
'дел_'
'вед'
'ас_'
'Пред'
'Красно'
'%，_'
'黎'
'验'
'负'
'蕨_'
'积'
'根本'
'拆'
'后来_'
'博物馆'
'冲突'
'全世界'
'цу_'
'обычно_'
'жела'
'ест'
'гу'
'вопросы_'
'Михаил_'
'Значит_'
'var_'
'se'
'184'
'这位'
'还不'
'足球會_'
'紫'
'第'
'破裂_'
'砍掉'
'登_'
'用手'
'泡'
'村_'
'拖走_'
'我说_'
'我以为'
'很多人'
'往往'
'录'
'廷'
'布尔'
'哇_'
'卫'
'博物馆_'
'劳动'
'刻_'
'临'
'хан'
'пусть_'
'Эта_'
'ФК_'
'Лен'
'Гре'
'mar'
'lin'
'el_'
'Cor'
'% _'
'雙'
'闭上眼睛_'
'衛'
'芬兰'
'肩膀_'
'有关_'
'普罗'
'天使'
'增长'
'咖啡'
'和他的'
'告诉你_'
'吉_'
'危险'
'тво_'
'получил_'
'подс'
'ков'
'государства_'
'втор'
'Суд'
'Вар'
'nd'
'et_'
'He'
'Che'
'身上_'
'记住'
'角落'
'符合'
'牛_'
'然后我'
'普里'
'承认_'
'戒'
'形式'
'常常'
'工_'
'和第'
'发动'
'他看到'
'уч'
'сим'
'работа_'
'пон'
'период_'
'ному_'
'лю_'
'лета'
'ип'
'sto'
'op'
'ine'
'Pu'
'55_'
' ..._'
'达成'
'躲'
'谢谢你_'
'色_'
'然后开始'
'烤'
'根本不'
'房子_'
'总之_'
'尚'
'它们_'
'夫人'
'基督教'
'和A'
'公主'
'》。_'
'。 '
'уз'
'пар'
'кара'
'завтра_'
'жена_'
'енного_'
'вып'
'ав_'
'Хан'
'Тебе_'
'НА'
'Дев'
'mu'
'mo'
'Pe'
'走进'
'毫不'
'楼_'
'怎样'
'很容易'
'层_'
'安德'
'学家'
'奴隶'
'地区的'
'唐'
'咨询'
'取得'
'厨房_'
'兴趣_'
'ье'
'щий_'
'ум_'
'руб'
'ос_'
'обратно_'
'ника_'
'нием_'
'мак'
'лю'
'долго'
'благо'
'Эр'
'Mon'
'2015_'
'鸟_'
'鲍'
'飞翔_'
'闪烁_'
'都没'
'那就是'
'简单'
'看到的'
'消'
'旁'
'扫'
'德國'
'因为这'
'回来了_'
'唱歌_'
'як_'
'юю_'
'шу'
'ческий_'
'тин'
'след'
'ски_'
'организации_'
'ночи_'
'лист'
'Ван'
'38_'
'那孩子'
'记住_'
'笑容'
'秒'
'看着_'
'支持_'
'我是说_'
'忠'
'复杂的'
'地板上_'
'土地_'
'农民'
'免费'
'以免'
'了我的'
'世纪_'
'・_'
'ят'
'плат'
'ом'
'нию_'
'нит'
'можешь_'
'лива'
'енная_'
'СТ'
'Мари'
'han'
'ari'
'1日_'
'獎_'
'检察官'
'格林'
'己'
'女孩们'
'嗎_'
'喷'
'十分'
'出来'
'共和國_'
'伊凡'
'》'
'це_'
'фе'
'кур'
'кли'
'еп'
'Бор'
'pos'
'ova'
'but_'
'? - _'
'66_'
'5月'
'赚'
'证明_'
'議'
'米尔'
'第六'
'益'
'痛苦的'
'末'
'堂'
'原因'
'危'
'刑事'
'伪'
'伊戈尔_'
'丝_'
'щей_'
'хи_'
'сын_'
'род'
'результате_'
'ото'
'заявил_'
'жение_'
'ви_'
'Жен'
'», _'
'nt_'
'Fe'
'鐵'
'荷兰'
'的心'
'沿'
'是谁_'
'差点'
'塞_'
'щие_'
'уе'
'пара'
'ир'
'Пи'
'Ге'
'é'
'ji'
'fa'
'Per'
'42_'
'）'
'陆'
'門'
'赢得'
'贵'
'纽约'
'維奇_'
'概念'
'机器'
'普什金'
'斯托'
'假装'
'他正'
'产品'
'января_'
'як'
'фо'
'раст'
'има'
'идет_'
'ес_'
'гон'
'гер'
'волосы_'
'Тай'
'ООН_'
'Лин'
'Джей'
'Германии_'
'Бур'
'骗'
'错误_'
'里有'
'过去的'
'萨尔'
'茲_'
'脸部'
'耶_'
'教堂_'
'惩罚'
'後'
'少_'
'压力'
'加上'
'专业'
'下去_'
'хм'
'невозможно_'
'ене'
'вместо_'
'Шт'
'Bi'
'" '
'詹姆斯_'
'时期_'
'并不是'
'对了_'
'在S'
'因为_'
'公众'
'съе'
'ответила_'
'наша_'
'люблю_'
'декабря_'
'воду_'
'Гол'
'lov'
'der'
'Mar'
'43_'
'05'
'音_'
'靈'
'谁是'
'移'
'科技'
'班_'
'树_'
'权力_'
'时刻_'
'旗'
'很快就会'
'崩溃了_'
'守卫'
'奶'
'同情'
'同志_'
'合法'
'协议_'
'制作'
'伊斯兰'
'乱_'
'业_'
'ща'
'шки_'
'тов_'
'тов'
'тер_'
'овые_'
'кали'
'ель'
'Родившиеся_'
'sta'
'Sergei'
'Oleg_'
'领域'
'集体'
'邪恶'
'衬衫_'
'螺_'
'莱_'
'而且_'
'的眼睛_'
'木_'
'我们没有'
'懂'
'同事'
'利益'
'创'
'亨'
'中间'
'одном_'
'людям_'
'Али'
'yu'
'mb'
'52_'
'4日'
'1996_'
'181'
'镜'
'绝'
'系列'
'米哈伊尔_'
'检查_'
'打开_'
'我爱'
'愿望_'
'恨'
'忙_'
'巴黎'
'尸体_'
'妇'
'多次'
'在莫斯科'
'冠'
'任何人'
'了你'
'ья'
'щая_'
'стране_'
'смотрел_'
'оли'
'нах'
'настолько_'
'кс_'
'важно_'
'Эд'
'Правда_'
'Один_'
'Ma'
'201'
'... - _'
'諾_'
'规则_'
'观点_'
'维持'
'系列_'
'监狱'
'的手_'
'瑞士'
'欣'
'桌子'
'条件'
'扣'
'所_'
'我记得_'
'工厂'
'尼克'
'娅_'
'夫卡_'
'墙壁'
'固定'
'命运_'
'剧'
'伯爵'
'яно'
'территории_'
'стил'
'рем'
'земле_'
'возле_'
'весьма_'
'Мон'
'Ё'
'ten'
'rie'
'革命_'
'郡_'
'記'
'級'
'秋'
'我叫'
'想念'
'开放'
'宗'
'婚礼'
'命令_'
'厅'
'其实'
'ут'
'совет'
'сначала_'
'рек'
'непри'
'лен'
'легко_'
'бер'
'ация_'
'ак'
'ic'
'What_'
'Fo'
'鼠'
'题'
'经验_'
'然后你'
'济'
'斯大林'
'挤'
'把我们'
'困难_'
'唇'
'句'
'件事'
'черно'
'тно'
'право_'
'пода'
'никак_'
'недо'
'клуб_'
'ке'
'аф'
'Европы_'
'ensis_'
'ct'
'9日'
'190'
'，'
'陷'
'这项'
'走廊'
'资'
'补充'
'花园'
'纪'
'糖'
'箱'
'移民'
'白俄罗斯'
'斗'
'打击'
'情况下_'
'工具_'
'团体'
'回顾'
'嘴唇_'
'哈_'
'你看'
'但不是'
'типа_'
'сих_'
'ники_'
'мер'
'крыш'
'иначе_'
'ен'
'война_'
'ада'
'Ши'
'Именно_'
'Ве'
'so_'
'Pa'
'2002年'
'*'
'體_'
'通往'
'谈_'
'警察_'
'被压'
'虫'
'胜利'
'程_'
'王_'
'烦'
'游客'
'攻击_'
'弱'
'家里'
'哭_'
'和一'
'ёт'
'рм'
'поэт'
'пен'
'оте'
'машины_'
'ливо_'
'жения_'
'аст'
'Мэ'
'ua'
'6月'
'雨水'
'记录_'
'蛛_'
'蘭_'
'盃_'
'的同'
'满意_'
'沉默_'
'有没有'
'年龄'
'尼亞'
'大概'
'他像'
'шт'
'смог_'
'ников_'
'буд'
'ага'
'Соб'
'Можно_'
'yl'
'what_'
'tin'
'it'
'go_'
'con'
'马里'
'柴'
'有1'
'是我的'
'提交'
'德国人'
'孩子的'
'别担心_'
'但没有'
'伊利'
'了他'
'явно_'
'ческих_'
'перес'
'пере'
'оль'
'нём_'
'на'
'мп'
'зи_'
'бы'
'бело'
'астероидов_'
'if'
'Fi'
'Am'
' --_'
'變'
'警方'
'耶夫_'
'站着_'
'环境_'
'斯的'
'彼此'
'你自己'
'于是'
'смен'
'рода_'
'возможности_'
'Эти_'
'Пан'
'nd_'
'Wa'
'Ru'
'51_'
'郎_'
'资料_'
'责任'
'說_'
'苦'
'艦_'
'签'
'的方式'
'澳大利亚'
'法西斯'
'棕色'
'时期'
'早就'
'恐怖主义'
'很少'
'引起'
'带_'
'供应'
'人生'
'主任'
'ыл'
'последние_'
'новой_'
'лени'
'ква'
'знала_'
'жо'
'аб'
'Род'
'Ком'
'Кам'
'ts_'
'so'
'sh'
'mon'
'ert'
'Ad'
'56_'
'要是'
'良'
'缝'
'經'
'種'
'磁'
'琳'
'现_'
'烂'
'渡'
'检查了'
'早餐'
'捷克'
'扬'
'托尔'
'式_'
'工程'
'威尔'
'姓'
'友'
'到我'
'冷_'
'” _'
'шест'
'то'
'раз'
'практик'
'правильно_'
'нравится_'
'мост'
'многих_'
'мит'
'людьми_'
'л'
'комнате_'
'зыва'
'дол'
'д'
'We'
'.)_'
'说服'
'议员'
'自治'
'肩膀上'
'第二天_'
'立陶宛'
'监督'
'盐'
'的时候'
'王国_'
'狄'
'爬出来_'
'歌曲_'
'旋'
'敌'
'巴拉'
'崇拜'
'将他'
'完全不'
'夏天_'
'回到了'
'四十'
'古巴'
'剂'
'划'
'决议_'
'作者'
'》，_'
'хар'
'силу_'
'принцип'
'ит'
'ени'
'гра'
'главное_'
'ач'
'will_'
'gin'
'am_'
'90_'
'6日'
'48_'
'2日_'
'黨_'
'飞机_'
'阴'
'锡'
'的故事_'
'桌子_'
'所以他'
'我自己'
'子弹'
'启'
'办法_'
'克斯_'
'шин'
'чил'
'хся_'
'утром_'
'твоя_'
'ответ'
'нар'
'лов'
'имен'
'енс'
'говорю_'
'Раз'
'Ас'
'1997_'
'182'
'镇_'
'费_'
'打电话_'
'我连'
'复杂_'
'地球_'
'可怜的'
'五十'
'云'
'ьная_'
'средне'
'поро'
'поняла_'
'никого_'
'лев'
'ез'
'Уже_'
'yn'
'know_'
'fin'
'Sch'
'It_'
'7日'
'200_'
'页'
'集_'
'隔'
'逊'
'适应'
'谈判'
'虎'
'相反_'
'申请'
'珀'
'河畔'
'格罗'
'杂'
'挂'
'房_'
'对待'
'ы'
'сен'
'оп'
'народ_'
'вшие_'
'Ху'
'Очень_'
'tan'
'fn黑体_'
'Z_'
'遭受'
'赫_'
'聊'
'给予'
'第6'
'理论_'
'狂'
'某个'
'明显的'
'我们去'
'乙'
'严'
'世界上'
'ям'
'тол'
'стро'
'стер'
'сквозь_'
'никаких_'
'непо'
'матери_'
'кул'
'ика'
'зы_'
'зм_'
'воз'
'ТА'
'Само'
'Йо'
'mat'
'>_'
'菜_'
'脸色'
'祈祷_'
'更有'
'星际'
'故意'
'挑'
'幕'
'始终'
'告诉我们'
'协会'
'任命'
'чтоб_'
'роль_'
'пост'
'оми'
'новых_'
'нали'
'иб'
'едва_'
'вывод'
'ат'
'авто'
'Эй'
'Сил'
'鞋子'
'过程'
'设备'
'联盟_'
'的第一'
'的主要'
'生的'
'瓦西里'
'牙齿'
'火灾_'
'活动的'
'散步_'
'援'
'她很'
'喝醉了_'
'休息一下_'
'了他的'
'三世_'
'очередь_'
'омо'
'нная_'
'мин'
'крови_'
'ем'
'взглядом_'
'вернулся_'
'бесс'
'аде'
'Три'
'Рос'
'Нью_'
'Ros'
'麦克'
'铜'
'误'
'融'
'液'
'法庭'
'油_'
'楚'
'料_'
'拿出来_'
'外来'
'困'
'启动'
'信仰'
'реп'
'ради_'
'ис_'
'инт'
'готов'
'ана'
'ЦИ'
'fu'
'fs22_'
'1月'
'誓'
'翻译'
'答案_'
'的画'
'新年'
'差'
'塔尔'
'圣彼得堡'
'出版'
'什麼'
'亨利_'
'不太'
'下令'
'ян'
'щи'
'хать_'
'уча'
'ура'
'стар'
'стан'
'сл'
'сер'
'практически_'
'пе'
'нов'
'ением_'
'дочь_'
'готов_'
'Поз'
'ki_'
'鼓'
'首都'
'阿富汗'
'辩'
'调整'
'统计'
'称为'
'相对'
'所有这些'
'帝國_'
'布鲁'
'如果这'
'基因'
'城堡_'
'在其'
'击_'
'例如'
'人数'
'亚洲'
'эл'
'сос'
'сон'
'перевод'
'жар'
'ваться_'
'Эл'
'Украины_'
'Кир'
'Зо'
'Гал'
'your_'
'pt'
':'
'03'
'："_'
'销'
'茶_'
'灰色'
'沉默'
'拳'
'底_'
'学院_'
'声称'
'制度'
'修建'
'保护_'
'伽'
'холод'
'уровне_'
'ула_'
'узнать_'
'разных_'
'нев'
'метров_'
'лё'
'любой_'
'льд'
'книги_'
'ТЕ'
'ОН'
'Зна'
'uc'
'tt'
'ke_'
'j_'
'ita'
'09'
'阶段'
'進'
'诗人'
'统'
'看到了'
'熱'
'服_'
'很高兴'
'届会议'
'好吗_'
'墙_'
'分钟_'
'你看_'
'两次'
'рно'
'ме_'
'другим_'
'десять_'
'дам'
'ау'
'Николай_'
'Май'
'高加索'
'该死_'
'给你_'
'碳'
'监视'
'瓦斯'
'法國'
'棘'
'枚'
'杀死'
'杀了'
'暂时'
'无动于衷_'
'打架_'
'战斗_'
'总统_'
'开了'
'建造'
'帝国_'
'差不多'
'她总是'
'因_'
'哈里'
'俱乐部'
'作品'
'хол'
'ута'
'тав'
'отдел'
'мужчины_'
'кал'
'зар'
'ева'
'выве'
'вос'
'вечером_'
'Гер'
'Вод'
'shi'
'ik'
'dan'
'Yu'
'Andrey'
'赤'
'该死的'
'胳膊'
'耳朵'
'第二个'
'立法'
'的女'
'昨晚'
'数量'
'坦克'
'在那'
'健康的'
'倫_'
'作为一个'
'也许你'
'世紀'
'– _'
'эль_'
'шар'
'утра_'
'семьи_'
'пла'
'нд'
'зад'
'анс'
'Де'
'Вит'
'ty_'
'sc'
'Hu'
'65_'
'57_'
'12月'
'马克'
'風'
'跑去'
'资源_'
'试着'
'规则'
'藏在'
'聯賽_'
'结构_'
'级_'
'竞争'
'科夫_'
'督'
'的教'
'的不'
'爆'
'没有什么'
'改革'
'承诺'
'想起'
'小小'
'地点'
'团_'
'呆'
'发言_'
'发明'
'原则'
'яд'
'часа_'
'ув'
'тв'
'такую_'
'сына_'
'поддержива'
'пин'
'нужна_'
'мимо_'
'лед'
'ио'
'ешься_'
'вол'
'взять_'
'Мой_'
'Все'
'ai'
'07'
'맺'
'预计'
'錦標賽_'
'育'
'经历'
'的工作_'
'爱她_'
'每个人'
'根据_'
'操'
'推向'
'挥手_'
'扮演'
'威胁_'
'嘉'
'可惜_'
'农业'
'人物_'
'一个被'
'чный_'
'сообщает_'
'слуша'
'самых_'
'рус'
'рот'
'пом'
'оказалось_'
'нов_'
'начали_'
'жд'
'дон'
'Ци'
'Пол'
'Jo'
'41_'
'/'
'馆'
'长长的'
'迹'
'说的'
'规模'
'见面_'
'磨'
'献'
'特殊'
'板_'
'敲门_'
'收入'
'挪威'
'抱怨'
'打电话给'
'平均'
'小的'
'外面'
'墨'
'坦_'
'區'
'创造了'
'佳'
'–_'
'эм'
'ьн'
'ывать_'
'пят'
'нужен_'
'море_'
'канал'
'ждать_'
'вно'
'Привет_'
'Мария_'
'Ба'
'about_'
'US'
'Mi'
'47_'
'뫍'
'鼻'
'远离'
'被吓坏了_'
'現在'
'業'
'最初'
'时代'
'攻'
'握'
'控制_'
'就要'
'寻求'
'审'
'奎'
'切尔'
'不知'
'下滑_'
'нил'
'марта_'
'дет'
'дес'
'вверх_'
'би_'
'Ы_'
'Зак'
'Безопасности_'
'10月'
'", "_'
'追求'
'还有一'
'辞'
'类似的'
'碘'
'盲'
'猫_'
'狼_'
'朝鲜'
'更多'
'擊'
'我所'
'微笑_'
'密切'
'官方'
'奧運會_'
'奧運_'
'回家'
'問'
'吐'
'一個'
'一个_'
'чь_'
'цу'
'уре'
'транс'
'каза'
'история_'
'зе_'
'виду_'
'Дар'
'rov'
'3cH808080_'
'飞往'
'顺'
'隆_'
'读者'
'评'
'見'
'老人'
'秘书处'
'流_'
'每个人都有'
'殺'
'欢乐_'
'所谓的'
'慢慢'
'强大的'
'山脉'
'地把'
'伊戈尔'
'事实'
'乘'
'三角'
'эр'
'фл'
'уни'
'резко_'
'отсюда_'
'забот'
'девушки_'
'вя'
'Эй_'
'Стра'
'Наст'
'Владимир_'
'og'
'fscy66_'
'fscx67_'
'au'
': '
'3aHBE_'
'2cHFFFFFF_'
'预测'
'酷'
'邮'
'进来_'
'菜'
'简单_'
'的特'
'现在是'
'特派团'
'检'
'搬'
'拿到'
'找不到'
'愤怒'
'從'
'建立的'
'对他'
'婆'
'妇女_'
'ческой_'
'фин'
'ты'
'смотреть_'
'свет'
'сб'
'рав'
'ница_'
'еза'
'ее'
'делает_'
'вит'
'бин'
'Ю_'
'Сал'
'Рай'
'Мил'
'ST'
'Country_'
'6月2'
'鞋_'
'部队_'
'被击中_'
'若干'
'能_'
'肮脏的'
'瓦拉'
'没有看到'
'果_'
'是不是'
'接触'
'恋'
'她用'
'在大'
'厚'
'协助'
'剑_'
'公园'
'互联网'
'三年'
'шая_'
'чно_'
'станет_'
'сред'
'рук_'
'речь_'
'разно'
'раздел'
'осталось_'
'ов'
'ново'
'коридор'
'вод'
'брат_'
'ys_'
'sen'
'ir'
'chi'
'Mikhail_'
'Ju'
'Bel'
'44_'
'2月2'
'须'
'违反'
'财政'
'询问'
'球員_'
'牢'
'很大_'
'店_'
'尽快'
'尽可能'
'就是_'
'她就'
'十二'
'医'
'也不会'
'举行_'
'яться_'
'эн_'
'ческая_'
'хочется_'
'фан'
'факт'
'тел'
'система_'
'ник'
'запр'
'ания_'
'Франции_'
'Фил'
'Марк'
'Маг'
'wo'
'jo'
'ga_'
'Tra'
'關'
'轨道'
'赫尔'
'货币'
'计算机'
'约_'
'當'
'提醒'
'拟'
'抢劫'
'小行星4'
'墙壁_'
'場'
'坚'
'在家里'
'一天_'
'сы'
'потеря'
'половин'
'Пусть_'
'Ни_'
'Кэ'
'Вин'
'din'
'Je'
'Her'
'3月'
'0日'
'舰_'
'索_'
'的花'
'痕迹_'
'状态'
'斯特_'
'拿走了'
'护士'
'奇迹_'
'司令'
'剂_'
'яч'
'ьт'
'ыт'
'хр'
'уть_'
'тив'
'света_'
'решения_'
'по'
'первых_'
'первого_'
'нув_'
'меж'
'завод'
'ес'
'ег'
'гу_'
'во'
'вк'
'Мол'
' _'
'iz'
'4月'
'튻'
'迟'
'过程_'
'象_'
'線'
'睁开眼睛_'
'民_'
'束'
'村庄_'
'排队'
'挑战_'
'投票'
'夸'
'塑料'
'变_'
'力的'
'фон_'
'уве'
'тет'
'сет'
'самым_'
'рат'
'рамках_'
'нен'
'лож'
'какую_'
'ительно'
'ира'
'давай_'
'важны'
'ак_'
'Щ'
'Ск'
'РФ_'
'Кру'
'ys'
'af'
'-'
'集团'
'集中'
'转过来_'
'资金'
'賓'
'调查员'
'蒙_'
'白人'
'温暖_'
'来到了'
'搭'
'插入'
'批准'
'我们应该'
'感染'
'思想_'
'弗拉基米尔'
'库尔'
'巫师'
'射击_'
'太平洋'
'够了_'
'場_'
'团队'
'亲自'
'么_'
'举办'
'一张'
'ённо'
'ьные_'
'чку_'
'чески_'
'чему_'
'частности_'
'рот_'
'разговор_'
'проект'
'прин'
'получить_'
'пет'
'овых_'
'обязательно_'
'диа'
'Ур'
'Мал'
'ДЕ'
'ow'
'ei'
'For'
'9月1'
' “_'
'讨厌'
'美丽'
'统治'
'的生活_'
'王朝_'
'爆炸_'
'油漆_'
'柳'
'机场'
'是一种'
'摸'
'打扫_'
'姐妹'
'多数'
'地震_'
'原则_'
'你就会'
'他的头'
'一百'
'яти'
'человеком_'
'ум'
'рождения_'
'поб'
'ло'
'кер'
'или'
'жени'
'ево'
'ге_'
'гал'
'аи'
'Над'
'Лан'
'ЛИ'
'ГА'
'Вол'
'xi'
'dd'
'col'
'cha'
'ate'
'] _'
'Ke'
'Gra'
'Cl'
'46_'
'黃'
'预防'
'韦尔'
'軍'
'芙'
'空气_'
'空_'
'的生活'
'瘦'
'特别的'
'很生气_'
'她突然'
'多年'
'哪里'
'去找'
'像_'
'他跑'
'上校'
'ёл'
'ьян'
'фт'
'стин'
'соч'
'слышал_'
'расс'
'отч'
'кие_'
'зап'
'ект'
'бал'
'Ат'
'sa_'
'ber'
'apos_'
'Kar'
'问道_'
'钻'
'通讯'
'透明'
'过去了_'
'警告'
'绝不会'
'等我'
'程序_'
'确定_'
'理由'
'牵'
'材料_'
'有两'
'早点'
'新闻_'
'技'
'姆斯'
'妈'
'奥斯'
'地球上'
'яж'
'юд'
'учил'
'сил'
'от'
'нн'
'небо_'
'каких_'
'ини'
'зав'
'ега'
'Рад'
'me'
'gar'
'ec'
'ak'
'En'
') '
'领土'
'途'
'送往'
'腺'
'组织的'
'现在我们'
'普拉'
'是为了'
'所有人'
'我從'
'她说_'
'域'
'国民'
'嘲笑'
'卫星'
'协'
'十年'
'到这'
'元_'
'他很'
'不是_'
'下面'
'удар'
'поле_'
'овали_'
'мам'
'лес_'
'кино'
'дороге_'
'ание_'
'Це'
'Тра'
'Кап'
'Затем_'
'Ab'
'酒精'
'迹_'
'边界'
'课_'
'证据'
'葡萄牙'
'精神_'
'盛'
'的妻子'
'白痴_'
'溪'
'温柔_'
'汤'
'毒品'
'村民'
'最近的'
'星星_'
'援助_'
'拜托_'
'成功'
'悄悄地'
'宁_'
'婴儿'
'堂_'
'喂'
'原谅'
'也就是说_'
'一部分_'
'пошли_'
'наше_'
'мысль_'
'лив'
'жива'
'ески'
'емо'
'другого_'
'бил'
'Вз'
'Бл'
'Бел'
'Ари'
'rt'
'67_'
'11月'
'雄'
'金发'
'那_'
'费多'
'装有'
'號_'
'肉体'
'粗'
'生命的'
'源_'
'永远_'
'斯卡'
'慰'
'它们的'
'大厅_'
'周末'
'勞'
'兵_'
'公布'
'。'
'случа'
'слегка_'
'ситуации_'
'разные_'
'партии_'
'ора_'
'нц'
'населения_'
'лен_'
'лан'
'кровь_'
'кам_'
'ибо_'
'зал'
'ео'
'едино'
'государств_'
'гов'
'всеми_'
'ПО'
'齊'
'饱'
'里亚'
'贫穷'
'萬'
'花朵_'
'胃'
'端_'
'演员_'
'测试'
'注意到_'
'樂'
'概'
'柔'
'来看_'
'搜索'
'指挥'
'托夫'
'扇'
'我说'
'我将'
'季_'
'地位_'
'和他'
'伸'
'乘客'
'— _'
'ё'
'чу_'
'цеп'
'ср'
'пора_'
'помню_'
'офицер'
'ои'
'образ'
'лап'
'коль'
'йно'
'иметь_'
'зон'
'здоров'
'гром'
'вопросам_'
'баб'
'Ок'
'Аг'
'Ge'
'54_'
'阴暗的'
'贵族'
'记得_'
'良心'
'精英'
'穿上'
'的山'
'的主'
'有一次'
'旅行_'
'掌握'
'我们只'
'感兴趣_'
'审判'
'咖啡_'
'周围_'
'公平'
'但有'
'亚历山大'
'不满'
'шел_'
'уша'
'су_'
'сделали_'
'продолжа'
'отре'
'основе_'
'одно'
'моему_'
'жив'
'ений_'
'еж'
'двер'
'бул'
'СО'
'Пра'
'ИН'
'Дон'
'}'
'up_'
'ap'
'Mu'
'MA'
'3日'
'领域_'
'述'
'迫使'
'进程'
'财产'
'说实话_'
'親'
'等了'
'第一批'
'社会_'
'看起来_'
'监测'
'產'
'演讲'
'比利'
'显'
'支助'
'我父亲'
'惠'
'廣'
'平静'
'吸引'
'包_'
'但我不'
'件事_'
'不知道_'
'ьных_'
'ь'
'чн'
'чер'
'толк'
'спи'
'сел_'
'пусто'
'прово'
'нож'
'количество_'
'йк'
'думать_'
'вд'
'Республики_'
'НА_'
'Во'
'АН'
'ud'
'Bro'
'49_'
'- '
'逃离'
'越南'
'诗_'
'讲述'
'蜜'
'脸上'
'翼'
'石_'
'皇帝'
'生气_'
'爷爷_'
'点钟'
'毫无意义_'
'椅子上_'
'摇'
'妹妹'
'基督'
'地将'
'圈_'
'团结'
'吕'
'包裹_'
'制度_'
'出于'
'军官'
'俱乐部_'
'你真'
'但又'
'他从'
'主题'
'яется_'
'шу_'
'танц'
'собак'
'сентября_'
'рн'
'работает_'
'посмотреть_'
'нового_'
'мер_'
'машину_'
'другое_'
'головы_'
'вечер_'
'Тот_'
'Тем_'
'РИ'
'Кл'
'va_'
'sch'
'ly'
'em'
'8月'
'59_'
'难_'
'规划'
'艺'
'祖母'
'模板_'
'有时候_'
'是无'
'抛弃'
'形成'
'尼基'
'增加了'
'埃斯'
'听起来'
'吨'
'但由于'
'仙'
'主義_'
'энергии_'
'част'
'чан'
'унд'
'столь_'
'статьи_'
'ох'
'историю_'
'жили_'
'гораздо_'
'вич_'
'видела_'
'Сте'
'СП'
'Нем'
'oni'
'Ac'
'61_'
'问我'
'采用'
'身_'
'路上'
'被告'
'般'
'科学_'
'的老'
'環'
'瑞_'
'晚_'
'教_'
'巴勒斯坦'
'害_'
'她把'
'哥_'
'剪'
'儿童_'
'以来'
'上次'
'улыбнулся_'
'состав'
'сор'
'следующий_'
'рис'
'решили_'
'люб'
'йл'
'ельно_'
'груди_'
'Сан'
'Гос'
'Вос'
'Вас_'
'ry'
'just_'
'ich_'
'通知'
'还要'
'评论_'
'臂'
'机制'
'晚上_'
'我们也'
'序'
'少数'
'安全理事会'
'安东'
'学会了'
'外部'
'块_'
'图书馆'
'古典'
'作用'
'乔治_'
'丰'
'яли_'
'юк'
'ьной_'
'ус'
'сот'
'решила_'
'поднима'
'остью_'
'ночью_'
'использовать_'
'зл'
'другу_'
'вовсе_'
'Сэ'
'Коре'
'Зе'
'Заб'
'ran'
'del'
'am'
'At'
'Ana'
'63_'
'1月1'
'08'
'電視'
'这个词'
'的电'
'爆发_'
'沃尔'
'比我'
'指挥官_'
'报道'
'折'
'我记得'
'德尔'
'很久了_'
'岩'
'南非'
'事故_'
'为什么你'
'不到_'
'ьс'
'фильм'
'состоянии_'
'рит'
'пришла_'
'ора'
'овый_'
'неожиданно_'
'мисси'
'кури'
'известны'
'занят'
'ети'
'дз'
'ву_'
'ве_'
'Чи'
'Ган'
'yo'
'har'
'Len'
'齊_'
'黑色'
'豆'
'说什么_'
'覆盖'
'落_'
'而这'
'类似'
'瞬间_'
'看着我_'
'电视_'
'烟雾_'
'有东西'
'新来的'
'敲'
'放进'
'建筑_'
'府'
'应用'
'屋'
'屈'
'宫殿_'
'和1'
'吞噬_'
'博尔'
'交易'
'ён_'
'тай'
'рил'
'рев'
'районе_'
'работа'
'поиск'
'отве'
'кле'
'камер'
'ейн'
'внимания_'
'включая_'
'велико'
'ваш_'
'бесед'
'аю_'
'августа_'
'Ь'
'Тре'
'ТО'
'Пос'
'Dar'
' [_'
'食品'
'长大了_'
'该国'
'记忆_'
'组_'
'紐'
'的家'
'热情'
'水平'
'梦_'
'格斯'
'旅游'
'房屋'
'成_'
'态度_'
'广播'
'干什么_'
'宗教_'
'喝酒'
'南方'
'加斯'
'到的'
'倾'
'你这'
'传播'
'价值_'
'他回'
'яс'
'ьм'
'службы_'
'принес'
'ог'
'ове'
'мил'
'красно'
'инф'
'ена'
'ева_'
'девочка_'
'вчера_'
'воздух_'
'ара'
'Тер'
'См'
'res'
'4808_'
'2月1'
'金色的'
'蠢'
'聊天_'
'网站'
'睛'
'欠'
'枝'
'既然'
'接着'
'情况下'
'幻想_'
'工具'
'实现_'
'嫉妒'
'基辅'
'基地'
'剩下的'
'公路'
'俄语'
'俄国'
'人民的'
'人们的'
'产生的'
'五年'
'ыг'
'чисто'
'фон'
'ул'
'тит'
'таком_'
'случай_'
'скал'
'руч'
'рад'
'ою_'
'лице_'
'ича_'
'ивно'
'друзья_'
'действий_'
'грех'
'Э_'
'yan'
'war'
'len'
'il_'
'bra'
'點'
'驾驶'
'释'
'讲话_'
'警卫'
'裁'
'老大'
'粮食'
'箭'
'童年'
'睡着_'
'留下了'
'现象'
'活生生的'
'机械'
'更不用说'
'显然是'
'成立'
'当她'
'右侧'
'只有一'
'古代'
'伦敦'
'фор'
'теря'
'сто_'
'прор'
'опи'
'оза'
'нного_'
'нем'
'нашу_'
'иль'
'зал_'
'дни_'
'вык'
'Пост'
'IV_'
'2年_'
'10年'
'马特'
'鞋'
'阿布'
'蒙古'
'砍'
'杂志'
'明显'
'很差_'
'弯'
'弗拉'
'对这'
'安娜'
'壳'
'发展中国家'
'双方'
'厨房'
'内容'
'假设'
'低_'
'人道主义'
'了1'
'久_'
'业务'
'一开始_'
'—— _'
'ют'
'смо'
'рыв'
'обща'
'нг_'
'ех'
'вый_'
'pp'
'fs14_'
'data_'
'Col'
'And_'
'AN'
'-	_'
'铁路'
'这不'
'身份'
'計'
'表示_'
'而被'
'科斯'
'灰色的'
'消失'
'涅_'
'沙子'
'格鲁吉亚'
'构成'
'杂志_'
'据称'
'成功的'
'意思_'
'思_'
'怀疑_'
'弗里'
'它不'
'农村'
'公斤'
'你知道我'
'互'
'严重_'
'丛'
'являются_'
'юг'
'ьц'
'ьного_'
'шли_'
'уме'
'словам_'
'рел'
'паль'
'онер'
'мечта'
'ир_'
'ившись_'
'давал'
'град'
'говоря_'
'временем_'
'внимательно_'
'анг'
'Японии_'
'Об_'
'Мет'
'Без_'
'san'
'ky'
'7月1'
'. -- _'
'骑士'
'部的'
'群_'
'的水'
'的时间'
'申'
'现象_'
'灯_'
'漂浮_'
'教区_'
'才会'
'帮忙_'
'味'
'刺穿'
'克服'
'会在'
'他朝'
'主席_'
'三十'
'万_'
'ык'
'чел'
'успел_'
'торгов'
'ску'
'сам'
'пс'
'па_'
'ой'
'июля_'
'искать_'
'ива'
'ерт'
'гин'
'впервые_'
'благодаря_'
'бир'
'автор'
'Люди_'
'Кост'
'ДО'
'Го'
'they_'
'there_'
'par'
'ida'
'RA'
'IN'
'400'
'龍_'
'驾驶员'
'饭_'
'阿塞拜疆'
'腹'
'紧张'
'码'
'石块'
'的一部分_'
'百万'
'狱'
'氯'
'机构的'
'惩罚_'
'底下_'
'平等'
'她看'
'失败_'
'外婆'
'在这些'
'否则'
'后的'
'公路_'
'俩'
'來_'
'住房'
'伊拉克'
'严格'
'ъе'
'шись_'
'фа_'
'стри'
'спо'
'сообщил_'
'смерть_'
'сидел_'
'сг'
'сал'
'рс'
'паро'
'ню_'
'необ'
'ней'
'метод'
'мало'
'ист_'
'изм_'
'еры_'
'ались_'
'Мен'
'Кра'
've'
'bel'
'Ye'
'顽固'
'针'
'起来了_'
'论坛'
'角色_'
'角色'
'聯'
'管_'
'种植'
'离开这'
'疾病'
'火灾'
'朝他'
'更多_'
'损失'
'戰役_'
'我问'
'已婚_'
'夜晚_'
'啦_'
'冲突_'
'写了'
'увидела_'
'стру'
'спас'
'соответствии_'
'плеч'
'одновременно_'
'обид'
'номер_'
'мани'
'команд'
'изда'
'дны'
'группа_'
'били'
'ант'
'Сид'
'Пят'
'ted_'
'ss_'
'ska'
'2018年'
'04'
'避'
'連'
'费用'
'说过_'
'英格蘭'
'给了'
'经历了'
'稳定'
'用户'
'混合'
'標'
'杰克'
'条约_'
'无辜'
'必要的'
'小孩'
'宣传'
'娜的'
'奧林匹克運動會'
'奇迹'
'大麻'
'另一个_'
'助理'
'克雷'
'克的'
'他甚至'
'主教'
'不了_'
'ывая_'
'шат'
'чувство_'
'цел'
'трудно_'
'становится_'
'спиной_'
'пока'
'поговорить_'
'оре'
'ня'
'неза'
'нг'
'кат'
'иной_'
'жда'
'енное_'
'еле_'
'действия_'
'гат'
'вого_'
'бри'
'баз'
'Возможно_'
'Арт'
'den'
'5年_'
'龙_'
'需要的'
'统一'
'米拉'
'疯'
'烟雾'
'污'
'柏林'
'枕头'
'服从'
'有几'
'插进'
'承担'
'我的_'
'愚蠢的'
'强行'
'开始在'
'局势'
'尼亚_'
'她从'
'奥地利'
'多么'
'外套'
'在国'
'可_'
'又是'
'切_'
'入_'
'了一下_'
'ющей_'
'чет'
'укра'
'твор'
'стоя'
'самые_'
'ром_'
'рам'
'опа'
'не'
'молодой_'
'интересно_'
'инк'
'еро'
'ера'
'ангел'
'Гри'
'mil'
'ini'
'gan'
'b1_'
'Em'
'1992_'
'香_'
'餐厅'
'这是我们'
'规定的'
'表达'
'系_'
'的公'
'特雷'
'牌_'
'押'
'實'
'宫_'
'地理'
'依然'
'他经常'
'什么都不'
'亲吻'
'五个'
'也许我'
'不像'
'фу'
'собрал'
'ск_'
'пы'
'пришли_'
'примерно_'
'побед'
'мет'
'мат'
'куч'
'ительно_'
'ину_'
'имо'
'изменил'
'дели'
'власт'
'весел'
'ата'
'армии_'
'Ну'
'Й'
'Зел'
'Ed'
'CO'
'" -- _'
'这是一'
'质_'
'设备_'
'自从'
'脊'
'美国_'
'病毒'
'清洁'
'沃洛'
'模糊_'
'星期'
'政治_'
'抵'
'我像'
'我会的_'
'总理'
'形象_'
'强迫'
'年轻人_'
'女王'
'喝醉_'
'喜欢的'
'可以_'
'受伤'
'去年'
'功能'
'剥'
'伯特_'
'一样被'
'щую_'
'число_'
'участие_'
'уто'
'усь_'
'реша'
'право'
'папа_'
'общества_'
'ноября_'
'лу_'
'зрения_'
'дерев'
'дали_'
'ган_'
'вернуться_'
'алась_'
'Сен'
'РЕ'
'НЕ'
'Москве_'
'st'
'Pri'
'Mari'
'Har'
'雇员'
'隐'
'部署'
'路德'
'课程_'
'耐'
'绝望_'
'繁'
'的脸'
'的前'
'條'
'显然_'
'振'
'打了'
'形式_'
'布雷'
'尤里_'
'宣布_'
'大规模'
'和我们'
'变化'
'几年'
'傳'
'信徒'
'了我_'
'уст'
'уро'
'спорт'
'пресс_'
'поте'
'оружие_'
'октября_'
'моё_'
'мол'
'иком_'
'знакомы'
'зада'
'Мама_'
'Зв'
'Ду'
'Алексей_'
'ren'
'mer'
'Ku'
'%。_'
'鹿'
'高度'
'骑着'
'需'
'限'
'防止'
'軍_'
'萨拉'
'脂鯉_'
'肺'
'羅_'
'纹'
'第58_'
'空军'
'硫'
'的指'
'田_'
'独自一人_'
'沒有'
'欣赏'
'梅尔'
'是有'
'數'
'或_'
'我是个'
'很清楚_'
'弗雷'
'巨大'
'尊敬的'
'她正'
'坐下_'
'受伤_'
'厕所_'
'匹'
'分配'
'出现了'
'出售'
'兽'
'兒'
'乐意'
'世界大'
'一个老'
'юз'
'ько'
'школы_'
'чит'
'ути'
'ур_'
'точки_'
'список_'
'пришел_'
'принять_'
'отда'
'ота'
'общи'
'мен_'
'люд'
'лун'
'лк'
'ленно'
'июня_'
'зовут_'
'дав'
'гран'
'блок'
'ази'
'Юн'
'Фер'
'Никто_'
'Нев'
'Кро'
'Вас'
'ssi'
'son_'
'rn'
'form'
'ent_'
'Don'
'!'
'齒'
'音樂'
'阿里'
'足够'
'走出'
'资金_'
'蕾'
'至2'
'维尔_'
'知道我'
'的资'
'甜蜜的'
'热_'
'梯'
'更确切地说_'
'教堂'
'报告了'
'所吸引_'
'帮你'
'和自'
'吸入'
'压住'
'列宁'
'克林'
'傻瓜'
'了这'
'ывает_'
'цар'
'ца'
'утро_'
'стояла_'
'ст'
'перво'
'мон'
'йо'
'женны'
'елл'
'дороги_'
'голова_'
'высот'
'аре'
'Эк'
'Неп'
'ty'
'son'
'sky_'
'pu'
'San'
'Mor'
')；_'
'长大'
'钉'
'说我'
'詹'
'老太太'
'网_'
'经济_'
'稍'
'的房'
'村庄'
'是我们'
'感觉到_'
'家伙'
'奧斯'
'因为它'
'合同'
'包围_'
'剛'
'列_'
'份_'
'代表_'
'主_'
'”， _'
'языке_'
'стол'
'собственны'
'реб'
'процесс_'
'просьб'
'нан'
'крик'
'какого_'
'йны'
'заг'
'ению_'
'говорили_'
'ада_'
'Сколько_'
'Пот'
'ГО'
'van'
'nt'
'ep'
'bas'
'Petr'
'Air'
'驱逐'
'证据_'
'订婚_'
'群体'
'紀'
'种_'
'碎片'
'监'
'琳_'
'玛丽亚_'
'梦想_'
'旺'
'无线电'
'指控'
'很久以前'
'工作组'
'屋顶_'
'和一个'
'叉'
'卓'
'務'
'兼'
'你不是'
'但是我'
'交流_'
'一个充满'
'ёк'
'ческого_'
'скрыва'
'своём_'
'подк'
'пел'
'оя'
'обще'
'меры_'
'лон'
'лат'
'конец_'
'комплекс'
'ито'
'ине'
'ига'
'друзей_'
'движения_'
'дач'
'бел'
'Хр'
'Лю'
'eli'
'SA'
'53_'
'？”_'
'陷入了'
'镜子_'
'金色'
'诸'
'觉_'
'聽'
'窗'
'福音'
'灌'
'池'
'比赛'
'正常_'
'欢'
'桑_'
'标准_'
'期望'
'怎麼'
'很简单_'
'年代'
'巴塞'
'将是'
'寸'
'娘'
'基本上'
'在后'
'千年'
'依赖'
'你没'
'估计'
'产品_'
'交换'
'交往'
'亚的'
'一口'
'управления_'
'ссе'
'сила_'
'свете_'
'пытался_'
'прием'
'придется_'
'подума'
'подруг'
'океан'
'овско'
'обре'
'кт'
'крест'
'кв'
'дис'
'ген'
'вышла_'
'вож'
'био'
'анализ'
'аль_'
'Кла'
'rs'
'nov'
'like_'
'Sal'
'IS'
'75_'
'： “_'
'） （_'
'魚'
'释放_'
'醒来'
'转移'
'踢_'
'贪婪_'
'表面'
'获得了'
'脖子_'
'胶'
'经营'
'狼人'
'格勒'
'无人'
'我朋友'
'彩色'
'威廉'
'如果你想'
'员工'
'函'
'值班'
'侵犯'
'你觉得'
'他决定'
'一块'
'ём'
'телефон_'
'соп'
'сма'
'сделан'
'проблем_'
'правительства_'
'пожалуйста_'
'поводу_'
'повер'
'однажды_'
'оде'
'наме'
'мл'
'маг'
'вспомина'
'анд'
'ан'
'Стар'
'Наконец_'
'Мик'
'wh'
'stub_'
'sk'
'hr'
'eni'
'Kr'
'Jan'
'Dr'
'!!!_'
'那种'
'这两'
'蓝色'
'舰'
'自愿'
'生存'
'独特的'
'熟悉的'
'有三'
'损'
'扬_'
'手机'
'大道'
'坦克_'
'克尔'
'保障'
'你把'
'为什么我'
'шил'
'шива'
'сты'
'сок'
'сборн'
'орт'
'овая_'
'нот'
'нескольких_'
'колен'
'йский_'
'истин'
'исс'
'дё'
'добры'
'громко_'
'гол'
'вперед_'
'вны'
'ближе_'
'аш'
'апреля_'
'Лун'
'Кат'
'Игорь_'
'lt'
'ine_'
'bor'
'.)'
'魏'
'签署'
'福_'
'睡着了_'
'目的_'
'桃'
'敌人的'
'我们已经'
'忘记_'
'布尔什维克'
'差_'
'尽管他'
'完整的'
'姨妈'
'在中'
'和不'
'向他'
'原始'
'像是'
'了几'
'世_'
'上午'
'一小时'
'ющего_'
'узнал_'
'тве'
'прода'
'поп'
'окна_'
'ово'
'объем'
'незнаком'
'мальчик_'
'лер_'
'кла'
'йт'
'ело'
'гри'
'Сар'
'Пров'
'Ещё_'
'Ее_'
'ju'
'iv'
'got_'
'get_'
'fn'
'cons'
'Vol'
'Os'
'Kat'
'遥远的'
'遍'
'赋予'
'装置_'
'莫斯科的'
'第二_'
'目的'
'燃料'
'我认为_'
'想着'
'悬崖'
'座_'
'在A'
'味_'
'向前'
'双手'
'卡尔_'
'半小时'
'勋章_'
'了这个'
'为你'
'为什么不'
'个小'
'一秒'
'一头'
'шесть_'
'чувства_'
'центре_'
'усе'
'сцен'
'страст'
'реки_'
'посел'
'ода'
'неделю_'
'начал'
'мужа_'
'лод'
'каз'
'йм'
'имел_'
'дит'
'дел'
'вшего_'
'броса'
'бол'
'Тол'
'ЛО'
'Великобритании_'
'Анна_'
'lar'
'XI'
'Tr'
'Bra'
': «_'
'8年_'
'0月'
'0年_'
'驶'
'菲尔'
'舱'
'胆'
'细节_'
'米亚'
'的文'
'甚至不'
'现在又'
'灵魂的'
'氣'
'残酷'
'望_'
'小心地'
'她却'
'和地'
'合适的'
'卡特'
'分钟'
'侵'
'他的手'
'介'
'ёс'
'хот'
'студент'
'сни'
'прок'
'поход'
'письмо_'
'осозна'
'облада'
'народа_'
'мя'
'моло'
'мов'
'месяца_'
'жен'
'ею_'
'ад_'
'ЧЕ'
'Мит'
'wan'
'ina_'
'Mag'
'Lenin'
'LA'
'Infobox_'
'Ag'
'AT'
'1月2'
'! '
'阵线'
'闹'
'退休'
'这很'
'躺在床上_'
'观点'
'脱离'
'而是在'
'翅膀_'
'的脚'
'疼痛_'
'王国'
'獎'
'猛烈'
'淡'
'执'
'我又'
'我们现在'
'实体'
'孤'
'嫁给'
'她自'
'在1'
'君主'
'南部'
'你来'
'作家_'
'人民_'
'些什么_'
'了一些'
'шие_'
'читать_'
'фил'
'убить_'
'третье'
'тл'
'тест'
'структур'
'скажу_'
'семи'
'ранее_'
'представлен'
'начале_'
'информацию_'
'интер'
'иа'
'зно'
'дым'
'вт'
'воин'
'вина_'
'виз'
'видимо_'
'ах'
'авши'
'Чж'
'Рус'
'Моя_'
'Бат'
'ins'
'ban'
'Ver'
'12月1'
'酸_'
'辛_'
'谈到'
'认真'
'苏丹'
'背景'
'結'
'琳娜'
'状况_'
'清除'
'每天都'
'户'
'惹'
'弃'
'应当'
'帕斯'
'察_'
'妻子的'
'如果他们'
'大使'
'坏_'
'在门'
'在树'
'园_'
'和最'
'可能的'
'发出了'
'功'
'克罗'
'他看'
'亡'
'为1'
'下巴'
'下一个'
'一样的'
'шла_'
'черт'
'туп'
'тар'
'рож'
'роб'
'разве_'
'прид'
'пожар'
'нт_'
'нашем_'
'май'
'енным_'
'дух'
'джа'
'данные_'
'говорила_'
'гли'
'вечер'
'бут'
'бат'
'Тво'
'Ид'
'fo'
'ae'
'Mir'
'1998年'
'----_'
'高兴地'
'高中'
'连_'
'这真'
'起了'
'贫困'
'货物'
'谈判_'
'诗人_'
'讨论_'
'被撕裂_'
'蛋_'
'菌'
'良好_'
'航天'
'美元'
'睁'
'有趣_'
'普斯'
'斯科'
'操作'
'挖出来_'
'托利'
'年度'
'峰_'
'就无法'
'她的脸'
'奉'
'在离'
'国王的'
'和S'
'含'
'劝'
'伤害_'
'электро'
'щение_'
'цин'
'ущи'
'стно'
'стара'
'открыты'
'оно'
'недавно_'
'нед'
'мах'
'лиц_'
'лег'
'горд'
'аппарат'
'Глава_'
'zz'
'rs_'
'him_'
'降落'
'那些被'
'这一切'
'贩'
'评论'
'议_'
'莫尔'
'網'
'离开了'
'犯_'
'混乱_'
'测量'
'没事的_'
'更好的'
'是由'
'态度'
'将军_'
'又被'
'养育'
'兴'
'以后'
'спасибо_'
'сов'
'сестр'
'сед'
'родители_'
'разговор'
'пьян'
'просты'
'полос'
'нена'
'начало_'
'конфликт'
'ивать_'
'доход'
'голосом_'
'глядя_'
'ало_'
'Цел'
'Хэ'
'ЛЕ'
'Жа'
'Бог'
'БО'
'Ав'
'cu'
'ca'
']'
'齿'
'黛'
'香港'
'邁'
'被捕_'
'脱掉'
'耶维奇_'
'紧_'
'笼'
'用来'
'概念_'
'极端'
'朗_'
'数百'
'投入'
'我差点'
'感受到'
'怪物_'
'应对'
'巴特'
'审计'
'她现在'
'地说_'
'地板_'
'善意_'
'啤酒'
'另外'
'十字'
'剩'
'你了_'
'伯爵_'
'юс'
'ыха'
'школе_'
'чё'
'цвета_'
'ху_'
'уля'
'ственны'
'спать_'
'рё'
'рид'
'помо'
'ост'
'ома'
'оказалась_'
'ниц'
'никому_'
'нез'
'моим_'
'куб'
'замер'
'жил'
'дорогу_'
'данных_'
'видн'
'ват'
'боли_'
'бель'
'аясь_'
'ади'
'Ул'
'Пом'
'Лес'
'Её_'
'Бол'
'ym'
'rin'
'hel'
'fer'
'TE'
'Sk'
'Oleg'
'DNA'
'體育'
'销售'
'都被'
'那时'
'职_'
'穆尔'
'特的'
'特定'
'泪水_'
'普通的'
'握着'
'打_'
'我站在'
'定义'
'夹'
'大型'
'大厅'
'后悔'
'反映'
'压缩'
'博士_'
'你认为'
'以至于'
'他却'
'主要是'
'юст'
'человечески'
'футбольный_'
'тяжело_'
'труб'
'телей_'
'стратеги'
'стороне_'
'стены_'
'способ'
'ско'
'противо'
'привел'
'пои'
'план_'
'переход'
'нек'
'неб'
'наи'
'микро'
'механизм'
'матери'
'жены_'
'другую_'
'доб'
'всяко'
'вред'
'ваши_'
'вал'
'бит'
'арт'
'Сво'
'ЛЬ'
'Иванов'
'Епархия_'
'ey'
'ain'
'龍屬_'
'鲁_'
'马克斯'
'降低'
'适当'
'进来'
'这个问题_'
'跌倒_'
'貌'
'苏联的'
'维克'
'系统的'
'糖_'
'祖父'
'旅馆_'
'我今天'
'奧_'
'埃_'
'军团'
'兴趣'
'你应该'
'体内'
'但最'
'们在'
'人群'
'主义的'
'ющим_'
'экран'
'чек_'
'хов'
'труд'
'твои_'
'ребенка_'
'рай'
'проща'
'отдал'
'кру'
'красот'
'итель_'
'зин'
'замеча'
'ет'
'душу_'
'дает_'
'гива'
'вь'
'вала_'
'безо'
'Сталин'
'СА'
'Лит'
'time_'
'ori'
'll'
'fs18_'
'fn方正黑体简体_'
'ard_'
'ant'
'Van'
'Tri'
'Gor'
'Dan'
'9月2'
'7月2'
'1日'
'179'
'院子里'
'这是个'
'豆_'
'诗歌'
'节目'
'至19'
'罗伯特_'
'织'
'火力'
'棍_'
'普通人'
'无论是'
'无所'
'播放'
'摄影'
'手术'
'我决定'
'广泛'
'小行星9'
'女孩的'
'天空_'
'埋'
'在我的'
'在哪里_'
'回忆'
'同_'
'发现的'
'去看'
'南_'
'午'
'公里'
'公正'
'傻'
'但它'
'交流'
'也许他'
'之下_'
'为人'
'ыш'
'шл'
'ури'
'умира'
'ума'
'тир'
'средств_'
'смысле_'
'рен'
'прош'
'прекрасно_'
'похожи'
'памяти_'
'пал'
'отра'
'оставля'
'нс_'
'нное_'
'настоящее_'
'наде'
'любит_'
'льно_'
'личны'
'йств'
'иф'
'ину'
'ике_'
'зна'
'зм'
'жир'
'долларов_'
'диск'
'дент'
'бь'
'ачива'
'Россия_'
'Порт'
'Подо'
'Дим'
'ola'
'eo'
'cont'
'az'
'at'
'Vo'
'Sy'
'130'
'06'
'- "_'
'黑_'
'面积'
'邦_'
'路边'
'视频'
'藍'
'聯邦'
'罚'
'箱_'
'穆斯林'
'的生'
'琴'
'洲_'
'棺材'
'政策_'
'扩散'
'我不喜欢'
'恶魔'
'尼科'
'学家_'
'妇女的'
'好几'
'壮'
'圣殿'
'噪音_'
'发挥'
'列宁格勒'
'例子_'
'你这个'
'他笑了_'
'他一'
'人士'
'中國'
'хотели_'
'уче'
'рк'
'раб'
'процентов_'
'предв'
'пережива'
'отлича'
'ота_'
'нрав'
'лично_'
'лицом_'
'ета'
'дем'
'годн'
'выда'
'бывает_'
'Таким_'
'Сю'
'Сто'
'Поп'
'Перво'
'Ке'
'Какой_'
'КА'
'Было_'
'ns'
'ian'
'black_'
'3cH202020_'
'믡'
'霍夫'
'错误的'
'这个世界'
'过了_'
'诗歌_'
'蝴蝶_'
'牙_'
'滴'
'海岸_'
'框架'
'松_'
'有机'
'接受了'
'打电话'
'总督'
'宿'
'定期'
'妙'
'奇怪的是_'
'外套_'
'困惑_'
'厌倦'
'危机'
'加速'
'侵略'
'仅仅是'
'习'
'丑'
'一群'
'ьд'
'ъ'
'чные_'
'ходить_'
'хлоп'
'уя_'
'трех_'
'твоей_'
'ста_'
'свободно'
'образова'
'нё'
'ливо'
'идея_'
'заве'
'губы_'
'границ'
'Санкт_'
'МЕ'
'thing_'
'hal'
'... '
'，《_'
'雅_'
'附件'
'问他'
'钦'
'违'
'跟着'
'自19'
'而且我'
'笑得'
'神秘的'
'看看_'
'用大'
'漏'
'欢乐'
'未能'
'是很'
'才是'
'我们所'
'总部'
'彩'
'如果她'
'女士_'
'多尔'
'塔拉'
'在奥'
'同意了_'
'叫_'
'使我'
'фар'
'тик'
'сь'
'состояние_'
'солнце_'
'снима'
'родственник'
'рано_'
'пут'
'нужны_'
'низ'
'лови'
'лли'
'лез'
'знали_'
'журнал'
'дри'
'дн'
'груз'
'глаз'
'вели'
'бас'
'банк'
'атак'
'академи'
'аг'
'Чер'
'Человек_'
'Сон'
'Разве_'
'Кстати_'
'З_'
'ВИ'
'ros'
'om'
'her'
'for'
'ers_'
'ay'
'Sim'
'My'
'Ce'
'高兴_'
'電影'
'雅各'
'这次_'
'身边_'
'账户'
'街道_'
'莫_'
'胜利_'
'肩膀'
'罗德'
'真相'
'相同的'
'灯塔'
'没有人能'
'新闻处'
'文章_'
'文明_'
'搜查'
'我跟'
'我打'
'快乐的'
'很久_'
'尔斯'
'她非常'
'外交部'
'土豆_'
'哨'
'和她'
'周围的'
'后面'
'利益_'
'冰激凌_'
'公爵_'
'信仰_'
'佐夫'
'他只是'
'于1'
'丽塔'
'为止_'
'一艘'
'уничтож'
'транспорт'
'силой_'
'раза_'
'оф'
'открыто'
'месяц_'
'люби'
'кци'
'кров'
'заб'
'бег'
'ави'
'СЕ'
'Ог'
'Куда_'
'Дан'
'she'
'qua'
'der_'
'Ok'
'Cal'
'AL'
'6月1'
'500_'
'走进了'
'走向'
'許'
'要的'
'西亚'
'被困住了_'
'能源_'
'胎'
'祝贺'
'真主'
'盗'
'现场_'
'然后我们'
'洪'
'永久'
'森林_'
'文明'
'摆'
'抚摸'
'影子'
'形_'
'屆'
'寶'
'容易_'
'媒'
'如果不是'
'在第'
'向你'
'右_'
'印象_'
'则是'
'入侵'
'你需要'
'伐'
'伏特加_'
'交通_'
'亞洲'
'之处_'
'яза'
'юш'
'шум'
'хуже_'
'созда'
'сад'
'прио'
'появился_'
'пошла_'
'посо'
'оди'
'никакого_'
'мал'
'инструмент'
'инг'
'знаем_'
'запис'
'есс'
'душе_'
'гад'
'ально_'
'Нар'
'Кин'
'Кас'
'e的'
'Wikipedia_'
'TA'
'7年_'
'0年代'
'骑'
'面临'
'阿根廷'
'門_'
'赢'
'说他'
'纵'
'的美'
'的外'
'猎人'
'爱情'
'灾难'
'清晰_'
'气候'
'查_'
'書'
'扎_'
'我也不'
'感觉到'
'意外'
'心的'
'弦'
'布莱'
'尺'
'就是这'
'尊'
'商店'
'哪儿'
'军队_'
'但后来'
'丢了'
'上一'
'——_'
'ходе_'
'университет_'
'тк'
'ств'
'сказали_'
'рассматрива'
'перер'
'очку_'
'организм'
'лиш'
'кри'
'квартиру_'
'инг_'
'зен'
'дово'
'дно'
'бург'
'амб'
'Пара'
'Муж'
'Бре'
'vi'
'os_'
'lan'
'eri'
'ag'
'Zi'
'He_'
'陶'
'银行_'
'酷刑'
'那我'
'逃避'
'这场'
'西伯利亚'
'英语'
'联赛_'
'的机'
'活着_'
'斐'
'教皇'
'愿望'
'愤怒_'
'忍受'
'强壮_'
'干净的'
'小提琴_'
'对面_'
'对话'
'大公'
'士兵_'
'在卡'
'午餐'
'分散'
'军官_'
'伯_'
'一瓶'
'щек'
'целью_'
'уш'
'усили'
'тепл'
'счет'
'сознание_'
'погод'
'переста'
'опо'
'нко'
'мило'
'иру'
'золото'
'жин'
'един'
'держа'
'дек'
'годов_'
'вести_'
'Рас'
'Марк_'
'tro'
'sin'
'she_'
'que'
'io'
'ide'
'gra'
'RO'
'3月1'
'150'
'！ _'
'限制_'
'辅'
'转向'
'说出'
'认识到'
'行星'
'盘_'
'的工'
'物质_'
'浦'
'本人'
'智慧'
'是如何'
'教师'
'挖掘'
'布斯'
'宫殿'
'媽'
'圭'
'围栏'
'围'
'囚犯'
'告诉他'
'吸了'
'其中一个'
'保罗_'
'他已经'
'也没'
'不必'
'юб'
'центр_'
'товар'
'строй'
'ссо'
'скор'
'сделала_'
'рей'
'прит'
'посмотрела_'
'парн'
'отп'
'навсегда_'
'мни'
'лял'
'ирован'
'иро'
'движение_'
'вым_'
'водой_'
'взрослы'
'Юр'
'Ран'
'Нор'
'Кле'
'Кер'
'Каждый_'
'ino'
'eg'
'She'
'194'
'野兽'
'运动员_'
'车辆'
'诉'
'设立'
'血管'
'芒'
'艺术_'
'背叛'
'练'
'站着'
'祖母_'
'珍'
'流行'
'活下来_'
'模型_'
'机场_'
'战斗人员'
'律_'
'古斯'
'发展的'
'厉害_'
'北部'
'到1'
'农村居民点_'
'伊万诺维奇_'
'亚历山德'
'ыв'
'цело'
'фотографи'
'фигур'
'суд_'
'старо'
'ска_'
'ранен'
'ракет'
'проходил'
'пропа'
'прип'
'предел'
'переш'
'о'
'молча_'
'ладно_'
'коло'
'им'
'илл'
'заме'
'есь_'
'договор'
'див'
'встречи_'
'встал_'
'воле'
'Сен_'
'ПА'
'Лей'
'Виктор_'
'ć'
'ey_'
'ef'
'.- _'
'. "_'
'镜子'
'铁_'
'都能'
'遣'
'连续'
'起飞'
'赌'
'训练_'
'让_'
'街_'
'萨克'
'茨克'
'第七'
'空中'
'神圣的'
'祖国'
'的演'
'电梯'
'瓦西'
'瓦伦'
'物品'
'爱和'
'消灭'
'没有人_'
'毕'
'技巧'
'我回'
'惊人的'
'延长'
'大陆'
'在19'
'哪个'
'吸收'
'十五'
'分子_'
'农民_'
'他最'
'亚当'
'了大'
'也在'
'ёв'
'шер'
'шеп'
'художник'
'ушк'
'установлен'
'успех'
'урн'
'уверен_'
'тюрьм'
'сможет_'
'рол'
'рес'
'пыт'
'почт'
'первым_'
'пас'
'остан'
'остав'
'омн'
'ового_'
'обли'
'лот'
'имеют_'
'играть_'
'жал_'
'думаешь_'
'дове'
'времена_'
'бен'
'ата_'
'аро'
'ара_'
'История_'
'Ей_'
'Дмитрий_'
'yr'
'way_'
'sub'
'part'
'ole'
'lea'
'ill'
'ek'
'comp'
'Igor'
'4月1'
'黑色的'
'随时'
'钢'
'辣'
'路易'
'贴在'
'貝爾'
'议定书_'
'营地_'
'航空_'
'膜'
'而我们'
'美国人'
'的真'
'的物'
'症'
'然後'
'海盗'
'流泪_'
'提_'
'恶心_'
'性和'
'帕拉'
'山脉_'
'山洞'
'小行星31'
'家人_'
'如果没有'
'她也'
'多了_'
'地走'
'地毯_'
'图像'
'协商'
'办事处'
'俄罗斯人_'
'代价_'
'他们说'
'чо'
'чко'
'футбол'
'точ'
'тери'
'тельн'
'существует_'
'скоп'
'ребята_'
'предмет'
'пора'
'поздно_'
'подчин'
'перег'
'первую_'
'очередной_'
'опро'
'ож'
'обычны'
'нор'
'нис'
'илось_'
'зме'
'жно_'
'еля_'
'двадцать_'
'данным_'
'грамм'
'вода_'
'боев'
'Эли'
'Мос'
'Лё'
'Кара'
'Источник_'
'Гра'
'gon'
'Par'
'Cu'
'6年_'
'300_'
'%)'
'龄'
'马斯'
'问你'
'開始'
'酒精_'
'选择了'
'负责_'
'误解'
'行动的'
'蓬'
'营地'
'聯合'
'盐_'
'的国家'
'特罗'
'死者'
'歷'
'标志_'
'有可能'
'智能'
'政府的'
'提起'
'报告说_'
'把车'
'小行星35'
'客_'
'威爾'
'天堂_'
'外交'
'基础'
'在电'
'在海'
'后来又'
'名称'
'北方'
'刀子'
'出的'
'停在'
'众所周知_'
'伊尔'
'从上'
'了我们'
'щит'
'ух'
'тый_'
'тельный_'
'страниц'
'солдат'
'реакци'
'получ'
'погр'
'марк'
'которому_'
'ический_'
'ическая_'
'зил'
'звёзд'
'жит'
'ено'
'другими_'
'доктор_'
'вра'
'Сат'
'Прав'
'Нас'
'Куб'
'Знаешь_'
'Зап'
'Второй_'
'th'
'sti'
'ps'
'dar'
'9年_'
'  '
'驱'
'问题是_'
'钥匙_'
'跨'
'资料'
'见的'
'被迫'
'血液'
'艺术家_'
'胡子'
'益_'
'的情况_'
'父母_'
'炼'
'最重要的是_'
'昆'
'拿到了'
'我这'
'我写'
'慕'
'弗洛'
'峡谷'
'山谷'
'尽管我'
'小姐_'
'安抚'
'吉尔'
'十字架'
'区的'
'前进_'
'你从'
'会议上'
'为一'
'一件'
'一个女人'
'яг'
'членов_'
'чита'
'страда'
'регионе_'
'преда'
'поче'
'полага'
'оку'
'огра'
'ноч'
'леж'
'ланд'
'лам'
'комнаты_'
'желание_'
'ето'
'душа_'
'думала_'
'девушку_'
'гру'
'водо'
'боя'
'большую_'
'Хор'
'Фо'
'Прич'
'Кот'
'Буд'
'ush'
'oi'
'mas'
'kov_'
'inter'
'Ze'
'UN'
'Mikhail'
'GA'
'Er'
'1992年'
'黎明'
'面的'
'陪同'
'通_'
'追踪'
'融化_'
'肉_'
'罗姆'
'紫色'
'第一个_'
'目睹了'
'的影响_'
'的世界_'
'界_'
'特殊的'
'桑德'
'日子'
'斯克_'
'挑战'
'拉丁'
'抽烟_'
'房子的'
'感情'
'愚蠢_'
'得_'
'很冷_'
'幼'
'岛上'
'小妞_'
'姓_'
'女_'
'基础_'
'型_'
'囊'
'嘴唇'
'喜欢_'
'吹口哨_'
'县'
'初_'
'切断'
'公主_'
'兒_'
'债务'
'他们就'
'他们也'
'之_'
'不好_'
'上去'
'一片'
'центр'
'утся_'
'улыба'
'смысл_'
'расп'
'предлага'
'отряд'
'открыва'
'огонь_'
'непро'
'могло_'
'лично'
'лар'
'королев'
'каком_'
'йская_'
'ида_'
'ерс'
'войне_'
'боль_'
'бара'
'ато'
'Чего_'
'Ум'
'Том'
'ЕС'
'Добро'
'ht'
'Wal'
'Shi'
'Fu'
'.-_'
'饿'
'采访'
'速度_'
'逃到'
'近_'
'迁'
'边界_'
'资本'
'记_'
'裤子'
'翁'
'管理_'
'的高'
'的选'
'的路'
'番'
'瓦西里_'
'现在不'
'玛_'
'煤'
'渔'
'有助于'
'我开始'
'德意志'
'很聪明_'
'彭'
'形象'
'弗_'
'岡'
'客厅'
'宗_'
'安装'
'子的'
'女人的'
'國家足球隊_'
'周年'
'可能_'
'去世'
'十一'
'初步'
'分析_'
'公约'
'保存'
'仪式_'
'以外_'
'他认为_'
'仁'
'个人_'
'яй'
'яб'
'шка'
'цией_'
'хвост'
'фраз'
'февраля_'
'следующе'
'склон'
'семья_'
'сда'
'прямо'
'проекта_'
'пошел_'
'попро'
'понятно_'
'оров'
'общественно'
'наш'
'начинал'
'нас'
'мужчин_'
'мест'
'любил_'
'ком'
'заж'
'доклад'
'гуля'
'гося_'
'гл'
'высоки'
'выл'
'волшебн'
'ван_'
'ализ'
'Сначала_'
'Рим'
'Перед_'
'Ара'
'ub'
'mal'
'lic'
'dy'
'ds_'
'app'
'ali'
'ah'
'Can'
'BA'
'AR'
'2日'
'1996年'
'障'
'那天_'
'费尔'
'賈'
'谋杀'
'莱斯'
'艇_'
'背后'
'羅斯'
'继承'
'结论_'
'索夫'
'米哈'
'第7'
'笑着'
'码头'
'的结'
'疯子'
'犹太人_'
'温柔的'
'洛夫_'
'波利'
'撤'
'推到'
'我们能'
'弱_'
'广告'
'官_'
'天使_'
'境内'
'在公'
'商人'
'可是'
'叫我'
'只会'
'况'
'健'
'做法'
'候选人'
'你们的'
'但_'
'伍'
'’_'
'ясно_'
'чемпион'
'чат'
'цель_'
'цели_'
'уши'
'учи'
'утвержда'
'услышал_'
'угроз'
'тысячи_'
'тр'
'тки_'
'стическ'
'сси'
'сильнее_'
'полк'
'остался_'
'основани'
'опу'
'олет'
'обо_'
'оба_'
'нел'
'начать_'
'нака'
'коз'
'карман'
'йн_'
'ично'
'замк'
'зай'
'епи'
'двумя_'
'губ'
'выстрел'
'букв'
'бега'
'Фор'
'Посл'
'Олег_'
'Коро'
'Им'
'Вен'
'sho'
'ost'
'ons_'
'don'
'been_'
'Wh'
'NO'
'Mark'
'Mal'
'Gre'
'Gar'
'99_'
'1938年'
'馆_'
'館_'
'题_'
'费用_'
'试试'
'西亞'
'被冲'
'荡'
'芭'
'臂_'
'脑袋_'
'胖'
'肯_'
'聚集'
'组成'
'符'
'特尔'
'湯'
'条款'
'星星'
'描述的'
'排除'
'把他们'
'打扰'
'打仗_'
'我国'
'感到高兴_'
'役'
'开心_'
'建立_'
'己的'
'州的'
'少校'
'完成_'
'埋葬'
'坚定'
'坏蛋_'
'圣母'
'和大'
'吐了_'
'加快'
'军_'
'其它'
'保加利亚'
'例_'
'伤了'
'他坐在'
'义务'
'ывал'
'целях_'
'цвет'
'ученик'
'судо'
'сат'
'пул'
'предложил_'
'пош'
'похоже_'
'посе'
'полу_'
'покр'
'подм'
'нос_'
'напомина'
'местно'
'местах_'
'культур'
'жит_'
'господ'
'Сол'
'Оно_'
'ВЕ'
'yc'
'ura'
'On'
'Mit'
'Min'
'<_'
'错误'
'酒店'
'逐'
'轮胎'
'象征'
'話'
'解决_'
'西部'
'被拖'
'自制'
'纳入'
'目前的'
'濟'
'毛衣'
'毕业_'
'極'
'有权'
'新娘'
'指导'
'报复_'
'悲痛'
'很惊讶_'
'安东_'
'地面'
'商店_'
'史_'
'反对_'
'准备好_'
'准备_'
'冬'
'储'
'佛教'
'什么是'
'事件的'
'与他'
'不喜欢'
'一致'
'щал'
'честь_'
'участк'
'уп'
'ула'
'труда_'
'русский_'
'рассказать_'
'пытаясь_'
'пок'
'оле'
'нечто_'
'напо'
'миру_'
'льный_'
'лок_'
'кофе_'
'ковы'
'йн'
'знаком'
'бота'
'аза'
'Наверное_'
'Без'
'were_'
'ea'
'NBA'
'Es'
'CA'
'Av'
'3年_'
'2003年'
'2001年'
'1990_'
'178'
'ꆣ_'
'黄金'
'都已'
'走了'
'说明_'
'说你'
'证实了'
'被刺'
'衬衫'
'聋'
'移到'
'的眼'
'漂亮'
'深入'
'泪'
'波斯'
'治_'
'正常的'
'欺'
'材'
'木头'
'救援'
'改进'
'我记'
'惨'
'思想的'
'得多_'
'录_'
'左侧'
'她想'
'大门_'
'多夫'
'咖啡馆'
'后者'
'博_'
'做的_'
'伊德'
'任何东西_'
'仪器'
'交易_'
'上帝赐予'
'ывал_'
'человеку_'
'труп'
'так'
'считал'
'стрел'
'степени_'
'смотрит_'
'ряд'
'российско'
'работал_'
'позвол'
'переп'
'отк'
'озна'
'объект'
'нский_'
'мент'
'иско'
'из'
'ды'
'дно_'
'гип'
'газ'
'возд'
'взгляд'
'вак'
'беспо'
'аков'
'Так'
'Ска'
'Роберт_'
'Пас'
'Леон'
'Девушка_'
'Ах_'
'za_'
'tri'
'ment'
'ity_'
'iss'
'art'
'Ve'
'Lil'
'Cy'
'Boeing_'
'82_'
'骑士_'
'阿克'
'醒来_'
'酒吧_'
'这块'
'讯'
'触'
'裤子_'
'街道'
'药物'
'荒'
'耍'
'者和'
'皇'
'的暴'
'玩弄'
'烟_'
'死于'
'正义'
'有多少'
'摧毁了'
'帕_'
'尾_'
'对我们'
'大声_'
'地图'
'咪'
'号决议_'
'一半'
'ятн'
'ышк'
'уется_'
'тим'
'стен'
'рад_'
'прес'
'парк'
'отправ'
'организаци'
'оме'
'нк'
'ниже_'
'наст'
'насколько_'
'маги'
'лос'
'лл'
'леп'
'крупны'
'кло'
'играл'
'другому_'
'древне'
'двор'
'выступа'
'Париж'
'Ол'
'Наш'
'Ли_'
'Китая_'
'Ана'
'pre'
'ha_'
'fs21_'
'Nu'
'Alex'
'68_'
'鹅'
'骑兵'
'領'
'雾'
'陸'
'闲'
'野兽_'
'重建'
'里奇'
'逻辑'
'身材'
'货_'
'蜡烛_'
'薪'
'节目_'
'腐败'
'老人_'
'礼物'
'的现'
'的战'
'然后将'
'深处'
'润'
'波特'
'没关系_'
'歧视'
'拖拉机'
'报纸_'
'执法'
'我们俩'
'恩斯'
'恐'
'怎么样_'
'怀孕'
'忍'
'很长时间_'
'并将'
'年出生_'
'帐'
'巴赫_'
'实验'
'在斯'
'在201'
'四年'
'喝了'
'叶戈'
'切斯'
'冷静下来_'
'关上'
'一直在'
'цифр'
'хн'
'участник'
'уго'
'ув_'
'уа_'
'сс'
'роз'
'родны'
'р'
'проп'
'поло'
'память_'
'мут'
'минуту_'
'миллионов_'
'лн'
'ливы'
'конт'
'кивнул_'
'ительны'
'исты_'
'ику_'
'ий'
'дыр'
'дыва'
'вался_'
'Эт'
'Сам_'
'Под_'
'МИ'
'Крыма_'
'Иванович_'
'ИС'
'Думаю_'
'Дор'
'Аф'
'zh'
'the'
'pin'
'hn'
'TED'
'Olga_'
'Lena'
'8月2'
'5月1'
'饮'
'陪'
'阿德'
'门被'
'里克'
'车队'
'范围'
'维亚'
'经历_'
'组成的'
'程度'
'相同_'
'的游'
'现在的'
'玩玩_'
'熊_'
'泳'
'河流_'
'民兵'
'比亞'
'母亲的'
'档案'
'条约'
'有机会'
'斯蒂'
'斯洛伐克'
'探索'
'我一直'
'感到惊讶_'
'忠于'
'志'
'尼斯'
'小行星10'
'实_'
'完成了'
'娱乐'
'好处_'
'地铁'
'和电'
'只有我'
'友谊_'
'參'
'即使是'
'准备好'
'偶尔'
'值_'
'倫敦'
'修道院'
'使用的'
'会面_'
'二号'
'了两'
'丽莎'
'主意_'
'不得'
'下次'
'一级'
'ёшь_'
'эксперимент'
'ьский_'
'щим_'
'шей_'
'шал'
'ченны'
'сты_'
'совещани'
'соб'
'смеш'
'руке_'
'рок_'
'рассказал_'
'правительств'
'последнее_'
'позже_'
'поед'
'опустил'
'ован'
'непод'
'некоторых_'
'напр'
'мм'
'лидер'
'кива'
'капитан_'
'ивны'
'заст'
'ейши'
'евши'
'доби'
'выгляд'
'вход'
'враг'
'военно'
'арк'
'ЮН'
'Прот'
'Отец_'
'Лис'
'Впрочем_'
'Валь'
'Бан'
'ting_'
'ris'
'ps_'
'ie_'
'di_'
'Kir'
'Interfax_'
'Af'
'170'
' -- "_'
'體育_'
'金字塔'
'贫'
'读过'
'设施'
'蒸汽'
'著名'
'耐心'
'社会的'
'研究所'
'直到他'
'的背'
'的海'
'的报告_'
'的圣'
'电脑_'
'灾难_'
'漠'
'温度'
'治愈'
'模式_'
'杀人'
'斯坦_'
'擬'
'撕'
'措'
'拘留'
'拉克'
'把所有'
'把头'
'把你的'
'我还是'
'恐怕'
'小行星16'
'婚姻'
'多的'
'塞拉'
'卜'
'其中一'
'与其他'
'与人'
'不行_'
'ход_'
'талант'
'стола_'
'спеш'
'семье_'
'рия_'
'полиции_'
'показалось_'
'основ'
'оружия_'
'ол_'
'нт'
'небольшой_'
'направил'
'назначен'
'месяцев_'
'лт'
'лим'
'корпус'
'кн'
'ких_'
'каса'
'каждой_'
'йтесь_'
'исп'
'имп'
'закрыт'
'журналист'
'ечк'
'енд'
'е'
'дух_'
'достиг'
'добра'
'высоко'
'возможны'
'власть_'
'вил'
'большим_'
'большие_'
'апо'
'Первый_'
'Лет'
'Кен'
'sub_'
'ns_'
'lla_'
'if_'
'cy'
'Str'
'Ivanov'
'Arthur'
'4cH111111_'
'3月2'
'3cH111111_'
'1990年'
'黑人'
'障碍_'
'邻'
'道歉_'
'送去'
'进展_'
'辩护'
'車站_'
'護'
'视为'
'菌_'
'良知'
'翁_'
'答案'
'笑话_'
'离婚_'
'睡不着_'
'的诗'
'的分'
'电池'
'校长'
'有一只'
'数十'
'掉了_'
'意外_'
'引述'
'年轻_'
'希特勒'
'小行星15'
'导弹'
'夺取'
'复杂'
'在阿'
'回来'
'回去_'
'和生'
'同的'
'句话_'
'却不'
'匠'
'包裹'
'劇'
'像我'
'修理'
'使他'
'会议的'
'丹麦'
'专家_'
'ёр_'
'эффект'
'чуж'
'уэ'
'университета_'
'тыва'
'станции_'
'современно'
'связь_'
'ром'
'пример'
'повс'
'отказал'
'оста'
'орган'
'обеспечения_'
'ны'
'нашли_'
'наук'
'мот'
'машина_'
'кл'
'кк'
'квартире_'
'кам'
'исход'
'изв'
'ивая_'
'заставля'
'жила_'
'ейк'
'вынужден'
'вскоре_'
'вере'
'большая_'
'Поло'
'Неужели_'
'ДР'
'Вене'
'Бон'
'Авто'
'uri'
'tz'
'fscy110_'
'fscx90_'
'fnarial_'
'ele'
'cat'
'ana'
'Sar'
'..'
'")'
'麼'
'饭'
'韩'
'雅典'
'醒了_'
'财产_'
'要求他'
'蘑菇_'
'荣誉_'
'至少_'
'约瑟夫_'
'粘'
'籍'
'符号'
'盘子'
'的那'
'爵士'
'烧毁'
'滕'
'毁灭'
'棒'
'机器人'
'晕'
'显示_'
'是他'
'新鲜'
'承诺_'
'我们对'
'我了_'
'感觉自己'
'感兴趣的'
'愈'
'恋爱'
'弟弟'
'学校的'
'孙'
'孕'
'大麻_'
'回应_'
'否认'
'向上'
'叛'
'剥夺'
'写_'
'俘'
'使得'
'何时'
'但是如果'
'亲王_'
'产生了'
'了解_'
'也可以'
'不管是'
'”。 _'
'ыл_'
'скр'
'реа'
'расход'
'прошлом_'
'проект_'
'приказ'
'появилась_'
'поклон'
'овала_'
'нчи'
'новое_'
'мозг'
'мас'
'касается_'
'иче'
'евы'
'десятк'
'гора'
'выбрал'
'атур'
'Стол'
'Нужно_'
'Нов'
'Мир'
'Жу'
'Док'
'tor'
'nn'
'ham'
'ene'
'and'
'Vera'
'Mat'
'Lin'
'Ir'
'Anna_'
'AM'
'3aHCC_'
'195'
'风险'
'青少年'
'阳'
'都可以'
'车库'
'被切断_'
'蝴蝶'
'荣誉'
'英格兰'
'缘'
'等待着'
'窗外'
'知道他'
'真相_'
'的车'
'的实'
'生活中'
'理由_'
'波_'
'水平_'
'来源_'
'朝我'
'是什么'
'托斯'
'扔在'
'意见'
'废'
'布洛'
'字母'
'子弹_'
'国的'
'各國'
'去过'
'却没'
'前线'
'创新'
'凶'
'写道_'
'偶然'
'他不会'
'从这'
'уход'
'сыр'
'суд'
'столом_'
'просл'
'приду'
'пойм'
'пов'
'образ_'
'обеща'
'мета'
'мел'
'мастер'
'легко'
'зу_'
'желани'
'дир'
'горн'
'Сим'
'Пен'
'Он'
'Мад'
'За'
'Бело'
'Англии_'
'ug'
'nc'
'ies_'
'ach'
'Qu'
'Mil'
'Gl'
'Gal'
'Art'
': - _'
'4年_'
','
'鲸'
'馬_'
'队长'
'送回'
'车站_'
'财务'
'补充说_'
'葡萄'
'编写'
'维_'
'祝你'
'知道你'
'的发'
'疲惫_'
'生存_'
'爾斯'
'爸爸的'
'燃烧的'
'火箭_'
'永恒的'
'模拟'
'某处'
'是这'
'推动'
'批评'
'怎么办_'
'弗拉德'
'就算'
'大西洋'
'夜_'
'哀'
'吃了'
'号码_'
'发言'
'势_'
'停下来'
'体的'
'付出'
'仅仅'
'五_'
'了所有'
'ьо'
'ыч'
'фамили'
'ующе'
'уще'
'тить_'
'стояли_'
'сли'
'следующи'
'разве'
'печ'
'окруж'
'окно_'
'одо'
'неве'
'концов_'
'изма_'
'зд'
'защит'
'заключени'
'еш'
'ден_'
'граф'
'веществ'
'весело_'
'верт'
'верне'
'бак'
'Хол'
'Начал'
'Марс'
'Лев'
'ДА'
'Ант'
'q'
'ii_'
'ib'
'has_'
'bro'
'bb'
'Win'
'Va'
'SP'
'Com'
'69_'
'4月2'
'"..._'
' / _'
'雀'
'防卫'
'醫'
'这是我的'
'过这'
'边的'
'跌倒在'
'败'
'苹果'
'肌肉'
'耀'
'网络_'
'继'
'維亞'
'祖国_'
'着他'
'的意'
'瓜_'
'爱尔兰'
'炮_'
'海水'
'洛斯'
'没有回'
'民众'
'歇'
'棉'
'核心'
'柜'
'来看'
'杀人_'
'晨'
'旗_'
'敦'
'撕裂_'
'拔'
'拉夫_'
'折磨_'
'建立了'
'市长'
'小行星8'
'实验_'
'孙子_'
'她还'
'她丈夫'
'埃德'
'勾'
'冠軍'
'保安'
'你听'
'会员国'
'伙伴'
'为我'
'элемент'
'чива'
'хо_'
'флот'
'уровня_'
'случайно_'
'символ'
'сби'
'рыба'
'процедур'
'полной_'
'политически'
'плохо'
'ое'
'нич'
'маленький_'
'лиз'
'красны'
'конс'
'ированны'
'запас'
'детски'
'говорится_'
'выр'
'вне'
'вис'
'ветер_'
'Карт'
'Год'
'Вир'
'Бра'
'tho'
'lle'
'lla'
'il'
'id'
'gs_'
'Tur'
'Sc'
'95_'
'1999年'
'迪米特里'
'迪斯'
'足够的'
'诊断'
'覆盖_'
'被击'
'第15'
'的恶'
'留下_'
'用眼'
'牧'
'燃烧'
'混乱'
'正确'
'核武器'
'条第'
'是从'
'我从没'
'强调_'
'强烈'
'弗拉迪'
'巴布'
'己_'
'妥'
'她像'
'奥林匹克运动会_'
'大小'
'夏天'
'培训_'
'在楼'
'因素_'
'因素'
'各地'
'原来'
'卸'
'到一'
'储存'
'信号_'
'伊拉'
'事业'
'下降_'
'ьч'
'цер'
'хватит_'
'упал_'
'суб'
'страшно_'
'станов'
'сом_'
'сар'
'равно'
'попада'
'пое'
'подт'
'охран'
'нным_'
'нную_'
'наоборот_'
'называется_'
'множество_'
'мис'
'лодк'
'курс'
'клад'
'иан'
'зим'
'здания_'
'заво'
'жны'
'душ'
'быстрее_'
'абсолютно_'
'Черно'
'Пло'
'Ой_'
'Ката'
'Дел'
'uti'
'odo'
'ny'
'nsis_'
'ks'
'ash'
'are'
'Elena_'
'鹿_'
'部落'
'通信'
'迹象_'
'进展'
'还给'
'设计_'
'裝'
'衣_'
'蘇聯'
'莱昂'
'艾丽'
'腔'
'脑子'
'纯洁_'
'癌症'
'異'
'槍_'
'椅子'
'校_'
'林斯'
'术'
'最大'
'智力'
'放松'
'撒谎_'
'把大'
'总是在'
'对他们'
'安东尼'
'地球的'
'在一起'
'嘴_'
'合理的'
'右手'
'口径'
'取出'
'友谊'
'卡罗'
'占领'
'华盛顿'
'前的'
'列入'
'分离_'
'内心'
'做法_'
'佩斯'
'以后_'
'他们还'
'什么时候'
'亲属'
'个月'
'不幸的是_'
'ыб'
'щени'
'шев'
'чист'
'форме_'
'уйти_'
'ужи'
'ски'
'реч'
'проблема_'
'невы'
'машин'
'льно'
'лис'
'йб'
'исты'
'за'
'государство_'
'взят'
'бщ'
'буквально_'
'бои'
'бк'
'ающи'
'Карл_'
'ЕН'
'Господи_'
'Богу_'
'ton'
'rel'
'mis'
'ld'
'inc'
'gor'
'Ev'
'Eugen'
'Ap'
'Alexey_'
'Ak'
'1994_'
'鲍里斯_'
'高等'
'风险_'
'陈'
'重点'
'遜_'
'遇'
'这个人'
'辐射'
'跌'
'网站上'
'网上'
'纳斯'
'类的'
'的世界'
'疯狂的'
'犯了'
'潜入'
'浪费'
'村里'
'有着'
'智利'
'是俄罗斯'
'故'
'把小'
'怎样_'
'很好的'
'引用'
'尤拉'
'小行星23'
'完美的'
'如果不'
'基于'
'围绕着'
'哪_'
'受_'
'危险的'
'分裂'
'冒犯'
'共产党_'
'像你'
'企图'
'他们无'
'юл'
'ьб'
'фонд'
'упо'
'тически'
'тва_'
'таб'
'ся'
'слыш'
'словами_'
'сир'
'сем'
'свер'
'программы_'
'пот'
'писать_'
'пат'
'паст'
'открыл_'
'няя_'
'наиболее_'
'мозга_'
'инов'
'жер'
'дан'
'гам'
'выстав'
'атыва'
'ТР'
'Сн'
'Остров'
'Коло'
'Гро'
'Вес'
'which_'
'rd'
'oph'
'oo'
'mit'
'bil'
'Tan'
'KIRA'
'77_'
'250'
'首次'
'首席'
'铺'
'那些在'
'通常_'
'装满'
'袭击_'
'藝術'
'茨基'
'紋'
'粗暴'
'稍微'
'的数'
'疯狂_'
'瓦迪姆'
'物品_'
'然后突然'
'然_'
'浪漫'
'流动'
'泪水'
'注_'
'桌上_'
'杀害'
'救了'
'抢'
'我害怕'
'患'
'很可能'
'屋顶'
'局长'
'就是这样_'
'小行星12'
'存在于'
'在最'
'在战争'
'在人'
'團_'
'号决议'
'几乎所有'
'几个月'
'决议'
'先生们_'
'你敢'
'伙伴关系'
'ённые_'
'хотите_'
'урс'
'умны'
'север'
'самая_'
'ровать_'
'рассмотрени'
'проведен'
'потребност'
'подобно'
'повторя'
'план'
'национально'
'моно'
'малыш'
'костюм'
'инско'
'знают_'
'дре'
'детал'
'гул'
'гро'
'вё'
'влия'
'взд'
'бук'
'брон'
'бож'
'Уэ'
'ПРО'
'Нед'
'Вс'
'Вне'
'yt'
'them_'
'ple'
'les_'
'cho'
'Wil'
'We_'
'@_'
'202'
'1年_'
'1941年'
'160'
'饿了_'
'颜色'
'長_'
'重视'
'運動員_'
'转身'
'足球甲级联赛_'
'诺维奇_'
'自己是'
'腰_'
'维特'
'王位'
'牺牲_'
'梅_'
'未知的'
'最后的'
'晶'
'拥抱'
'披'
'我爱你_'
'很快就'
'年纪'
'帽'
'对方'
'她的手'
'在哪_'
'吞'
'合理'
'協'
'加里'
'加尔'
'几乎没有'
'冒着'
'克伦'
'伊夫'
'仇'
'什么都没'
'亿卢布_'
'цир'
'хон'
'умер_'
'уи'
'существ'
'сун'
'сту'
'стре'
'соз'
'скрыт'
'сид'
'просто'
'представить_'
'показать_'
'очи'
'орд'
'оказыва'
'ног_'
'начинает_'
'мужик'
'лох'
'круг'
'которыми_'
'копи'
'ката'
'ище_'
'живут_'
'желез'
'дот'
'дзи'
'вшая_'
'возраст'
'вн'
'большое_'
'битв'
'бесп'
'ате'
'арх'
'ану'
'айн'
'ава'
'Рук'
'Мед'
'Март'
'Кал'
'Дем'
'Давайте_'
'Бэ'
'Бри'
'Анн'
'tus_'
'tia'
'had_'
'era'
'a在'
'a和'
'ass'
'SC'
'Rus'
'DA'
'Add_'
'85_'
'600'
'...'
') -- _'
'!)'
' ('
'（'
'高速公路'
'颈'
'雇佣'
'遗憾_'
'过程中'
'轨'
'设计的'
'讲_'
'裔'
'萨沙'
'肢'
'細'
'策'
'科索沃'
'科學'
'的尸体'
'瓶子'
'灭'
'拨'
'打破'
'我刚'
'意识_'
'心理学'
'得出'
'平_'
'带我'
'居住'
'就业'
'小行星22'
'導'
'定的'
'孤独_'
'夫斯基'
'太阳_'
'多年来_'
'唤'
'发布'
'冲破_'
'冯_'
'元素_'
'你对'
'伪谓伪喂_'
'仪式'
'他接'
'从那'
'也许是'
'举行了'
'шан'
'четверт'
'угодно_'
'тс'
'толп'
'территори'
'тек'
'счастье_'
'старше'
'спокойн'
'рынк'
'родителей_'
'поступ'
'поль'
'партия_'
'любимо'
'коллектив'
'иу'
'ири'
'имы'
'животных_'
'еств'
'духовно'
'дом'
'док'
'дов'
'вым'
'вшийся_'
'виноват'
'вашей_'
'Ост'
'Например_'
'Наг'
'Мам'
'Дв'
'». _'
'nat'
'mor'
'ex'
'aro'
'ON'
'Lan'
'Gen'
'8月1'
'1995_'
'默_'
'魂'
'这意味着'
'这就是为什么'
'路线'
'赞扬'
'营_'
'究竟'
'离婚'
'的声音'
'的名字'
'瑟_'
'激怒'
'湾'
'洞里_'
'注射'
'氧化'
'棍子'
'棍'
'来源'
'有意'
'有两个'
'晃_'
'撒尿_'
'拿_'
'強'
'庄严'
'尽量'
'就没有'
'小伙子'
'大楼'
'啥'
'包含'
'几十'
'冒险'
'克里斯_'
'他问'
'介_'
'人们开始'
'一滴'
'этап'
'шаг_'
'числ'
'ченно'
'стра'
'сны'
'сердца_'
'планет'
'ощуща'
'новую_'
'нефт'
'наз'
'льк'
'ити'
'ин'
'император'
'зв'
'забыл_'
'ент'
'енк'
'делал_'
'двое_'
'вызвал'
'брак'
'борт'
'бой_'
'Спи'
'Резолюция_'
'Пес'
'Джеймс_'
'~_'
'ther_'
'shin'
'rit'
'eu'
'No_'
'Cla'
'Bla'
'Au'
'Ali'
'1937_'
' *'
'飞行员'
'酋长'
'迪姆'
'轻微的'
'足以'
'趣_'
'赔偿'
'读者_'
'装置'
'艘'
'而在'
'神之'
'的后'
'的事情_'
'火箭'
'游荡_'
'游泳'
'渔民'
'混蛋'
'沃斯'
'殿'
'最喜欢的'
'明的'
'拉出来_'
'抬'
'抢劫_'
'手段_'
'戒指'
'我感到'
'意识形态'
'怪物'
'快就'
'忠实'
'当选'
'度过'
'平民'
'干_'
'小行星26'
'多夫_'
'墓地'
'堡垒_'
'在街上'
'在T'
'喊叫_'
'可靠'
'取代'
'友好_'
'别无选择_'
'分为'
'刀_'
'内容_'
'你必须'
'他知道'
'人物'
'于19'
'яци'
'яла_'
'школу_'
'чувству'
'чувствовал_'
'чал'
'хотят_'
'хоз'
'хат'
'фф'
'факт_'
'ушка_'
'управля'
'топ'
'тали'
'см'
'случи'
'сия_'
'сини'
'рег'
'рассе'
'разд'
'производств'
'проводил'
'причин'
'пойде'
'пожал'
'перед'
'переговор'
'отн'
'отвеча'
'осуществля'
'особо'
'осо'
'овал'
'объясня'
'обнаружи'
'нули_'
'неко'
'лор'
'лин_'
'крыл'
'ичк'
'ией_'
'зк'
'зел'
'законо'
'ести_'
'деш'
'государственны'
'газет'
'вопросов_'
'влен'
'видели_'
'взяла_'
'атом'
'Така'
'Свят'
'Республика_'
'Пов'
'Персоналии_'
'Ап'
'Ама'
'who_'
'ski'
'mm'
'ko_'
'est'
'Mac'
'Bl'
'AC'
'96_'
'1号'
'198'
'140'
'鞭'
'雪_'
'雕'
'轮椅'
'跑了'
'解释说_'
'虚拟'
'虑'
'自信_'
'维多利亚'
'的另一'
'町_'
'牺牲'
'照_'
'滚'
'消息'
'民族_'
'機場_'
'楼梯'
'杰出'
'暴徒'
'是她'
'敏'
'拥有的'
'抢走'
'承受'
'成长_'
'怀念'
'德米特里_'
'开心'
'小行星25'
'对抗'
'奴隶_'
'在此'
'在家_'
'噢_'
'和女'
'同一个'
'各位'
'加以'
'分裂_'
'克利'
'停止_'
'倍'
'位置'
'伤心_'
'伊万诺夫'
'他拿着'
'了三'
'久了_'
'东部'
'不明'
'экономическо'
'ьки_'
'шёл_'
'хозяйств'
'уга'
'уа'
'танк'
'спустя_'
'прог'
'площадк'
'относительно_'
'особо_'
'обсужда'
'обраща'
'направля'
'муж_'
'льные_'
'коротко'
'как'
'йс'
'ической_'
'забыва'
'забрал'
'жаль_'
'дальн'
'глав'
'вка_'
'бот'
'бере'
'бб'
'ала'
'аги'
'Пушкин'
'Олимпиаде_'
'Мел'
'their_'
'ser'
'rg'
'phi'
'ova_'
'off'
'ing'
'Pla'
'87_'
'86_'
'24小时'
'駐'
'韋_'
'陌生人'
'阿波'
'队的'
'那么就'
'进行的'
'被蒙'
'胸部'
'而你'
'翅膀'
'绿色_'
'絲'
'粒'
'着我'
'盾'
'的力量'
'的决'
'特斯'
'沙发上_'
'案子_'
'杉'
'是神'
'春'
'教师_'
'敏感'
'敌军'
'指示'
'总局'
'帽子_'
'岩石'
'小块'
'學家_'
'她对'
'她回'
'大块'
'处理_'
'基督徒'
'在等'
'商品'
'卡里'
'你总'
'住了'
'传唤'
'他肯定'
'亲密'
'享有'
'中最'
'两天'
'丙'
'专题'
'上述'
'三天'
'яны'
'ьку_'
'щад'
'чика_'
'спин'
'солдат_'
'сожалению_'
'прон'
'принял_'
'поме'
'пли'
'пересе'
'очны'
'отмеча'
'отв'
'основном_'
'оказались_'
'недели_'
'медицин'
'меди'
'кин_'
'капитал'
'зеркал'
'завис'
'евн'
'бу_'
'бны'
'билет'
'Хай'
'Сад'
'НЫ'
'Бли'
'long'
'ick'
'ena'
'dro'
'Yan'
'Windows_'
'79_'
'足球_'
'谱'
'说过'
'词语'
'街头'
'聚集在'
'群岛_'
'累了_'
'特工'
'毁'
'有许多'
'替代'
'暖'
'既不'
'推迟'
'接下来'
'指向'
'指出'
'执行_'
'扔出去_'
'所说的'
'我理解'
'我怎么'
'恢复了'
'師_'
'带来的'
'巴克'
'室的'
'实行'
'它就'
'女王_'
'堵'
'在手'
'和俄罗斯'
'呼吸困难_'
'可以在'
'受害者_'
'即_'
'半_'
'冬天_'
'便_'
'使用者_'
'使我们'
'你没有'
'但他的'
'他转'
'主题_'
'东_'
'专员'
'…'
'ысл'
'щения_'
'шутк'
'четвер'
'чай_'
'фото'
'уше'
'устро'
'усо'
'уровень_'
'техническо'
'сэр_'
'сул'
'событий_'
'смотрела_'
'сложн'
'сани'
'раци'
'прожи'
'преступлени'
'президента_'
'получал'
'пн'
'открыл'
'опыт_'
'нист'
'масс'
'кова'
'защиты_'
'захо'
'жн'
'жев'
'дю'
'доп'
'диван'
'демон'
'двух'
'гляд'
'встречал'
'вста'
'валь'
'атор'
'ано_'
'агентств'
'а'
'Сак'
'Олимпиады_'
'Нес'
'Кли'
'Кад'
'ЖЕ'
'Дз'
'Вр'
'Александра_'
'yi'
'ss'
'sel'
'ir_'
'here_'
'dor'
'ato'
'ati'
'] '
'Sw'
'.，_'
'黎巴嫩'
'马克_'
'隐瞒'
'阿姨_'
'跳舞'
'览'
'罪行_'
'索赔'
'神秘'
'的报'
'现场'
'版'
'爸'
'火星'
'灌木丛'
'深呼吸_'
'沃夫'
'欧盟'
'械'
'杜马'
'拿走_'
'我带'
'感情_'
'想过_'
'恰恰相反_'
'总是很'
'彩虹'
'带她'
'崇高的'
'小行星11'
'寧'
'实验室'
'她最'
'多斯'
'图像_'
'和公'
'去的'
'十字架_'
'出现的'
'关闭'
'关系的'
'六个月'
'克里斯'
'体系'
'但被'
'伊莉'
'伊琳娜'
'伊万'
'他们就会'
'从没'
'什麼_'
'云_'
'争取'
'为自己'
'与会者'
'上校_'
'ясн'
'цо'
'ций_'
'хали_'
'функци'
'ушки_'
'успе'
'трудом_'
'таков'
'стих'
'становил'
'снег'
'смогу_'
'сказк'
'ряд_'
'риск'
'резолюции_'
'радио'
'прожива'
'продолжал_'
'проб'
'природ'
'пп'
'появля'
'почувствовал_'
'получили_'
'оттуда_'
'обмен'
'оби'
'нин'
'нег'
'напротив_'
'наблюда'
'молчал'
'линии_'
'лете'
'кадр'
'ине_'
'игра'
'зва'
'еди'
'дить_'
'гно'
'глубоко_'
'вшей_'
'арм'
'авиа'
'Теле'
'Расс'
'Пле'
'Ольга_'
'Але'
'un_'
'of'
'nch'
'bar'
'Ter'
'CH'
'2019年'
'1991_'
'12月2'
'静_'
'长时间'
'醉'
'边缘_'
'谈到了'
'说是'
'让一个'
'见面'
'西斯'
'袋_'
'菲利'
'荷蘭'
'红色_'
'箭_'
'等一下_'
'秘'
'盆'
'的腿'
'的时'
'的年'
'的亲'
'爱你_'
'热带'
'横跨'
'棉花'
'本书_'
'月球'
'星期五_'
'斗争_'
'授权'
'战胜'
'战役_'
'战争的'
'我失去了'
'慷慨'
'彈_'
'弹药'
'弹_'
'市场_'
'工资'
'小行星34'
'对吧_'
'宣言_'
'奥利'
'太棒了_'
'外科'
'夏季奥林匹克运动会_'
'声明_'
'員_'
'和爱'
'呼_'
'吉斯'
'司_'
'右翼'
'叫做_'
'卢卡'
'促'
'你是个'
'伙计_'
'今后'
'仇恨_'
'乌尔'
'不管他'
'不是我'
'不受'
'不久后_'
'экономически'
'чики_'
'чаще_'
'целе'
'тат'
'там'
'счастлив'
'странах_'
'сектор'
'свято'
'рт'
'прежнему_'
'положение_'
'показыва'
'печат'
'перс'
'отправил'
'область_'
'нулся_'
'несмотря_'
'нб'
'нашим_'
'наци'
'находился_'
'млн_'
'миров'
'леч'
'ким_'
'извест'
'зуб'
'зер'
'жизнью_'
'дя'
'доз'
'граждан'
'будущее_'
'аны_'
'Чем_'
'Ом'
'Обе'
'КИ'
'Ив'
'ui'
'ph'
'erg'
'ca_'
'VA'
'M1'
'LO'
'GAARC_'
'Fre'
'92_'
'88_'
'1937年'
'食_'
'雲'
'離'
'陆军'
'闭嘴'
'这些话'
'诺夫的'
'街上_'
'草原'
'英里'
'自杀'
'置_'
'組_'
'管制'
'神父的'
'石头_'
'的这'
'的第'
'的混'
'的原因_'
'然后转'
'演员'
'森林里'
'晓'
'无名'
'整晚都'
'搬到'
'授予'
'抚'
'手掌'
'我笑了_'
'巴巴'
'就可以'
'小行星28'
'小行星17'
'她说'
'她的眼睛'
'報'
'地看着'
'和行'
'后面的'
'同性恋'
'叫他'
'口袋里'
'卡车'
'区别_'
'到底'
'出口'
'准确地'
'体育场'
'但现在'
'他现在'
'仔细地'
'从地'
'ьи_'
'чной_'
'хорош'
'ую'
'уте'
'уж'
'убит'
'страх_'
'странно_'
'странно'
'странам_'
'события_'
'свойств'
'ручк'
'пространство_'
'през'
'последн'
'полицейски'
'поднял_'
'погиб'
'нак'
'мозг_'
'мнению_'
'меч'
'лошад'
'лик'
'кстати_'
'клетк'
'итоге_'
'ид_'
'зма_'
'задач'
'жно'
'ело_'
'делают_'
'возника'
'вле'
'век_'
'бров'
'близки'
'берегу_'
'анны'
'аго'
'Кей'
'Бру'
'АР'
'tre'
'pri'
'mov'
'ish'
'ge'
'bin'
'bal'
'ba_'
'Portal_'
'5月2'
'/ _'
'폐'
'馬爾'
'類_'
'類'
'逊_'
'适当的'
'这里的'
'过了'
'车臣'
'距离_'
'要_'
'裙子_'
'行走_'
'芬_'
'背部'
'聯盟_'
'耶稣基督'
'约会_'
'竞选'
'破坏_'
'的话'
'的两'
'瑙'
'点东西_'
'港_'
'沥青'
'殖民'
'植'
'有力'
'暴动_'
'是自'
'拉特'
'很好'
'征服'
'引擎'
'市中心'
'巴士'
'就会被'
'小行星27'
'小行星13'
'对人'
'子女'
'她和'
'头发_'
'失败'
'外的'
'处的'
'境_'
'塔尼'
'围栏_'
'听说'
'参与了'
'全部_'
'你现在'
'住宅'
'但当'
'伟大'
'亚斯'
'云层'
'乃'
'为何'
'一个人_'
'чуд'
'часы_'
'хт'
'уло'
'уй_'
'ужасн'
'тия_'
'техник'
'текст'
'сум'
'создать_'
'сов_'
'сигнал'
'само_'
'рд'
'разда'
'пройти_'
'продав'
'прогресс'
'понимаешь_'
'поколени'
'пойти_'
'подумала_'
'подготовк'
'осуществлени'
'овым_'
'обра'
'кровати_'
'кабинет_'
'ита_'
'идёт_'
'запах_'
'ец'
'дро'
'глава_'
'гла'
'гиб'
'гв'
'вышли_'
'вски'
'больно_'
'ань_'
'ама'
'Со_'
'НО_'
'Люб'
'Кре'
'Киев'
'Инди'
'Дет'
'Ден'
'ГУ_'
'Арм'
'sis_'
'pho'
'nic'
'chu'
'bri'
'ano'
'Lev'
'Eli'
'BO'
'AS'
'鰭'
'阿格'
'金钱'
'诱'
'西里'
'被称为'
'蛋糕_'
'虐待'
'苏联_'
'自以为是_'
'而他'
'者在'
'答复_'
'站起来_'
'监禁_'
'的言'
'的确'
'白人_'
'用刀'
'生日'
'涉'
'栋'
'暗中'
'是我_'
'收集了'
'承'
'惊恐'
'得很好_'
'影片'
'强奸'
'安宁_'
'大屠杀_'
'基的'
'基地_'
'地雷'
'和工'
'卡普'
'仍在'
'了很多'
'了什么_'
'不适'
'不足'
'一段'
'一把'
'этими_'
'читател'
'хнул'
'хай'
'фаль'
'сва'
'руководител'
'рски'
'роди'
'рачива'
'разработк'
'разб'
'пяти'
'пру'
'поступа'
'порог'
'подход'
'оки'
'ока'
'одному_'
'нае'
'мистер_'
'мист'
'лей_'
'лежит_'
'лан_'
'красивы'
'кино_'
'закл'
'вон'
'вин_'
'взаимо'
'большинство_'
'библиотек'
'Ув'
'Саша_'
'Мала'
'Дело_'
'Дани'
'Гл'
'Виктор'
'Андр'
'mus'
'i的'
'ero'
'ens'
'ana_'
'SI'
'Marina'
'98_'
'74_'
'400_'
'죋'
'龌龌'
'马上就'
'鞑靼'
'问她_'
'钼钼'
'道别_'
'途中'
'透明的'
'追捕'
'身穿'
'负责人'
'诊所'
'证明了'
'认出'
'表演_'
'藻'
'蓄'
'萨沙_'
'莫斯'
'艾玛'
'舌头_'
'群岛'
'纳粹'
'神灵'
'的痕迹_'
'的权'
'的成'
'的中'
'电磁'
'特征_'
'港'
'泰_'
'模式'
'无数'
'新生'
'拉开_'
'拉姆'
'手机_'
'我真'
'我什么都'
'往前'
'引诱'
'带回'
'尔的'
'小行星32'
'小行星21'
'容忍'
'字母_'
'好奇'
'场所'
'地理_'
'在城'
'在200'
'四_'
'反对派'
'副总'
'前1'
'刑法_'
'凭'
'冲着'
'再过'
'你以为'
'伴'
'会的'
'优先'
'从天'
'乐趣_'
'乌鸦'
'ухо'
'усто'
'улыбнулась_'
'улицу_'
'убе'
'серо'
'светло'
'ресторан'
'раск'
'рал_'
'приятно_'
'приходил'
'потреб'
'пови'
'плот'
'плод'
'пенси'
'отдыха'
'онт'
'ожен'
'машине_'
'йц'
'истическ'
'иска'
'информация_'
'заканчива'
'зажи'
'живо'
'документа'
'доказательств'
'дожд'
'дл'
'данный_'
'грудь_'
'гости_'
'горы_'
'вызов'
'выбира'
'ард'
'Оде'
'ОР'
'Лучше_'
'Земле_'
'Боже_'
'vel'
'real'
'ica_'
'gh'
'ble_'
'RE'
'Pan'
'NA'
'Mik'
'Cr'
'72_'
'1993_'
'+'
'颜色_'
'预言'
'雷斯'
'险_'
'降落_'
'都很'
'过渡'
'赶出'
'蜥'
'苹果_'
'舌'
'興'
'腐烂'
'而是_'
'老鼠'
'翔'
'美好的'
'穷'
'福利'
'的问题'
'的有'
'的关'
'的保'
'的1'
'生病_'
'父亲的'
'烧焦_'
'漫'
'消防'
'浓'
'栏'
'杰克_'
'来没有'
'旅馆'
'方便'
'接受的'
'掌声_'
'按钮_'
'投降_'
'所做的'
'我走'
'我认识'
'康斯坦丁'
'左右_'
'山的'
'小行星37'
'宾_'
'完了_'
'大衛_'
'城堡'
'坡'
'在雪'
'在任何'
'只剩下'
'别乱来_'
'则_'
'军用'
'六十'
'停_'
'你可能'
'似'
'也是_'
'义_'
'为此'
'不然'
'不可能_'
'不只是'
'ьств'
'щем'
'щел'
'чных_'
'храм'
'условиях_'
'спор'
'сознания_'
'создал'
'согласно_'
'секунду_'
'сади'
'рь_'
'рак'
'разв'
'пуга'
'прове'
'проблем'
'привык'
'приветств'
'показател'
'подошел_'
'пова'
'откро'
'осе'
'нест'
'масштаб'
'любо'
'ия'
'ивы'
'знач'
'звезд'
'дс'
'дорога_'
'дивизи'
'впереди_'
'видите_'
'будь_'
'брата_'
'бов'
'аж'
'Рек'
'Павел_'
'Кубок_'
'Иск'
'Индии_'
'ИТ'
'Земли_'
'Господь_'
'Алл'
'Алекс_'
'ue'
'sy'
'rr'
'fir'
'eb'
'bre'
'Tar'
'PA'
'May'
'800'
'76_'
'176'
'额_'
'震惊_'
'陀'
'钢琴'
'里安'
'運動會'
'送了'
'远的'
'进_'
'这么多'
'谈谈'
'认识_'
'胞'
'童话'
'神奇的'
'矛盾'
'看到她'
'的眼神'
'的深'
'满意'
'清醒_'
'派人'
'洞里'
'有罪_'
'暗示_'
'撒旦'
'我给你'
'我向'
'成人'
'得以'
'当中'
'强烈的'
'帕尔'
'岛屿'
'尽管她'
'就这'
'小行星29'
'将她'
'射线'
'对话者'
'寡'
'安全的'
'妮_'
'失踪'
'天才'
'大笔'
'地形'
'地上_'
'在彼得堡'
'因為'
'员的'
'各不相同_'
'又开始'
'公路上'
'作了'
'仔细检查'
'主要的'
'языка_'
'ющая_'
'электронн'
'щик_'
'щее_'
'цко'
'усти'
'твою_'
'твоего_'
'стат'
'свод'
'рв'
'проявля'
'проче'
'прим'
'признал'
'прекрасны'
'прежн'
'постепенно_'
'постав'
'парня_'
'осторожно_'
'нижн'
'миг_'
'луж'
'литератур'
'кончи'
'клю'
'карт'
'ические_'
'значение_'
'заместител'
'енную_'
'достойн'
'довери'
'боял'
'арест_'
'Хе'
'Слу'
'Рам'
'Московско'
'Мас'
'Книг'
'Государств'
'Берн'
'Андре'
'АВ'
'val'
'tic'
'rc'
'kin_'
'gr'
'flo'
'ard'
'TR'
'Maria_'
'Cas'
'BI'
'84_'
'1989_'
'''
'魔法师'
'震撼'
'阿特'
'鉴于'
'那条'
'躲起来_'
'资本主义'
'蛾'
'落入'
'至于'
'自以为'
'老虎'
'维克多_'
'纠正'
'的自'
'的生命'
'的气'
'的字'
'的天'
'用自己的'
'烏克蘭'
'消费'
'柄'
'最新'
'景_'
'无耻的'
'文章'
'文献'
'放松_'
'据说_'
'我们一'
'感到不'
'惊讶_'
'恶魔_'
'德国人_'
'徒_'
'很精彩_'
'张_'
'库_'
'幾'
'币'
'展_'
'就不会'
'尤里'
'小行星36'
'将不'
'她知道'
'大自然'
'大學'
'塞尔维亚'
'地下室'
'在铁'
'哲'
'和无'
'听得'
'只有一个'
'卡洛'
'创造性'
'刑_'
'几次'
'冷静_'
'偷窃'
'停顿'
'做点'
'传统的'
'休假'
'伊丽莎白'
'介绍了'
'主义者_'
'中心的'
'不会被'
'上午_'
'》(_'
'шне'
'шв'
'церкви_'
'учени'
'уровн'
'убеди'
'тис'
'стене_'
'способ_'
'соглашени'
'согласился_'
'сд'
'свин'
'рик'
'религи'
'раду'
'понравил'
'побежал'
'плен'
'пес'
'пале'
'операции_'
'номер'
'несп'
'надцат'
'момент'
'мле'
'мест_'
'лем'
'лек'
'крайней_'
'княз'
'документы_'
'деятельность_'
'город'
'голос'
'главный_'
'выйти_'
'внешне'
'вается_'
'быт'
'бо_'
'автомобил'
'Сел'
'Миха'
'ЛА'
'Италии_'
'Дэ'
'Выс'
'Василий_'
'{_'
'nge'
'met'
'ls_'
'lav'
'imp'
'day_'
'cke'
'Vladimir_'
'Ph'
'Gri'
'78_'
'鞠鞠'
'霍尔'
'隔离'
'赏'
'资产'
'责_'
'识_'
'被烧'
'薇'
'致敬_'
'糟糕的'
'称之为_'
'祖先'
'研'
'相比_'
'的解'
'珠'
'牛奶_'
'浪'
'氛'
'比例'
'杜_'
'有利'
'普鲁'
'普雷'
'推_'
'报告的'
'我才'
'我想要'
'我吃'
'很紧张_'
'形式的'
'庇护'
'屋_'
'小行星20'
'安托'
'她似乎'
'奴'
'墓'
'堪'
'在新'
'品味'
'同志'
'叛徒_'
'变得更'
'取消'
'去哪'
'区分'
'冈'
'令_'
'他觉得'
'从何'
'人是'
'些_'
'为我们'
'不出'
'三次'
'эй'
'ьер'
'широко'
'цвет_'
'хороше'
'улыбкой_'
'увер'
'треть'
'тн'
'технологи'
'средства_'
'спутник'
'сидели_'
'самому_'
'роман'
'раж'
'пик'
'особы'
'образования_'
'нашел_'
'наград'
'мура'
'молод'
'мина'
'мертв'
'любим'
'контакт'
'комитета_'
'квартиры_'
'защища'
'дыша'
'длин'
'ветр'
'вают_'
'браз'
'анно'
'американски'
'адо'
'Тим'
'Сав'
'Ры'
'Пет'
'Ник'
'Бай'
'Баб'
'ugh'
'ice_'
'end'
'die'
'box_'
'The'
'Sol'
'Para'
'NE'
'Alb'
'71_'
'間'
'重申'
'郎'
'这种情况'
'这些_'
'超越'
'贡'
'象棋'
'记者_'
'荣'
'耶路撒冷'
'考虑_'
'精神病'
'管道'
'科特'
'的黑'
'的任何'
'畏'
'现在你'
'玛丽'
'煮'
'烟草'
'法兰'
'氧'
'橋'
'未知'
'月1'
'最后一个'
'携带'
'指责'
'态_'
'很久'
'影_'
'录像'
'廊'
'庭_'
'希尔'
'山顶'
'尤利'
'小说'
'小行星73'
'小行星18'
'小作品_'
'对他的'
'好像在'
'夺'
'地被'
'却一'
'制服_'
'切夫'
'全是'
'党的'
'像个'
'但每'
'伯利'
'会计'
'他们却'
'从1'
'介意'
'了他_'
'世界盃足球賽_'
'ьем_'
'ших_'
'целом_'
'хватает_'
'узк'
'тему_'
'страж'
'скрип'
'систем'
'све'
'самолёт'
'рекомендаци'
'протест'
'поле'
'овн'
'мус'
'минут'
'министр_'
'матч'
'лян'
'лучше'
'каш'
'ище'
'империи_'
'изменить_'
'зя'
'жать_'
'домо'
'дин'
'дель_'
'дей'
'встреча'
'ворот'
'воздействи'
'вест'
'вагон'
'боро'
'бли'
'ака_'
'Стан'
'Сири'
'Пут'
'Посмотри'
'Майкл_'
'Куз'
'Комитет_'
'Иоанн'
'Гон'
'Вообще_'
'Влади'
'ven'
'one'
'lat'
'ew'
'ell'
'bit'
'\'
'Tim'
'Son'
'Alexander'
'154'
'领域的'
'革'
'随便'
'长官_'
'铐'
'迪亚'
'这两个'
'转_'
'跑来'
'艾滋病'
'给人'
'相似_'
'的战斗'
'的名字_'
'的合'
'疼_'
'現'
'狮子'
'特别是在'
'爱心'
'火车_'
'澡_'
'波蘭'
'沙拉'
'決'
'林的'
'放在桌上_'
'擦掉_'
'推倒'
'损害'
'拳头'
'拉的'
'报纸'
'截'
'我想_'
'急救'
'怒'
'很重要_'
'幻想'
'平衡'
'已经开始'
'岁时_'
'尼基塔'
'小行星24'
'寺'
'安全局'
'女朋友'
'大大'
'大卫'
'在美国'
'圣灵'
'商_'
'哈萨克斯坦'
'后果_'
'召集'
'别乱动_'
'克鲁'
'他认'
'他们只'
'从我'
'从不'
'乐_'
'乌斯'
'член_'
'чест'
'чемпионата_'
'ценност'
'цвето'
'физически'
'ующи'
'тьм'
'тори'
'такими_'
'считать_'
'стреля'
'села_'
'рр'
'прям'
'проде'
'провод'
'потряс'
'палат'
'охот'
'осла'
'означает_'
'обор'
'ногами_'
'новост'
'нара'
'мод'
'лов_'
'коро'
'ицу_'
'зато'
'зао'
'зале_'
'завтрак'
'женой_'
'емых_'
'дина'
'гнев'
'вре'
'виж'
'век'
'вдоль_'
'вания_'
'бого'
'амо'
'Сам'
'Прости_'
'Принц'
'Пон'
'Откуда_'
'КП'
'Зам'
'Жи'
'Влад'
'yev'
'vie'
'sh_'
'ron'
'pat'
'pan'
'om_'
'mic'
'cor'
'PS'
'.. _'
'酒吧'
'辨'
'财富'
'谎言_'
'计划的'
'警报'
'表现出'
'蜂'
'苔'
'维护'
'绍'
'索尼'
'算_'
'答复'
'穿衣服_'
'砷'
'的朋友_'
'疾'
'獸'
'特种部队'
'爆发'
'潜'
'水里_'
'氢'
'毕业'
'每一个'
'桩'
'本身_'
'有钱'
'智慧_'
'明智'
'早上_'
'政权'
'指挥部'
'投掷'
'我妈'
'意愿_'
'得到的'
'床单'
'小行星68'
'小行星33'
'尊重_'
'夫斯基_'
'士兵们'
'塔的'
'培养'
'埋在'
'啤酒_'
'哥哥'
'和法'
'和政'
'吸血鬼'
'另一方面_'
'取得了'
'卡蒂'
'北极'
'办_'
'内战'
'兩'
'但未'
'但他不'
'他本人'
'乌克兰人'
'一个月'
'шир'
'чувствую_'
'ход'
'фен'
'ука'
'увств'
'тивны'
'тел_'
'ступ'
'согласи'
'совест'
'сети_'
'русск'
'распол'
'психи'
'прик'
'приз'
'пр'
'получается_'
'огне'
'овк'
'никакой_'
'насч'
'мысл'
'меня'
'материал'
'линг'
'ласк'
'лаз'
'кти'
'значения_'
'занял'
'жен_'
'еме'
'ела'
'гря'
'выполнени'
'войну_'
'возможно'
'безд'
'ающе'
'Фар'
'Рик'
'Пл'
'Пал'
'НЕ_'
'Люд'
'Зах'
'Дра'
'up'
'sm'
'sl'
'rep'
'ov的'
'ort'
'ning_'
'k的'
'fre'
'clo'
'You'
'Tom'
'30年'
'1988年'
'魔鬼'
'马的'
'雇'
'集会'
'陽'
'陌生的'
'钢铁'
'适用于'
'进程_'
'路易斯_'
'資'
'计_'
'覆'
'被炸'
'菲斯'
'腹部'
'老鼠_'
'羽'
'義'
'缓'
'經濟'
'絲_'
'節'
'站起来'
'穹顶'
'禮'
'砖'
'睡着'
'眼泪'
'相关的'
'生物学'
'现金'
'犬'
'潜水'
'沃罗'
'机制_'
'昂_'
'无声'
'收到了'
'提议'
'或许_'
'我给'
'往后'
'带到了'
'巡'
'对俄罗斯'
'孙子'
'好像有'
'女性_'
'头被'
'天花板'
'在河'
'在夜间'
'在古'
'在P'
'和阿'
'名单_'
'各项'
'反正'
'压在'
'到处'
'到他'
'信号'
'你真的'
'你看到'
'你是谁_'
'伤口_'
'传递'
'会被'
'他终于'
'井_'
'事故'
'东方'
'不过_'
'上尉'
'一个年轻的'
'яют_'
'ярки'
'ядо'
'явля'
'чок_'
'уц'
'улся_'
'тан_'
'счита'
'стена'
'создава'
'руга'
'реж'
'простит'
'прогул'
'прида'
'президент'
'предложение_'
'правд'
'порядок_'
'перемен'
'парти'
'пали'
'ощу'
'открыти'
'остановился_'
'основанные_'
'ози'
'овав'
'образн'
'нда'
'любимы'
'лес'
'каб'
'йд'
'изде'
'иж'
'зам'
'закончил'
'жал'
'десяти_'
'графи'
'гост'
'голов'
'воспринима'
'вкус'
'вариант'
'бос'
'бород'
'блюд'
'асс'
'Реш'
'НКВД_'
'КР'
'Говори'
'Больше_'
'use'
'sim'
'right_'
'pha'
'nu'
'ner'
'ili'
'ght_'
'ett'
'chenko'
'Victor'
'SS'
'MO'
'Comm'
'BS'
'73_'
'737_'
'102'
'镇上'
'量子'
'遍_'
'诱惑_'
'蟹_'
'膝盖'
'膜_'
'老师_'
'绑架'
'索尔'
'简短'
'第_'
'秘密的'
'着一'
'真诚'
'的痛苦'
'的沙'
'的动'
'的三'
'珊'
'玉'
'民的'
'植物_'
'棋'
'树木'
'效_'
'意义的'
'必须是'
'德斯'
'彻'
'巡逻'
'尼斯_'
'小行星67'
'姆的'
'太阳的'
'在地球'
'和朋友'
'另'
'单一'
'利亚_'
'农场'
'写着'
'其他的'
'保证_'
'任何事_'
'了的'
'不上'
'ёнк'
'эмоци'
'ьмо'
'шего_'
'чик'
'цев'
'хож'
'хива'
'умел'
'уда'
'стей_'
'свободны'
'рост'
'рати'
'развитие_'
'прошло_'
'проси'
'произнес_'
'проби'
'принадлежа'
'призва'
'прест'
'покрыт'
'позволил'
'пожи'
'переби'
'первое_'
'официально'
'отличн'
'ок'
'обы'
'мур'
'лом_'
'корн'
'итыва'
'имеющи'
'изг'
'звонк'
'заказ'
'жне'
'ехать_'
'евой_'
'делу_'
'выступлени'
'выжи'
'вр'
'волк'
'воздухе_'
'включа'
'веща'
'бле'
'благодар'
'бе_'
'аэропорт_'
'аты'
'алл'
'абот'
'Эль'
'Франци'
'Тихо'
'Стр'
'Оскар_'
'Лив'
'Игроки_'
'Землетрясение_'
'Дэвид_'
'Диа'
'ret'
'nna'
'nb'
'ima'
'gg'
'cal'
'ara'
'FI'
'） '
'高兴'
'骨头_'
'集团_'
'隐藏'
'阻碍'
'里克_'
'释_'
'适'
'迷失了_'
'运气'
'走去_'
'谷_'
'请求_'
'芭蕾舞'
'自然的'
'脚踢_'
'罗曼'
'经理'
'系統_'
'糊'
'笔记本'
'笑一个_'
'窒息'
'祝福'
'眼泪_'
'真理'
'的那样_'
'的证'
'的表'
'的木'
'的孩子_'
'白天'
'珍珠'
'牧师'
'游击队'
'洛克'
'汗_'
'格尔'
'树叶'
'最多'
'曼斯'
'是时候'
'是吗_'
'无限'
'无意'
'教会_'
'提议_'
'拼'
'手里_'
'我不得不'
'成年'
'惯'
'当地居民'
'开门_'
'帽子'
'巴基斯坦'
'尼克_'
'小行星56'
'小组_'
'对其'
'孩_'
'姐姐'
'如下_'
'外公'
'埃米'
'在空'
'在法'
'唤醒'
'参与_'
'勒斯'
'决议草案'
'再多'
'其中包括'
'他告诉'
'亿美元_'
'于201'
'与俄罗斯'
'不佳_'
'ьки'
'ыпа'
'чёрны'
'целый_'
'хал'
'тонн'
'тепло'
'счастливы'
'состоя'
'событи'
'сна'
'слав'
'рет'
'реклам'
'революци'
'рд_'
'растени'
'раска'
'различных_'
'разговарива'
'работник'
'прочи'
'применени'
'признак'
'прекрати'
'пото'
'пло'
'общин'
'нормально_'
'несо'
'нашла_'
'надежд'
'метра'
'мгновение_'
'ково'
'зрител'
'зимних_'
'заби'
'жав'
'ельно'
'единственн'
'дет_'
'девчонк'
'выч'
'видя'
'ванн'
'будете_'
'бон'
'архи'
'ареста_'
'Южной_'
'Футбольн'
'Украин'
'Тем'
'Северной_'
'Сара'
'Перс'
'Никак'
'Маль'
'Зав'
'Жел'
'Два_'
'Гран'
'Господ'
'Георги'
'que_'
'od_'
'och'
'nin'
'ft_'
'eva'
'co_'
'Wi'
'Vit'
'Pavlov'
'Nadia'
'Han'
'Grigori'
'Andre'
'81_'
'马戏团'
'隐形'
'量的'
'轻松'
'诅咒_'
'解除'
'被烧死_'
'被推'
'被抓'
'被割'
'莲'
'肩膀上_'
'股份'
'罗马尼亚'
'罐头'
'编辑'
'绵'
'網球'
'笨'
'看上去'
'盗窃'
'的灯'
'的情况下_'
'的夜晚_'
'的各'
'疆'
'电气'
'玛丽娜'
'犹豫'
'潮湿'
'沼泽'
'汀'
'案文'
'机器_'
'暴风雨'
'數_'
'摩尔'
'损失_'
'拇指'
'抱歉'
'抛弃了'
'把这'
'找出'
'打他_'
'我喝'
'悲'
'强_'
'引发了'
'就这样_'
'小行星14'
'基斯'
'呆了'
'同学'
'卢布'
'卖掉'
'利斯'
'克洛'
'作出了'
'但他没有'
'传说_'
'伞'
'会是'
'以前的'
'从那时起_'
'事先'
'丧失'
'与你'
'不好'
'丈夫的'
'юшк'
'ыв_'
'шее_'
'чар'
'цикл'
'хэ'
'тя'
'традици'
'тей'
'страшно'
'сообществ'
'систему_'
'ради'
'пти'
'пример_'
'попу'
'ошиб'
'откл'
'отдельны'
'останавлива'
'осил'
'оо'
'оги'
'мм_'
'матр'
'креп'
'кни'
'ишк'
'женно'
'желт'
'ерно'
'езн'
'дут_'
'достал'
'готовы_'
'глян'
'вон_'
'вне_'
'вкусн'
'брал'
'ане'
'Северн'
'ПР'
'ОВ'
'Ла_'
'Крас'
'Ио'
'Бро'
'Бес'
'Анти'
'yd'
'rop'
'ria'
'rem'
'nko'
'men'
'ere'
'dia'
'com'
'bet'
'acc'
'FA'
'Ari'
'鬼_'
'骸'
'门前_'
'重的'
'里斯'
'里拿'
'選'
'逃亡'
'退伍军人'
'贵_'
'谜'
'证实_'
'要去'
'蛇_'
'著_'
'菲_'
'草案'
'联系了'
'缔约方'
'维基'
'维也纳'
'粉红'
'示_'
'的能力_'
'的朋友'
'爪'
'澄清'
'洗洗'
'民國'
'校友_'
'来自_'
'有2'
'暴露'
'是你的'
'旨在'
'断_'
'收到_'
'收入_'
'拳击'
'拉多'
'手术_'
'惊慌'
'开枪'
'巧'
'屬'
'將'
'将来'
'客观'
'完全不同_'
'姬'
'奥古斯'
'复一'
'墙壁上'
'塞浦路斯'
'垃圾_'
'回家了_'
'和新'
'合同_'
'到你'
'判处'
'创作'
'保健'
'俄语_'
'你已经'
'他人'
'了这一'
'了个'
'丰富'
'一个黑'
'ьную_'
'шок'
'цц'
'усилия_'
'улет'
'сторон_'
'стве_'
'старик'
'спр'
'спл'
'содержани'
'сессии_'
'пяти_'
'пыл'
'приехал_'
'представлял'
'представил'
'превратил'
'праздн'
'пищ'
'пада'
'отчет'
'оне'
'ольн'
'нец'
'немц'
'надел'
'мё'
'моли'
'минуты_'
'лас'
'король_'
'компьютер'
'клуб'
'инск'
'имею_'
'заш'
'заседани'
'замет'
'ехал'
'ета_'
'голод'
'выход_'
'вздохнул_'
'веро'
'вез'
'вались_'
'бло'
'бл'
'Шер'
'Тал'
'ТИ'
'Прис'
'Поли'
'Обра'
'ОС'
'Кай'
'Вой'
'uni'
'tar'
'ow_'
'oe'
'nan'
'ij'
'ee_'
'des'
'all'
'Sta'
'Lar'
'; (_'
';'
'1980_'
'//'
'%'
'!"._'
'	'
'颐颐'
'颐'
'险'
'遠'
'适用'
'进步'
'这就'
'过夜_'
'赞同'
'谋_'
'设施_'
'观察员'
'西亚_'
'装甲'
'術'
'节日_'
'脖子上'
'考古'
'纳塔'
'筒'
'磷'
'看着他_'
'的居民'
'的原'
'的公寓'
'的儿子_'
'的信息_'
'理查'
'演出'
'準'
'湿的'
'河边'
'没什么'
'沙漠'
'每个人都会'
'死人'
'步兵'
'歌剧'
'欲'
'梁'
'杆'
'是怎么'
'拦住'
'拥抱_'
'我走了_'
'我看着'
'戏剧'
'想知道'
'忠实的'
'律师_'
'市政'
'就有'
'小行星60'
'安理会'
'婚_'
'她的头'
'头盔_'
'大叫_'
'塔利'
'坐在椅子上_'
'地位'
'在草'
'在巴'
'在D'
'商定'
'和L'
'合成'
'双手_'
'印_'
'剧_'
'券'
'判断'
'内政部'
'兔子'
'任何地方_'
'他是个'
'他们向'
'仆人'
'不是在'
'下属'
'яще'
'ьф'
'цион'
'хороший_'
'умо'
'треб'
'телес'
'творит'
'тал'
'счастья_'
'сост'
'сообщили_'
'создани'
'собор'
'слух'
'скат'
'семь_'
'семейн'
'секунд_'
'секс'
'секретаря_'
'рх'
'рука_'
'раздраж'
'просил_'
'проис'
'правительство_'
'пошёл_'
'помнит'
'получилось_'
'положи'
'позици'
'плечи_'
'пил'
'оси'
'опасно'
'нта_'
'недел'
'мото'
'мк'
'казн'
'искал'
'изуча'
'застр'
'жив_'
'еф'
'длинны'
'дальнейше'
'гражданско'
'государств'
'води'
'верхн'
'борьбе_'
'ацию_'
'Яр'
'Эс'
'Уда'
'Ленинград'
'Лар'
'Кры'
'ГО_'
'Вел'
'Вдруг_'
'tte'
'see_'
'our_'
'hol'
'comm'
'br'
'... -- _'
'顺利_'
'需要我'
'间的'
'镇压'
'銀'
'采取的'
'遗产_'
'逮捕_'
'过一'
'覺得'
'袭'
'被判'
'蒂亚'
'缓慢_'
'给他们'
'紧紧'
'科洛'
'理想'
'滑板'
'深_'
'注意力_'
'波罗'
'比如_'
'死亡的'
'模仿'
'某人'
'更好_'
'普利'
'斯拉夫_'
'抖_'
'成果'
'很乐意'
'弗朗'
'居民_'
'小行星65'
'安妮'
'她走'
'她刚'
'奈_'
'坐在一'
'在学校'
'哥伦比亚'
'哈拉'
'哈尔'
'呀_'
'反而'
'原则上'
'厅_'
'南斯拉夫'
'冰冻'
'你很'
'们不'
'亲人'
'亨利'
'也许她'
'乌斯_'
'中士'
'下降'
'。 “_'
'ьше_'
'ьг'
'цз'
'устраива'
'усл'
'уса_'
'указыва'
'том'
'тера'
'соверша'
'скому_'
'самолет'
'руж'
'рост_'
'рованны'
'рл'
'природы_'
'президент_'
'появились_'
'пойду_'
'пиро'
'партнер'
'оставить_'
'одит'
'обязан'
'норм'
'нзи'
'метро_'
'кус'
'коротки'
'компания_'
'ича'
'иба'
'задума'
'древни'
'дже'
'данн'
'гено'
'врач'
'вко'
'будущем_'
'аты_'
'ами'
'Цар'
'Уз'
'Также_'
'Сын'
'Рон'
'Прин'
'Прив'
'Однажды_'
'Марина_'
'Лиг'
'Закон'
'Душ'
'Дом'
'Гам'
'Бе'
'tru'
'tor_'
'tle'
'stan'
'hen'
'gue'
'fan'
'ear'
'ann'
'act'
'MP'
'Les'
'LI'
'= '
'％'
'鸡肉'
'魔法师_'
'阅'
'闯入'
'长大_'
'重复了'
'那东西'
'课程'
'认为自己'
'言词'
'虚弱_'
'色情'
'能做'
'肩'
'网站_'
'罐'
'秩序'
'的毛'
'的位置'
'的价'
'珊瑚'
'玛雅'
'犯罪_'
'牢房'
'爱丽丝_'
'炉灶'
'灰色_'
'浴室_'
'油漆'
'没想到'
'晒'
'新_'
'斯特拉'
'文本'
'放弃_'
'把刀'
'感受_'
'悲哀'
'心脏'
'形容'
'已经变'
'屁股'
'奥林匹克运动会'
'天赋_'
'城市的'
'喝酒_'
'发言人'
'卫兵'
'卡利'
'勇敢_'
'加油'
'几分钟后_'
'内斯'
'公爵'
'傷'
'会上'
'代表团_'
'他写'
'从后'
'中校'
'不知道他'
'上尉_'
'эс'
'экономик'
'шел'
'цы'
'форма'
'уко'
'тысяч'
'тун'
'терпе'
'тельные_'
'тари'
'счет_'
'ствол'
'старый_'
'сле'
'рих'
'ресурс'
'пробу'
'приближа'
'поток'
'попросил_'
'попасть_'
'помещени'
'пово'
'отл'
'остаться_'
'округ'
'обучени'
'обман'
'необходимы'
'наказани'
'матрива'
'лённы'
'леса_'
'кук'
'коле'
'книгу_'
'еньки'
'делом_'
'далек'
'вечера_'
'бюджет'
'бр'
'аа'
'Шан'
'Уильям_'
'Рен'
'Оз'
'Москвы_'
'Мис'
'Время_'
'ust'
'pol'
'n的'
'ner_'
'lli'
'fs'
'ea_'
'ay_'
'ama'
'VII'
'MI'
'Hy'
'BM'
'..."'
'!!!'
'鲁西'
'鱂_'
'频'
'音樂_'
'電子'
'钟_'
'邻近'
'这将'
'还有几'
'返回_'
'谎言'
'说一'
'诚实_'
'证人'
'論_'
'见了'
'要做'
'裁军'
'薩克'
'葬礼'
'荣幸'
'背上'
'而没有'
'罪孽_'
'纸张_'
'约1'
'第三个'
'神圣'
'盾牌'
'皇帝_'
'的神'
'的法律'
'的尖'
'电力'
'牧师_'
'牛仔裤'
'父_'
'污染'
'欲望_'
'日子_'
'斯维'
'或者_'
'我转'
'成立的'
'怀着'
'怀抱'
'很长'
'尴尬_'
'小行星76'
'小行星72'
'封锁'
'安慰'
'妇女和'
'天真'
'大师'
'在莫斯科_'
'在两'
'含糊'
'叔叔_'
'反思'
'单位_'
'协定_'
'协会_'
'勇敢的'
'制的'
'到处都是'
'分割'
'共和'
'儒'
'侯'
'你做'
'ёно'
'ёк_'
'юх'
'щ'
'тракт'
'сыно'
'сложно_'
'сен_'
'семью_'
'секретар'
'сей_'
'свидетел'
'свеч'
'ребенок_'
'разбо'
'продолжил_'
'приходилось_'
'приговор'
'помощник'
'получится_'
'получен'
'площади_'
'планеты_'
'первая_'
'отража'
'острова_'
'оставал'
'онск'
'окн'
'ожида'
'обычно'
'оборот'
'обеспечива'
'несчаст'
'написан'
'мени'
'мелки'
'мальчик'
'легче_'
'инд'
'заро'
'закрыва'
'ете'
'единственно'
'евич_'
'дракон'
'дорог'
'дли'
'детьми_'
'дворц'
'глубин'
'гео'
'вки_'
'вино'
'взрыв'
'весн'
'альная_'
'Сор'
'Слав'
'Прос'
'Око'
'Катя_'
'Каст'
'Заме'
'Вид'
'Боль'
'vin'
'ue_'
'tur'
'sur'
'sn'
'sit'
'nig'
'ger'
'every'
'ding_'
'cer'
'ble'
'Tanya'
'SM'
'Rh'
'Chi'
'* '
'驾'
'项_'
'陌生人_'
'重力'
'遇见了'
'这是你'
'软件'
'转过'
'跳跃'
'趣'
'越过'
'起草'
'赢了_'
'谈了'
'讽刺'
'讶'
'讨'
'衰'
'虚伪'
'蓮'
'落到'
'获取'
'脂肪'
'胸部_'
'統'
'紐約'
'着我_'
'眼镜_'
'看我'
'盃'
'的残'
'的女人_'
'的土地'
'的名'
'白_'
'琳娜_'
'物理学'
'父母的'
'洼'
'杯子_'
'斥'
'斜'
'整个地'
'掠夺'
'托夫_'
'所需'
'我注意到'
'我无法'
'心智'
'康斯坦丁_'
'平板'
'平方米'
'帆'
'巴哈'
'小行星80'
'小行星61'
'小行星59'
'小行星54'
'小行星39'
'威尼斯'
'地址_'
'在上'
'哲学_'
'响起_'
'和两'
'古尔'
'去他'
'卫队'
'公里的'
'全_'
'你又'
'仪'
'他的妻子'
'他本'
'他因'
'交给了'
'互动'
'了他们_'
'乔治'
'主任_'
'中学'
'世界上最'
'与此同时_'
'一大'
'ённых_'
'ённо_'
'ялся_'
'шаг'
'чь'
'числа_'
'честн'
'цит'
'цели'
'худ'
'утр'
'удар_'
'убива'
'третий_'
'считает_'
'сути_'
'супруг'
'сигарет'
'родн'
'рии_'
'рива'
'рени'
'ремонт'
'рать_'
'разн'
'понимал_'
'отступ'
'отправля'
'окра'
'окл'
'ово_'
'овка_'
'обязанност'
'нх'
'нул'
'настоящий_'
'мужчин'
'лесу_'
'лены_'
'лд'
'кризис'
'итог'
'источник'
'инженер'
'иди'
'знак_'
'еско'
'ень_'
'ент_'
'енко_'
'ельн'
'дур'
'дума'
'далее_'
'дала_'
'гур'
'гг'
'выдел'
'всём_'
'вспомнил_'
'восторг'
'вокзал'
'вир'
'варе'
'бата'
'асти'
'Эв'
'Сме'
'Слов'
'Сент_'
'Папа_'
'Какие_'
'КА_'
'Западно'
'Зад'
'ДА_'
'Гла'
'Впер'
'Борис'
'Бере'
'АС'
'work_'
'wa_'
'ssa'
'rl'
'lk'
'land_'
'ade'
'ME'
'Ben'
' - "_'
'！ '
'麗魚_'
'首都_'
'飞向'
'预期'
'面上_'
'難'
'问问'
'迦'
'这对'
'赐予'
'豪华'
'谢天谢地_'
'读了'
'该地区'
'记忆中'
'行为的'
'自己也'
'而言'
'维利'
'純純'
'站的'
'社_'
'看到你'
'相反'
'的其他'
'的俄罗斯'
'猴子'
'犹'
'物体'
'滴滴'
'浆'
'泰国'
'本地'
'是1'
'无耻_'
'无私_'
'教义'
'扯'
'所在'
'戶'
'我等'
'我为'
'广场_'
'带了'
'宪法_'
'奇的'
'在西'
'回忆_'
'和平_'
'又一'
'卡塔'
'出口_'
'冰箱'
'冠军'
'公民_'
'伤亡'
'他的眼睛'
'他没'
'了自己'
'了人'
'习惯_'
'丝绸_'
'不久之后_'
'яне'
'яна'
'эпох'
'чёт'
'чне'
'частью_'
'хам'
'участников_'
'условия_'
'уси'
'урок'
'упор'
'удел'
'увол'
'уальн'
'тые_'
'тельной_'
'сса'
'слеп'
'рул'
'рка'
'реально'
'прыг'
'проклят'
'приход'
'преодоле'
'поля_'
'покор'
'подр'
'перекр'
'парк_'
'отделени'
'онн'
'ования_'
'обязательств'
'нч'
'нить_'
'некоторое_'
'национал'
'музыкальн'
'мудр'
'моря_'
'лоч'
'лб'
'крат'
'контрол'
'конструк'
'ког'
'ительств'
'истори'
'имся_'
'иг'
'звон'
'захват'
'ека'
'дуб'
'дочк'
'детско'
'делаешь_'
'девочки_'
'дам_'
'говори'
'гас'
'вида_'
'вернулась_'
'верно_'
'везде_'
'вание_'
'бух'
'атмосфер'
'аем'
'Энд'
'Ук'
'СИ'
'Пок'
'Оба'
'ОГ'
'Никит'
'Народ'
'Москва_'
'Комп'
'Кит'
'Ква'
'Иногда_'
'Жан_'
'Великий_'
'Альб'
'sup'
'pe_'
'org_'
'mac'
'ls'
'dre'
'ast'
'Valeri'
'St'
'Sp'
'SE'
'Op'
'Maxim'
'CC'
'700'
'2012年夏季奧林匹克運動會'
'125'
'項'
'隐藏在'
'阿_'
'阴影_'
'闪'
'这里是'
'车厢'
'详'
'训'
'脑_'
'续'
'绑'
'纸上'
'米高'
'瘦_'
'用小'
'玩具_'
'燃'
'没人知道'
'格利'
'树丛'
'本国'
'晚饭'
'是空的_'
'早早'
'早在'
'斯里'
'提到的'
'拉拉'
'把水'
'战略_'
'战士_'
'我愿'
'我们想'
'成本'
'怪_'
'微型'
'帕夫'
'巴尼'
'少校_'
'小行星70'
'小行星57'
'字眼_'
'妨碍'
'奋'
'天堂'
'大卫_'
'塔克'
'回答了'
'嘛_'
'合国'
'卡瓦'
'卡爾'
'勒索'
'冷却'
'冷冻'
'先知'
'偷窃_'
'倒了'
'但他却'
'传统_'
'企'
'付了'
'他自己'
'他的腿'
'他几乎'
'他们把'
'亚美尼亚'
'亚尔'
'世界杯'
'上级'
'一系列'
'ющее_'
'юм'
'эт'
'ща_'
'уса'
'сухо'
'срок'
'специальны'
'специально_'
'сотрудников_'
'состоял'
'разр'
'рабочи'
'пропал'
'проверк'
'прие'
'придётся_'
'праздник'
'поч'
'подошла_'
'плава'
'писал_'
'песн'
'переда'
'отр'
'остались_'
'объяснить_'
'нки_'
'народов_'
'написал_'
'момента_'
'мир'
'мес'
'лесн'
'купить_'
'кост'
'кислот'
'ино_'
'иден'
'знания_'
'зла_'
'заи'
'ерж'
'еди_'
'еве'
'достав'
'глас'
'выбор_'
'волос'
'вов'
'ано'
'аве'
'Як'
'Юли'
'Уч'
'Уил'
'Социал'
'Слушай_'
'Рок'
'Ред'
'Пойд'
'ОБ'
'Какая_'
'КН'
'Иди_'
'Иде'
'Генри_'
'Бул'
'Бас'
'Ага_'
'vr'
'too'
'sec'
'pen'
'other_'
'ms_'
'ja_'
'int'
'cou'
'cas'
'ak_'
'Th'
'NT'
'Ban'
'91_'
'龙卷风'
'骚扰'
'阿姨'
'闻_'
'闪电_'
'选举_'
'这里有'
'论文_'
'處'
'茅'
'苏_'
'维克多'
'统治者'
'篮子'
'第一位'
'空间的'
'的情'
'的事件'
'然后说_'
'激情'
'满满'
'测试_'
'泽_'
'欢乐的'
'權'
'森林的'
'案子'
'条例'
'机枪'
'日期_'
'无论如何_'
'斯莫'
'放到'
'摇晃'
'拉斯_'
'抵抗'
'抖'
'房间的'
'我猜'
'我听说'
'我们不能'
'想起了'
'想想_'
'悲哀_'
'库斯'
'帕维尔_'
'就越'
'小行星75'
'实质'
'它在'
'塞爾'
'塔塔'
'基金_'
'坛'
'土地上'
'器官'
'和手'
'合并'
'口袋里_'
'单_'
'十三'
'勇'
'利用_'
'出席'
'入了'
'俄国人'
'伤口'
'他要'
'事实上'
'两条'
'一部分'
'一个女孩'
'ягива'
'южн'
'эк'
'ьев_'
'шлен'
'чужи'
'честно_'
'уюся_'
'услови'
'украинск'
'удивительн'
'убь'
'тяжёл'
'требовал'
'ткан'
'телевизор'
'стран'
'столик'
'сра'
'содействи'
'советски'
'смотрели_'
'смогли_'
'сит'
'связ'
'рю_'
'рин_'
'рассказа'
'расположен'
'района_'
'радость_'
'предела'
'построи'
'подумать_'
'платье_'
'перем'
'первые_'
'пальцы_'
'ощущение_'
'ошибк'
'отвер'
'остальные_'
'оконча'
'ожидани'
'обита'
'обвин'
'нько_'
'нынешн'
'наркотик'
'называ'
'мя_'
'логи'
'лини'
'культурн'
'контроля_'
'код'
'кандидат'
'йши'
'ими'
'изменения_'
'здрав'
'запла'
'занимаю'
'занимал'
'жиль'
'есн'
'доверя'
'дов_'
'гос'
'высше'
'вещей_'
'бросил_'
'брод'
'аси'
'английски'
'Эри'
'Христа_'
'Хел'
'Флор'
'Уол'
'Тэ'
'Мю'
'Майк'
'Карл'
'Дю'
'Дол'
'День_'
'Генерального_'
'Был_'
'Бос'
'Божи'
'Боб'
'АЛ'
'sou'
'ona'
'nda'
'ker'
'gonna_'
'Zo'
'Natasha'
'Ivan_'
'In_'
'Fl'
'EN'
'Chr'
'Ant'
'20年'
'1994年'
'1941_'
'120'
'11月1'
'111'
'： '
'鲍里斯'
'领袖'
'韦_'
'雷斯_'
'锦标赛_'
'錫'
'通过_'
'追赶'
'返'
'运行'
'輪'
'趣的'
'贯'
'質'
'诺伊'
'议会_'
'角度'
'被送'
'被杀'
'血压'
'蓝色的'
'蒂娜'
'营养'
'艾米'
'舒服_'
'脚_'
'老_'
'群島_'
'绕过'
'米特'
'穿的'
'稳'
'科学家_'
'砸了_'
'矮'
'目的是'
'盒子_'
'的照片_'
'的学'
'略_'
'生活方式'
'瓦尼'
'理想的'
'炎'
'母_'
'樂團_'
'椅子_'
'格莱'
'有时会'
'有个女孩'
'普尔'
'摄'
'掩盖'
'接待'
'授'
'持续了'
'抽了'
'我们知道'
'幸运的'
'崎'
'小行星78'
'小行星51'
'害的'
'失_'
'大家都在'
'够多了_'
'在短'
'在了'
'周_'
'告诉他_'
'吐_'
'可持续'
'受过'
'刚才'
'几分钟'
'再也'
'佛_'
'代价'
'他睡'
'他无'
'他指'
'了2'
'之一'
'中尉_'
'不小心'
'下了'
'万卢布_'
'》、《_'
'ьски'
'штук'
'шко'
'холодны'
'тяж'
'ственно'
'сообща'
'создания_'
'совершен'
'серебр'
'серв'
'семь'
'свободы_'
'родин'
'река_'
'разнообраз'
'пыль'
'прошу_'
'принимал'
'правило_'
'правду_'
'пещер'
'пережи'
'пала'
'отношений_'
'отдельно'
'оры_'
'олов'
'объедин'
'обрат'
'нужда'
'нка_'
'немецки'
'мане'
'льн'
'ленные_'
'лак'
'ион'
'име'
'изу'
'ивше'
'заста'
'заку'
'жутк'
'женско'
'елен'
'единиц'
'дорогой_'
'дому_'
'дву'
'груст'
'горе'
'голоса_'
'гк'
'выг'
'выбора'
'вшем'
'восток'
'верси'
'вернуть_'
'быва'
'бизнес'
'аци'
'атель'
'активно'
'аем_'
'Штат'
'Ц_'
'Федор'
'Ст'
'Совет_'
'Прес'
'Петр_'
'Любо'
'Дед'
'ВК'
'Америки_'
'zo'
'yp'
'lly_'
'ici'
'bir'
'Dem'
'97_'
'83_'
'1960年'
'106'
');_'
'魔法_'
'非政府组织'
'钩'
'重型'
'里奥'
'透露'
'运动员'
'边境'
'證'
'西西'
'耳朵_'
'耐心_'
'羊毛_'
'结合'
'经历的'
'级的'
'米爾'
'米沙'
'米奇'
'第三次'
'第一_'
'笑的'
'空洞'
'秩序_'
'碰到'
'的面'
'的感'
'的墙壁'
'的图'
'的伤'
'的传'
'痛苦和'
'申诉'
'用水'
'生活在一'
'理工'
'现有'
'王室'
'然后他'
'烈_'
'温和'
'淋浴'
'流逝_'
'民主党'
'步行'
'挣扎_'
'扎尔'
'扁'
'成功地'
'恐慌'
'怜'
'待在'
'并非如此_'
'巢'
'小行星77'
'小行星74'
'小行星38'
'小行星19'
'宿舍'
'壁橱'
'国防部'
'回了'
'响了_'
'只有当'
'友_'
'厂_'
'刺激'
'军营'
'具_'
'全体'
'保羅_'
'你为什么要'
'体现'
'估'
'他无法'
'他可能'
'他们有'
'人工'
'шею_'
'чиков_'
'ультат'
'ужас'
'удал'
'творческ'
'ступен'
'спину_'
'сомнева'
'сним'
'реко'
'прошлого_'
'протянул_'
'производства_'
'поруч'
'поля'
'подоб'
'поднялся_'
'подве'
'оче'
'ола'
'овения_'
'ногу_'
'несл'
'нарко'
'нам'
'наблюдени'
'международны'
'маршрут'
'йского_'
'йе'
'имуществ'
'зло_'
'зг'
'житель'
'жителей_'
'енц'
'енными_'
'долги'
'джин'
'господин_'
'выполн'
'вскр'
'времен'
'веру'
'важно'
'броси'
'берг_'
'аются_'
'ативн'
'адн'
'Фл'
'Прок'
'МВД_'
'Кали'
'Испании_'
'Интернет'
'Буду'
'Большой_'
'БА'
'unt'
'sp'
'ord'
'gel'
'Sav'
'Pop'
'Pet'
'But_'
'? '
'1974'
'헢'
'香味'
'需求_'
'阿塔'
'里出来_'
'造成了'
'进去'
'这只是'
'这儿'
'还有别的'
'轴'
'跳舞_'
'资格'
'译'
'议程项目'
'认为这'
'諾夫'
'蜡烛'
'茶壶'
'自豪_'
'腿上_'
'腓'
'脱衣'
'考试'
'罗马_'
'筹'
'竭'
'税_'
'程度上'
'眼睛被'
'看到我'
'的方'
'的兄弟'
'男女'
'激光'
'毫米'
'楼梯_'
'检察官办公室_'
'标志'
'本能'
'有所'
'有一名'
'明确的'
'无助'
'敞开'
'捍卫'
'指定'
'拉里'
'折磨'
'手上'
'悬'
'当天'
'异教徒_'
'幽默'
'年来_'
'带他'
'希望的'
'布林'
'峰'
'屋顶上'
'层的'
'尤其'
'小行星66'
'小行星58'
'她穿'
'天然'
'大家_'
'坟墓_'
'團'
'和解'
'味道'
'参观'
'历史学家'
'卧室_'
'助手_'
'刀刺'
'写信'
'公寓的'
'入口_'
'克里斯蒂'
'俄罗斯国'
'仰'
'他真'
'他喝'
'人从'
'于_'
'了她的'
'义务_'
'丽莎_'
'主角'
'下一步'
'эволюци'
'ьев'
'щенны'
'шую_'
'шта'
'фото_'
'физик'
'улицы_'
'убил_'
'тора_'
'тко'
'тара'
'столов'
'старший_'
'сне'
'смотр'
'сия'
'свобод'
'ржи'
'расстро'
'разруш'
'раг'
'продолжит'
'программ'
'приятны'
'призыва'
'предо'
'потер'
'полит'
'перее'
'отмен'
'операци'
'ожив'
'ню'
'нувшись_'
'номи'
'нени'
'начина'
'наста'
'монт'
'мобильн'
'лицу_'
'ического_'
'ических_'
'ируе'
'зн'
'звук_'
'зач'
'зако'
'задержан'
'ждал_'
'езди'
'его'
'депутат'
'дворе_'
'двинул'
'говор'
'гени'
'генерал_'
'гаранти'
'возм'
'возвращени'
'воде_'
'вида'
'блес'
'ант_'
'акци'
'Ус'
'Уи'
'Пожалуйста_'
'Пир'
'Пак'
'Ох'
'Максим'
'Лат'
'Конс'
'Дэн'
'Дав'
'Воль'
'Брат'
'nos'
'nk'
'nce_'
'dri'
'ans'
'Sh'
'MS'
'KA'
'1988_'
'1905'
'177'
'159'
'）：_'
'쫇'
'鹰'
'鬼魂_'
'香烟_'
'除_'
'阿加'
'錄'
'野蛮的'
'遮住_'
'逃跑'
'连锁'
'跪在地上_'
'贸'
'认知_'
'視'
'西北'
'裁决'
'血迹_'
'菲利普_'
'荡_'
'苏尔'
'能量_'
'胳膊_'
'罗伯'
'纸张'
'纪念碑'
'總統'
'糟_'
'等候'
'空虚_'
'移开_'
'神庙_'
'看了_'
'皮_'
'的罪'
'的男子'
'的基础'
'病人_'
'火焰'
'法尔'
'泄'
'气味_'
'桥_'
'朵'
'是黑'
'是我们的'
'星球'
'接触_'
'接到'
'报复'
'扫描'
'我听'
'我们发现'
'德国_'
'带走_'
'小行星79'
'小行星69'
'将于'
'家族_'
'天文'
'夏_'
'基金会'
'園'
'国际法'
'周期'
'告_'
'变成了'
'去世_'
'厨房里'
'动作'
'到来_'
'到20'
'创造的'
'分发'
'出现了_'
'做过'
'倒_'
'你为什么'
'会很'
'他站在'
'他穿'
'主意'
'为他'
'不多_'
'一分'
'一个小时'
'экс'
'щин'
'шм'
'уйд'
'тельного_'
'сфер'
'сущност'
'странны'
'ством_'
'стандарт'
'советско'
'следовател'
'сак'
'робот'
'расследовани'
'раскр'
'пуст'
'прот'
'продукт'
'продви'
'представителей_'
'потянул'
'постанов'
'посп'
'политики_'
'подъе'
'пля'
'пев'
'пациент'
'охват'
'опр'
'онос'
'окончательно_'
'одни_'
'обе'
'научно'
'научил'
'наверняка_'
'мнение_'
'мировой_'
'меша'
'маск'
'маленьк'
'лома'
'лко'
'кругл'
'клиент'
'ию'
'ист'
'исполнени'
'интересны'
'ив'
'здорово_'
'дура'
'дна'
'действу'
'двигател'
'губернатор'
'главн'
'второго_'
'верн'
'вел'
'бой'
'Яма'
'Фильмы_'
'Соз'
'Прим'
'Прид'
'Жизнь_'
'Грин'
'Вест'
'Борис_'
'Бого'
'Анд'
'win'
'ovich_'
'kl'
'io_'
'fl'
'dic'
'cc'
'ber_'
'alia'
'XXI'
'Sin'
'Mos'
'LE'
'Georg'
'BE'
'Anton'
';;'
'2号'
'165'
'161'
'鼠_'
'鞠鞠_'
'青春'
'需要一'
'集结'
'阵'
'醒来时_'
'邱'
'道理'
'造成的_'
'进口'
'这间'
'这个问题'
'过他_'
'赫特'
'赫拉'
'质量_'
'認'
'設'
'觉得_'
'行李'
'脑袋'
'聪明'
'继承人'
'第8'
'站在一'
'矛'
'看不到'
'的全'
'的东西'
'现在却'
'猫头鹰'
'狭窄的'
'灰尘_'
'潜在'
'滑冰'
'海姆_'
'活力_'
'波夫'
'法的'
'汽车_'
'更强'
'星期日'
'文字'
'摇滚'
'摆脱了'
'报告了这一情况_'
'所述'
'我真的'
'戈夫'
'慈善'
'干净_'
'尿尿_'
'小行星55'
'小行星52'
'小行星50'
'对所'
'她只'
'奥列格'
'大地'
'大使_'
'地狱'
'在内的'
'在全'
'吹走_'
'向她'
'合唱团'
'卫星_'
'劫持'
'删除'
'出一'
'决心'
'再也不'
'何处'
'但现在_'
'传染'
'伊格'
'争执_'
'乌克兰的'
'不让'
'一边_'
'一致_'
'一些人'
'ым'
'штан'
'штаб'
'цент'
'фирм'
'устав'
'технологии_'
'тепло_'
'сверху_'
'руководство'
'рош'
'ровал'
'развива'
'психо'
'промо'
'продолжал'
'применя'
'постара'
'посмотри'
'попроси'
'понимани'
'пользоват'
'положени'
'плечо_'
'оци'
'отказыва'
'опер'
'опас'
'олю'
'одежду_'
'общество_'
'необходимости_'
'нарушени'
'намного_'
'ленны'
'катастроф'
'издани'
'зубы_'
'зде'
'заметила_'
'задо'
'жим'
'енн'
'дете'
'делали_'
'густ'
'внес'
'визит'
'взво'
'вве'
'близко_'
'ател'
'Уо'
'Приз'
'Первая_'
'Откр'
'Ответ'
'Од'
'Како'
'Игор'
'Джордж_'
'Дей'
'Виль'
'Велико'
'Велик'
'Авиа'
'tol'
'think_'
'tch'
'oli'
'nsk'
'kh'
'any_'
'That_'
'Nast'
'KI'
'94_'
'168'
'", -- _'
'面孔_'
'青蛙'
'隊'
'陷阱_'
'限于'
'防御'
'采取了'
'那天'
'逗'
'迪尔'
'这一点'
'起源'
'起床_'
'谢谢你'
'衡'
'艰苦'
'结论'
'经_'
'组合'
'纷'
'纯洁的'
'福特'
'福德'
'福尔'
'研究了'
'知道了_'
'目前_'
'的青'
'病毒_'
'理的'
'熟悉'
'然后回到'
'烈的'
'火车站'
'湖边'
'游泳_'
'涌'
'洗个澡_'
'法官_'
'毯子'
'木板'
'有色'
'智者'
'昏'
'日落'
'无聊'
'斧头'
'数千'
'收藏'
'揭'
'损_'
'批评_'
'托马斯_'
'想要的'
'惊喜'
'德雷'
'府_'
'帕特'
'帐篷_'
'布萊'
'布兰'
'岩石_'
'尔德'
'小行星53'
'孔_'
'奔'
'大楼_'
'基础设施'
'在某个'
'在内'
'圣经_'
'土著'
'吸引了'
'听不'
'印度_'
'刺穿_'
'列斯'
'凯瑟琳'
'凌'
'关闭_'
'免受'
'修道院_'
'信心'
'伊莎'
'予'
'丢弃'
'丝绸'
'ыка'
'штат'
'читал_'
'черн'
'целы'
'цами_'
'хал_'
'учитель'
'укреплени'
'удивл'
'топо'
'тихо'
'тил'
'стя'
'стрем'
'совет_'
'снег_'
'смертн'
'ржа'
'рейс'
'распр'
'пы_'
'путем_'
'прибор'
'превраща'
'поступил'
'попал_'
'пожела'
'подб'
'пласти'
'оцени'
'отношение_'
'ответить_'
'остров_'
'остро'
'оставил_'
'описа'
'ола_'
'мысля'
'мотив'
'монстр'
'многое_'
'мате'
'маз'
'ляю'
'кут'
'культуры_'
'крепко_'
'крас'
'кок'
'итал'
'использу'
'иль_'
'зов_'
'значительн'
'заре'
'закон_'
'загр'
'зава'
'жр'
'ерк'
'душн'
'добавил_'
'джи'
'дед_'
'глот'
'выход'
'вш'
'водител'
'взгляну'
'веков'
'вашего_'
'бала'
'Чет'
'Тю'
'Соло'
'Петербурга_'
'Паш'
'Пап'
'Молод'
'Зу'
'Азии_'
'where_'
'rad'
'rac'
'more_'
'ley'
'ila'
'ign'
'ein'
'chin'
'Ul'
'Star'
'KO'
'IT'
'1984年'
'1938_'
'171'
'쇋'
'鯛_'
'颗粒'
'阻止了'
'钻石'
'部门_'
'遜'
'进化'
'软弱_'
'身份_'
'谨慎'
'谁在'
'说得'
'认识的'
'誉'
'见到他'
'范_'
'艇'
'胡扯_'
'肚子'
'者都'
'细胞_'
'米格'
'简单地'
'立方'
'穷人'
'破裂'
'的压力'
'电台'
'环境中'
'玩具'
'版_'
'沟通_'
'格洛'
'星期三'
'数字_'
'教育的'
'撤出'
'指示_'
'拉尔'
'抓住他'
'打败'
'扎伊'
'我的心'
'我宁'
'我只是想'
'我再'
'弓'
'开玩笑的_'
'希望你'
'巴士_'
'州立'
'射击'
'对她的'
'宇宙的'
'學院_'
'委员会主席'
'天然气'
'塞克'
'塔斯'
'基夫'
'地震'
'在村'
'在思'
'在他的'
'在L'
'圈子'
'嘴里_'
'喜歡'
'哪些'
'命名'
'吵'
'后一'
'同胞'
'叛乱'
'卵'
'前夕_'
'公园_'
'充满活力的'
'修改'
'你像'
'伊凡_'
'他长'
'他以'
'乡'
'之外'
'为了避免'
'下列'
'一起去'
'一个女孩_'
'яющи'
'яко'
'юри'
'фра'
'фактор'
'уя'
'удивля'
'удержа'
'убил'
'тяжелы'
'това'
'теля_'
'столе_'
'стны'
'спальн'
'сотрудничеств'
'соответствующи'
'собрани'
'свидетельств'
'сбор'
'рди'
'пятн'
'пункт_'
'провести_'
'привлека'
'прев'
'полов'
'пив'
'песни_'
'пакет'
'офи'
'отметил_'
'осталась_'
'органов_'
'определени'
'объ'
'обратился_'
'нагл'
'мокр'
'могу'
'мне'
'мид'
'магнитудой_'
'лоп'
'летний_'
'куз'
'конкурс'
'комитет_'
'ковск'
'игра_'
'иальн'
'зжа'
'закат'
'жену_'
'еча'
'дение_'
'дай_'
'главы_'
'гг_'
'восп'
'вом_'
'внезапно_'
'бн'
'башн'
'английско'
'автомат'
'автобус'
'Франс'
'Сере'
'Сви'
'Некоторые_'
'Нака'
'Най'
'Мур'
'Дру'
'Дек'
'Волод'
'БЕ'
'zu'
'yar'
'wn'
'ure_'
'tai'
'nie'
'ht_'
'hl'
'gn'
'WA'
'Tor'
'Nikolai_'
'Galina'
'89_'
'... ..._'
') - _'
' ;_'
'鲍尔'
'靴子_'
'需求'
'阿米'
'錢'
'那我们'
'达到了'
'輕'
'路径'
'贴上'
'观看'
'表演'
'行的'
'蚀'
'老头'
'義大利'
'組'
'第八'
'真漂亮_'
'看到他'
'直升机'
'监狱_'
'的树'
'的权利_'
'的影'
'的女孩_'
'琪'
'灰尘'
'湾_'
'泰尔'
'残疾人'
'樣'
'校长_'
'染'
'果汁'
'日本_'
'捐助'
'挥舞着'
'拖延'
'抹去'
'找到_'
'我同意_'
'很大'
'当他们'
'左手'
'尸'
'尘埃'
'小行星63'
'小行星30'
'宮'
'娶'
'女神'
'奥克'
'地毯'
'在塔'
'圓'
'因为在'
'和社会'
'和文'
'听到的'
'卫_'
'升_'
'前被'
'制裁'
'利克'
'再来'
'儿童的'
'偷_'
'住院'
'休息_'
'他们自'
'主人的'
'中世纪'
'不是为了'
'不住'
'一遍'
'一本'
'янск'
'ялись_'
'эй_'
'чье'
'хл'
'хими'
'убеж'
'тяг'
'турнир'
'трудн'
'тка_'
'сторон'
'сск'
'сс_'
'сокр'
'служе'
'службе_'
'скажи_'
'селе'
'рок'
'рева'
'прого'
'преп'
'премия_'
'порази'
'полны'
'организова'
'опе'
'окс'
'неправ'
'нево'
'небольш'
'национальны'
'насил'
'наве'
'мом_'
'молитв'
'могил'
'луч'
'лишен'
'конф'
'конст'
'кист'
'казал'
'идут_'
'зная_'
'зит'
'здани'
'затра'
'женщину_'
'женат_'
'ерны'
'еду_'
'дист'
'делам_'
'горо'
'глу'
'вступи'
'видом_'
'ветк'
'верю_'
'больше'
'болот'
'беж'
'ань'
'Эм'
'Экс'
'Ут'
'Тар'
'Спе'
'Плат'
'Петер'
'Никола'
'Мус'
'Мои_'
'Команд'
'Им_'
'Зл'
'Жан'
'Джу'
'Всемирно'
'Вон'
'rat'
'ora'
'lev'
'cul'
']._'
'Ur'
'UR'
'Mel'
'117'
'115'
'．_'
'틩'
'默默'
'鳟'
'高的'
'食堂'
'陛下_'
'阿列克'
'阶级'
'那里的'
'那块'
'遭遇'
'造成的'
'起诉'
'谎'
'谋'
'误导'
'被认为是'
'蟲_'
'草原_'
'自20'
'翅'
'编制'
'绳子_'
'结_'
'維爾_'
'組織_'
'等级'
'科斯塔'
'社會'
'碎片_'
'破了_'
'知的'
'的政'
'瓦爾'
'牲畜'
'爱丽丝'
'激励'
'消失了_'
'欺骗'
'时刻'
'旨'
'无礼'
'无法理解'
'斯德'
'擅长'
'撞击'
'撑'
'描绘'
'指甲'
'指_'
'担'
'护照_'
'扭曲'
'手套'
'户_'
'或者是'
'我累'
'我忍不住_'
'我们从'
'意志'
'序_'
'年代_'
'工作很'
'屏'
'尼亞州_'
'小心_'
'密_'
'完成的'
'女巫'
'奏'
'头部'
'处决'
'域_'
'垂'
'在这种'
'在生'
'国外'
'和有'
'后面有'
'名誉'
'只小'
'厚厚'
'几秒'
'几乎无'
'冲破了'
'写的'
'先是'
'做到_'
'债'
'佩尔'
'似乎没有'
'传授'
'乌兹别克斯坦'
'上爬_'
'。 &_'
'ящик'
'эд'
'шек_'
'чке_'
'чество_'
'хе_'
'форм'
'фонар'
'финансовы'
'тивно'
'тельных_'
'тая_'
'стоп'
'см_'
'слов'
'сидеть_'
'рю'
'пустын'
'психологи'
'произнесла_'
'послуша'
'попал'
'подви'
'пишет_'
'пить_'
'перек'
'отвечал'
'одинок'
'ова'
'начально'
'настоящему_'
'наряд'
'направлен'
'намерен'
'миро'
'мене'
'ляет_'
'луш'
'лг'
'кома'
'количеств'
'колес'
'кнул_'
'кинул'
'картинк'
'каждом_'
'испытани'
'инь'
'интересо'
'инициатив'
'имост'
'зне'
'защитник'
'зале'
'зае'
'жде'
'дова'
'дад'
'гс'
'горизонт'
'года'
'гае'
'выт'
'вылет'
'впи'
'волн'
'бывал'
'бог'
'бно'
'бежал'
'аж_'
'Эст'
'Тебя_'
'Святого_'
'Сай'
'СС_'
'Поль'
'Ит'
'Зал'
'ЕК'
'Джек_'
'Дал'
'Ау'
'Апо'
'Американск'
'spi'
'spe'
'sk_'
'ric'
'ovsky'
'ovi'
'oma'
'ger_'
'erin'
'back_'
'Sl'
'RS'
'166'
'134'
'11月2'
'10月1'
',-_'
'黑暗中'
'馬拉'
'靴子'
'靠自己'
'阻挠'
'这并不'
'这就是我'
'过我'
'辈'
'話_'
'装_'
'藤_'
'菲律宾'
'至3'
'脱了_'
'翻翻'
'窝'
'确信_'
'睛_'
'看起来不'
'直觉'
'的那个'
'的进'
'的沉'
'的女儿_'
'留了'
'生态'
'猴'
'猩'
'灾'
'洁'
'沙拉_'
'段时间'
'梭'
'某'
'最强'
'撰写'
'搭档_'
'提琴'
'把门'
'打扫'
'或其他'
'我想知道'
'戏'
'愛爾蘭'
'尼夫卡_'
'尸体被'
'就像被'
'小麦_'
'对的_'
'实际上_'
'宜'
'威_'
'增长_'
'培'
'在石'
'在18'
'和同'
'吉普赛人'
'另外一'
'另一名'
'发现自己'
'即使在'
'前2'
'刑事诉讼_'
'出发_'
'几百'
'凝'
'决定不'
'写字_'
'关门了_'
'克拉斯诺'
'信任_'
'伊萨'
'他身上'
'他为'
'他不想'
'于200'
'也可'
'为什么他'
'不幸的'
'一无所知_'
'яков'
'я'
'ьи'
'шем'
'чив'
'человечества_'
'цат'
'угл'
'строг'
'стал'
'спе'
'скан'
'сидела_'
'сек'
'сделае'
'рско'
'режим'
'разрешени'
'приво'
'привез'
'прибыл'
'пособ'
'покупа'
'плечами_'
'пад'
'очно'
'один'
'овую_'
'нски'
'ног'
'никуда_'
'несу'
'нера'
'наполн'
'написано_'
'напе'
'называют_'
'назвать_'
'музык'
'миром_'
'любить_'
'лки_'
'кова_'
'ице_'
'загор'
'завер'
'жеств'
'еми'
'еле'
'дяд'
'гот'
'выходил'
'выража'
'вич'
'велики'
'вашем'
'бригад'
'бек'
'атри'
'апа'
'альной_'
'авиаци'
'Шар'
'УК_'
'Совет'
'СС'
'Павлов'
'Павл'
'ОТ'
'Ист'
'Иг'
'Земл'
'Зас'
'Женщина_'
'Генеральной_'
'Вор'
'Ваш'
'tal'
'person'
'nar'
'map_'
'lit'
'ion'
'GI'
'Chu'
'A3'
'1995年'
'黄色的'
'青年_'
'雾_'
'阿莱'
'闪电'
'针头'
'重要的是_'
'鄉'
'都没有_'
'近的'
'走来'
'贡献_'
'解释了'
'被逮捕'
'被砍'
'被拘留'
'被拆'
'被大'
'蜘蛛'
'英国_'
'花生'
'脊椎'
'聘'
'罕'
'綠'
'竹'
'碗'
'碑'
'眼前_'
'看起来像'
'的孩子'
'狂欢'
'滨'
'滑倒'
'波波'
'比亚'
'正在进行'
'桥上'
'标识'
'景色'
'斯捷潘'
'拦截'
'拒绝_'
'批准_'
'我明'
'我不明白'
'循环'
'待遇'
'弄坏了_'
'度假_'
'常见'
'布罗'
'尼的'
'小说_'
'尊严'
'导弹_'
'家里_'
'家伙_'
'定罪_'
'学到'
'如果我不'
'她笑了_'
'她向'
'大气'
'大多数人'
'多人'
'夏季奧林匹克運動會_'
'堡垒'
'坚果'
'在院子里'
'在该'
'在克里'
'圖_'
'国家和'
'四世_'
'喬治_'
'吻了'
'号的'
'又把'
'历史上'
'卧室'
'分别'
'决赛'
'冠军_'
'僵局_'
'俊'
'你喜欢'
'但与'
'以前曾'
'他的生'
'仓库'
'人道'
'交谈_'
'中国_'
'两人'
'两个月'
'上学'
'一座'
'一人'
'ьями_'
'ьз'
'шё'
'шк'
'чемпионов_'
'упра'
'узе'
'тирова'
'театр'
'сравни'
'слад'
'русских_'
'разг'
'раве'
'пусти'
'прошептал'
'приятел'
'попол'
'политическо'
'повест'
'пира'
'отличие_'
'осте'
'овы'
'обознач'
'обм'
'носил'
'мероприяти'
'магазин'
'лло'
'лка'
'лети'
'ламп'
'куш'
'кулак'
'кредит'
'команду'
'йской_'
'ичь'
'исследования_'
'ировал_'
'идеи_'
'здание_'
'зате'
'епе'
'еи'
'дочери_'
'днем_'
'дерево_'
'движ'
'выру'
'военных_'
'внутренне'
'видит_'
'ваю'
'ащи'
'альный_'
'ака'
'Южно'
'Хер'
'ТЬ_'
'Ром'
'Ричард_'
'Простите_'
'Отс'
'Остав'
'Общ'
'Минист'
'Кос'
'Каб'
'Дух'
'Дина'
'Дик'
'ДУ'
'Валентин'
'ult'
'tha'
'rol'
'ro_'
'ras'
'pon'
'pas'
'nes'
'jan'
'Victor_'
'UT'
'1944年'
'탐'
'點_'
'飞来'
'铃'
'这也'
'车间'
'跃_'
'谓'
'认知'
'视觉'
'被解'
'被烧焦'
'行事_'
'融入'
'蘑菇'
'范围内'
'花费'
'船员'
'致命的'
'致力于'
'脱掉_'
'胺'
'联合国安理会第1'
'经济学'
'约会'
'箱子'
'站在他'
'稀'
'科拉'
'真恶心_'
'的最后一'
'的丈夫'
'疲惫不堪_'
'甚'
'玫瑰_'
'玩了_'
'狐狸'
'然后朝'
'滑_'
'渗透到'
'消息来源'
'法国_'
'河水'
'没有发'
'没有你'
'殖'
'橱'
'梦中'
'最好是'
'明尼'
'旁边'
'效率'
'摸摸'
'摩尔多瓦'
'排名'
'我甚至'
'我想你'
'恶意'
'息_'
'应该是'
'年青'
'干的_'
'已经在'
'工程师'
'少女'
'宪法'
'宏'
'完整'
'学的'
'姐姐_'
'妈的_'
'她喜欢'
'失踪_'
'大家都很'
'复活_'
'埃爾'
'块的'
'喘'
'含义_'
'叫她'
'古老的'
'危机_'
'印度尼西亚'
'博格'
'削'
'利亞'
'分部'
'分手了_'
'击败'
'击中'
'冰川'
'内心深处'
'你不知道'
'佛罗'
'住他'
'伊里'
'代码_'
'代理'
'他走'
'他的眼神'
'他可以'
'什么都'
'些人'
'了不'
'丽_'
'不对'
'ённый_'
'ящи'
'юч'
'энергети'
'ьным_'
'шли'
'ческое_'
'хрон'
'ходил_'
'формы_'
'устроил'
'удивился_'
'туалет'
'тот'
'творчеств'
'срок_'
'сотрудни'
'смир'
'сидит_'
'сестра_'
'сайт'
'роста_'
'росл'
'результат_'
'реал'
'расстрел'
'расслаб'
'произой'
'проз'
'пришёл_'
'призна'
'пояс'
'полный_'
'позна'
'подст'
'поднять'
'плы'
'пит'
'од_'
'огромно'
'нского_'
'найде'
'надеюсь_'
'музыку_'
'мужско'
'муж'
'метро'
'лёт'
'листо'
'кать_'
'истов_'
'иску'
'интелл'
'заходи'
'запрет'
'закон'
'ента'
'емые_'
'дурак'
'дения_'
'выва'
'вато'
'богаты'
'аха'
'арен'
'Ч_'
'Франк'
'Флагификация_'
'Спо'
'Сок'
'СЛ'
'Рез'
'Лор'
'Лег'
'Земля_'
'Дер'
'ДИ'
'Генеральн'
'Вик'
'Вед'
'ВС'
'», — _'
'wr'
'some_'
'rt_'
'ović_'
'nik'
'kar'
'its_'
'fai'
'ez'
'des_'
'any'
'War'
'This_'
'Sil'
'Roman'
'Inter'
'How'
'175'
'152'
'122'
'10月2'
'-- '
'？ - _'
'龙虾'
'飞行员_'
'颏'
'预料'
'阿马'
'阿列克谢'
'这使'
'运作'
'跳了'
'記_'
'被遗弃'
'街上'
'药品'
'脖子上_'
'肆'
'索夫_'
'竞赛_'
'窗帘'
'离家'
'的职'
'的破'
'的无'
'的声'
'的城市'
'画廊'
'烧死_'
'满了'
'溶解'
'清晰'
'浪潮'
'流浪'
'洗澡_'
'波德'
'欢乐和'
'梦想着'
'来文'
'无形的'
'文明的'
'数百万'
'揚'
'挑起'
'抽出'
'我的手'
'成熟_'
'怖'
'復'
'很高兴_'
'很少有人'
'强制'
'引向'
'巴德'
'尽力'
'尘'
'将他的'
'宅'
'妻子和'
'妓女'
'妇_'
'女孩在'
'夫妇'
'垮_'
'址_'
'在火'
'在回'
'在冰'
'在R'
'哈特'
'召'
'创造的_'
'则被'
'分支'
'出版社'
'凌晨'
'冲洗'
'典型的'
'作出的'
'但是这'
'任何人都'
'他的声音'
'他们跑'
'他们必须'
'亚和'
'事的'
'世俗'
'不论'
'上空'
'万人'
'一段时间_'
'一个陌生人'
'шени'
'чж'
'четыр'
'хор'
'фур'
'флаг'
'умр'
'тя_'
'туш'
'террорист'
'ству_'
'станция_'
'сне_'
'склад'
'сить_'
'силов'
'рт_'
'рим'
'риг'
'распространени'
'рани'
'процесса_'
'прозрачн'
'прод'
'проведения_'
'премьер_'
'предприн'
'потерял'
'позволит'
'подъезд'
'поддержку_'
'поверну'
'плю'
'пери'
'перв'
'офис'
'отстав'
'основны'
'оны_'
'оказани'
'ог_'
'нтов_'
'немедленно_'
'музыка_'
'лер'
'ленн'
'коммунист'
'качеств'
'кал_'
'ичны'
'ителе'
'имо_'
'ийски'
'зря_'
'зон_'
'заде'
'етр'
'ежн'
'демонстр'
'вшиеся_'
'врач_'
'вик'
'ведомств'
'ваша_'
'Христ'
'Пого'
'Петров'
'Обо'
'Николаев'
'Милл'
'Максим_'
'Лондон'
'Интер'
'Екатерин'
'Вечер'
'Благодар'
'Атлант'
'Арсен'
'very_'
'ur_'
'tl'
'tes_'
'sar'
'not'
'las'
'iev'
'hom'
'Yo'
'Sans_'
'Pol'
'Pavel_'
'Ch'
'Bur'
'BB'
'1980年'
'137'
'116'
'院长'
'阿纳'
'阿基'
'门后'
'醒过来_'
'通用'
'这样才能'
'这儿_'
'踪'
'越来越多'
'购'
'负面'
'谢尔盖'
'谓_'
'诅咒'
'评价'
'西姆'
'蒙德'
'苍蝇'
'脸上_'
'背包'
'罐_'
'继续走'
'米歇'
'穆罕默德_'
'科学院'
'科夫的'
'礼_'
'看起来很'
'看看你'
'的风'
'的集'
'的铁'
'的社会'
'的每'
'的想法_'
'的床'
'白白'
'理查德_'
'王國_'
'爱国'
'然后回'
'海軍'
'每月'
'残杀_'
'橡皮'
'格兰'
'本质_'
'教会的'
'排_'
'择'
'抗议'
'托克'
'所需的'
'战场'
'我的朋友_'
'我深'
'患者'
'思维'
'德鲁'
'当作'
'度过了'
'床_'
'平衡_'
'巾_'
'就开始'
'导游'
'孩子们_'
'她睡'
'太好了_'
'多久_'
'垃圾桶'
'坚硬'
'在苏联'
'在他们'
'商人_'
'和美'
'周边'
'听不懂_'
'卢巴'
'匠_'
'勋'
'几乎被'
'其余的'
'兜'
'兄弟们'
'你跑'
'估计_'
'以及他'
'他确实'
'书籍_'
'不利'
'下落'
'ён'
'юно'
'щн'
'чей_'
'чатк'
'цов_'
'церковь_'
'хватил'
'характер_'
'удивление'
'убийц'
'тридцать_'
'тени_'
'сч'
'стов_'
'сообщени'
'смогла_'
'сельско'
'свадьб'
'род_'
'разл'
'радости_'
'придумал'
'поз'
'подал'
'повышени'
'первом_'
'отто'
'остат'
'оса_'
'одобр'
'обна'
'нечего_'
'недов'
'недалеко_'
'название_'
'мс'
'мощно'
'моч'
'мини'
'лина_'
'легки'
'кричал'
'красиво'
'коме'
'качества_'
'ищ'
'икон'
'икнул'
'известно'
'заяви'
'заниматься_'
'залив'
'забор'
'жизне'
'еров_'
'джер'
'дж_'
'деревн'
'дер_'
'груд'
'гал_'
'вье'
'выходит_'
'встрети'
'вперёд_'
'возн'
'внутренни'
'вари'
'бла'
'авил'
'авари'
'Цз'
'Тел'
'Сом'
'СВ'
'Российской_'
'Пс'
'Мужчина_'
'Зар'
'Григор'
'Види'
'Ангел'
'want_'
'und'
'tov'
'str'
'sia_'
'ian_'
'hor'
'hon'
'est_'
'ata_'
'ale'
'ad_'
'Pl'
'OO'
'Bul'
'Anna'
'162'
'138'
'108'
'!"'
' 	_'
'？'
'黑色_'
'鳞'
'鮑'
'骗了'
'驾驶舱'
'饮食'
'颠'
'顾问'
'阿卜杜'
'逐步'
'迪克'
'转变'
'跳到'
'赎'
'贝利'
'賴'
'谈话_'
'误会'
'诉讼_'
'苯'
'联合会'
'耶尔'
'美的'
'罪恶'
'纤'
'索菲亚'
'篮球'
'签署了'
'等你'
'神话'
'知道的'
'的重要'
'的灵魂_'
'王子_'
'犹太人的'
'漫画'
'没有必要'
'没有听'
'求你'
'毛发'
'步骤_'
'案件_'
'标_'
'有3'
'暴露了'
'暖和_'
'春天_'
'星期六_'
'摔'
'接近他'
'拖车'
'抵抗_'
'扎克'
'戒指_'
'我的灵魂'
'我吓坏了_'
'我发现'
'我们出'
'志_'
'德洛'
'影响的'
'当事'
'平原'
'岸边'
'尼奥'
'尖叫'
'小鬼'
'娱乐_'
'如同'
'她觉得'
'失望'
'多拉'
'墙上'
'在胸'
'图尔'
'回去'
'善良_'
'和N'
'可惜'
'可不'
'受了'
'印刷'
'利奥'
'几小时'
'冷漠_'
'兔'
'作战'
'从这个'
'了她_'
'也被'
'之家_'
'久的'
'为这'
'世界杯_'
'下班'
'一瞬间_'
'一直保持'
'ющи'
'юще'
'энт'
'шкаф'
'шам'
'члены_'
'читал'
'чисты'
'чев'
'хранит'
'философ'
'уде'
'уар'
'счёт'
'страха_'
'стр'
'ствие_'
'спа'
'слушать_'
'серы'
'сборной_'
'риц'
'реди'
'расшир'
'рали'
'развит'
'рабоче'
'пыта'
'пространства_'
'пригласил'
'послед'
'посла'
'поездк'
'подра'
'подп'
'писател'
'парт'
'охотник'
'отме'
'объявил'
'нге'
'напомни'
'нападени'
'набр'
'наби'
'наб'
'мягко'
'льной_'
'каль'
'ич'
'использовал'
'исл'
'заболевани'
'елей_'
'говоришь_'
'глубоко'
'гав'
'ворил'
'вок'
'возникл'
'ветер'
'альные_'
'алкогол'
'айс'
'ажи'
'Яков'
'Чёрн'
'Президент'
'Орден'
'Несколько_'
'Ирак'
'ИМ'
'ГИ'
'Аз'
'when_'
'thin'
'rid'
'oid'
'ise'
'gre'
'ala'
'Val'
'Pavl'
'Naz'
'NAT'
'IC'
'Hol'
'GO'
'Fin'
'DE'
'Cro'
'Bas'
'Bal'
'1978'
'1962'
'1945年'
'164'
'1000'
'''_'
'쮹'
'랢'
'鸡巴'
'骗子_'
'馬克'
'阔'
'闻到'
'门口_'
'钦佩'
'这些都是'
'还有两'
'软件_'
'走一'
'谴责'
'谨慎_'
'警卫_'
'视频_'
'被分'
'血流'
'虚构的'
'蔬菜'
'英雄的'
'羞辱'
'美人'
'结婚了_'
'纳赛'
'签证'
'穆拉'
'社交'
'知道她'
'的野'
'的结果_'
'的建议_'
'的发展'
'生理'
'瓦迪'
'照亮'
'热爱'
'烧伤_'
'炸弹'
'炉'
'浸'
'沉默的'
'池_'
'民族主义'
'每周'
'本应'
'木头_'
'朋友和'
'更重要'
'是那'
'是真'
'既没有'
'文的'
'搬到了'
'拍了'
'抗议_'
'手榴弹'
'我希望_'
'我们来'
'我之'
'我不相信'
'懂_'
'感激'
'意思'
'想象的'
'总部_'
'小行星71'
'将其'
'对我来说'
'寓'
'完整_'
'妄'
'失业'
'大主教'
'在酒'
'在下'
'国务'
'和V'
'同在_'
'只有两'
'受害人'
'压迫'
'卡西'
'化妆'
'劣'
'加入了'
'分隔'
'击败了'
'凯特'
'减轻'
'减少_'
'像小'
'但不能'
'伙计们_'
'他大'
'他冲'
'仇恨'
'亚人'
'为2'
'一时'
'японск'
'ял'
'эпи'
'экстр'
'ыд'
'ывающ'
'щи_'
'шение_'
'чка'
'чемпионат_'
'цей_'
'физическо'
'уши_'
'тишин'
'температур'
'стик'
'состав_'
'сопровожда'
'собеседник'
'скромн'
'сков'
'ситуацию_'
'рыж'
'руковод'
'розов'
'решени'
'рекоменд'
'поможет_'
'поми'
'показа'
'ощ'
'оу_'
'остры'
'остальн'
'онк'
'овс'
'общего_'
'обеспечить_'
'нравил'
'норма'
'небольшо'
'начальник_'
'нани'
'накры'
'лучший_'
'клон'
'иса'
'иков'
'идеал'
'игр'
'заполн'
'естественно_'
'душ_'
'дне'
'дил'
'дея'
'деф'
'гали'
'газо'
'войн'
'вани'
'борьб'
'агр'
'Эф'
'Экономи'
'Спа'
'Сант'
'Рей'
'Полити'
'ОН_'
'Многие_'
'Куп'
'Верн'
'Алла'
'Австралии_'
'xt'
'top'
'talk'
'sol'
'pres'
'men_'
'im_'
'hou'
'going_'
'dea'
'cel'
'ami'
'Robinson_'
'RI'
'Kl'
'ES'
'Comp'
'Boris'
'AG'
'1997年'
'199'
'1982'
'193'
'155'
'骄傲'
'马车'
'馮_'
'饥饿'
'面具_'
'雨_'
'雇用'
'阿利'
'阻'
'采购'
'这些小'
'负担'
'说这'
'诚实的'
'試'
'蔽_'
'菊_'
'舱_'
'脖子'
'耳边'
'罩'
'缴'
'第10'
'积极的'
'研讨会'
'瞄准'
'睡得'
'盤'
'的负'
'的好'
'的副'
'的冰'
'的人民'
'生长'
'琴科'
'球员'
'然后向'
'深思熟虑'
'浅'
'泛'
'法国人'
'没有时间'
'比利时'
'板上_'
'机组人员'
'星期四'
'明显_'
'昌'
'时尚'
'斯韦特兰'
'整体'
'打击_'
'我们把'
'恢复_'
'怪的'
'忽视_'
'彼'
'张贴'
'度假'
'并把'
'干燥_'
'干嘛_'
'帮派'
'師'
'层面'
'层楼'
'就快'
'小行星64'
'对此作了'
'害怕了_'
'客人_'
'学术'
'奢侈'
'天体'
'大块头'
'在长'
'在瓦'
'在本'
'圣诞'
'喉'
'和谐'
'后备'
'各方'
'史塔'
'句话'
'厕所'
'卢旺达'
'卡扎'
'南美'
'单位'
'军队的'
'内阁'
'偷了'
'做了什么_'
'侧面'
'佩_'
'你的朋友'
'佐_'
'伍德'
'仓库_'
'产_'
'亚历克斯_'
'二十世纪'
'丧生_'
'丑闻_'
'下跌_'
'上爬'
'一个神'
'ящий_'
'щё'
'частиц'
'хозяин_'
'употребл'
'укл'
'удоб'
'тряс'
'тру'
'тема'
'супер'
'суда_'
'стоящи'
'стекл'
'старик_'
'сом'
'сине'
'сент'
'рь'
'росси'
'роп'
'рон_'
'пытается_'
'проте'
'проспект'
'предупреди'
'представляет_'
'попытался_'
'пона'
'поддержк'
'повы'
'пари'
'охранник'
'оторва'
'отки'
'ничто'
'ненавист'
'мяч'
'люч'
'льная_'
'лип'
'критик'
'км_'
'километров_'
'кет'
'йск'
'испытыва'
'иня'
'земно'
'замети'
'забуд'
'жесто'
'женск'
'жат'
'енни'
'ейс'
'дум'
'дром'
'достал_'
'дост'
'дор_'
'девят'
'даю'
'выполня'
'вызыва'
'вопроса_'
'воздуха_'
'водк'
'ваше_'
'аяся_'
'Уби'
'Тат'
'Спас'
'Свет'
'СТВ'
'Нач'
'Нат'
'Мес'
'Ля'
'Запад'
'Дмитри'
'Джон'
'Джер'
'Вскоре_'
'via'
'rk'
'pl'
'only_'
'nen'
'nec'
'mi_'
'hm'
'ang'
'aka'
'Zenit'
'Yakov'
'Tat'
'Rai'
'Pre'
'Not'
'Ger'
'93_'
'800_'
'1976年'
'129'
'114'
'103'
'101_'
'))'
'骨折_'
'额外'
'非常有'
'郡'
'那边'
'这条'
'跟我说'
'负责任'
'貌_'
'谢尔盖耶维奇'
'触碰'
'行政区划_'
'莫伊'
'苏格兰'
'至201'
'脑部'
'联合王国'
'经费'
'篇_'
'简而言之_'
'突然突然_'
'知名'
'看著'
'的道路_'
'的调'
'的标'
'的地方'
'的命运'
'的会'
'痕_'
'疯狂'
'疗'
'玛莎'
'然后走'
'滥用'
'没有生'
'没人_'
'毯'
'棚'
'核实'
'架_'
'松鼠'
'服务员'
'更新'
'暴乱'
'是合'
'昭'
'时被'
'无法想象'
'旋转'
'撤离'
'拯救了'
'拆除'
'所有东西都'
'我发现_'
'惑_'
'怎么回事_'
'得知_'
'弗莱'
'弗兰'
'应_'
'庄园'
'平稳'
'小丑_'
'委会'
'姓名_'
'妳'
'她问'
'大国'
'在黑'
'在2'
'困难'
'喷洒'
'和非'
'吸烟'
'向_'
'吉爾'
'合伙人'
'变革'
'发达国家'
'发现一'
'去吧_'
'博物館_'
'劫'
'动起来_'
'劍'
'凶手'
'决策'
'催眠'
'使命_'
'你跟'
'你说得对_'
'你最好'
'似乎很'
'他妈'
'他们已'
'他仍然'
'他今'
'从早上'
'人中'
'人不'
'主管'
'中所'
'下车_'
'一个巨大的'
'ьк'
'шевел'
'холодно'
'услуг_'
'уменьш'
'ток_'
'технически'
'темны'
'сё'
'страна_'
'состоит_'
'скре'
'рубашк'
'ресурсов_'
'реализ'
'расти'
'пто'
'пт'
'пройд'
'произоше'
'придума'
'предк'
'прав'
'показал_'
'плит'
'пита'
'отц'
'отсутстви'
'отел'
'орма'
'общей_'
'обер'
'научны'
'наук_'
'называл'
'мину'
'меньш'
'лять_'
'лук'
'крепост'
'края_'
'конн'
'колони'
'колени_'
'кен'
'йка_'
'ическ'
'исчезл'
'ирует_'
'ировк'
'имели_'
'иди_'
'знаменит'
'живой_'
'другая_'
'документ'
'династи'
'гне'
'герцог'
'вшихся_'
'вский_'
'вершин'
'будущего_'
'бойц'
'бесконечно'
'аэропорт'
'ац'
'анк'
'Фри'
'Сей'
'Республик'
'Реа'
'Помни'
'Полу'
'Олив'
'Ль'
'ЛЮ'
'Косм'
'Карло'
'Йорк'
'Завтра_'
'Ел'
'Древн'
'Дам'
'Вселенной_'
'Август'
' '
'ver_'
'ure'
'sse'
'people_'
'ms'
'mme'
'los'
'ira'
'ess_'
'ces'
'can'
'Nikola'
'Martin'
'Maria'
'Ind'
'IO'
'Cam'
'Alla'
'Ala'
'1970年'
'1934'
'192'
'1912'
'163'
'135'
'***'
'鹰_'
'鲁斯'
'靜'
'露天'
'雄_'
'随身'
'鐵路_'
'里亚_'
'邵'
'那样的'
'這樣'
'逆转'
'违背'
'这完全'
'跪下'
'跑来跑去_'
'贝尔_'
'诞生_'
'該'
'观念'
'裔_'
'蟿'
'蒂安'
'荷_'
'茎'
'芳'
'臭_'
'能的'
'羅德'
'缺_'
'经理_'
'精灵'
'神庙'
'眼神_'
'盯着他'
'的正'
'的来'
'的方式_'
'的开'
'的反'
'猜到'
'物种'
'爱情的'
'浴缸'
'流血_'
'活着的'
'没有理由'
'气体'
'毁灭_'
'李_'
'最后一次'
'显然不'
'无视'
'无法控制'
'施加'
'搞定'
'掩护'
'指标'
'拿走了_'
'把自己'
'我坐在'
'我们回顾_'
'我以为_'
'慈'
'忆'
'很悲'
'弥补'
'弥'
'帝_'
'布利'
'届奥运会_'
'局的'
'小屋_'
'寺庙_'
'安静'
'安宁'
'学院奖'
'学者'
'她已'
'奥拉'
'失去知觉_'
'夜里'
'外围'
'声响'
'塞尔_'
'城镇'
'埃尔_'
'在附近_'
'在深'
'在未'
'在军'
'圆柱'
'图片'
'囚犯_'
'哈利'
'命运的'
'听说过'
'受益'
'发型_'
'原因是'
'厅里'
'化学_'
'勇气'
'动力'
'刷_'
'制作了'
'准备了'
'克人'
'兆'
'停下来_'
'假期'
'例子'
'你知道的_'
'你是我'
'你明'
'但看'
'伊斯兰教'
'他们总是'
'他们从'
'仓'
'仍然是'
'之内'
'中尉'
'中午'
'专业人'
'яп'
'явил'
'эти'
'щу'
'щими_'
'шни'
'школ'
'чная_'
'центра_'
'христиан'
'ург'
'умер'
'указа'
'убл'
'тье'
'тул'
'твоих_'
'считаю_'
'спортивн'
'спец'
'спасени'
'социально'
'сознани'
'смущ'
'смут'
'сложны'
'скоро'
'раско'
'пусты'
'привести_'
'поселение_'
'польск'
'печальн'
'отт'
'оставалось_'
'обстановк'
'образование_'
'нта'
'ночно'
'новая_'
'непре'
'необходимо'
'ндо'
'народ'
'мотре'
'московск'
'мороз'
'многочисленны'
'милы'
'металл'
'манд'
'лс'
'логии_'
'лекарств'
'ктор'
'круго'
'край_'
'корми'
'класса_'
'кани'
'иров'
'инн'
'ивает_'
'зирова'
'замуж_'
'живот'
'етк'
'долл_'
'гнут'
'гать_'
'воспоминани'
'внутрь_'
'видим_'
'борьбы_'
'бое'
'белый_'
'анто'
'ае'
'Чемпионат'
'Стрел'
'Продолж'
'План'
'Петербурге_'
'Одно'
'Нико'
'Музыка'
'Макс_'
'Летние_'
'Кок'
'Иль'
'Ил'
'Един'
'Благо'
'yah'
'tom'
'set'
'ose'
'ore'
'now_'
'hov'
'good_'
'ever_'
'Sto'
'Ly'
'IR'
'CE'
'1932'
'1928'
'118'
'麥克'
'顾问_'
'顺序'
'霸'
'随着时间的推移_'
'门户'
'部长_'
'選舉_'
'遗弃'
'载有'
'足球賽'
'超級'
'财'
'谷仓'
'说了'
'该市'
'袋子_'
'莫里'
'自己的生'
'臣_'
'腕'
'腊'
'聲'
'義_'
'美味的'
'维持和平'
'维塔'
'米斯'
'第9'
'秘书'
'眼睁睁睁'
'看不见_'
'的目标'
'的理'
'的平'
'的可'
'的出'
'的任务'
'瘾'
'疲劳'
'留_'
'瓣'
'狼人_'
'特别报告员'
'照顾_'
'照明'
'烷'
'深深'
'活的'
'氏_'
'毫无疑问_'
'毛巾_'
'母亲和'
'欧洲联盟'
'欣慰_'
'棒的'
'根源'
'机关'
'有某种'
'月2'
'最有'
'更容易'
'是新'
'族人'
'教宗'
'握手_'
'我毫不'
'我就是'
'我做'
'我们看到'
'我们大家都'
'戏_'
'感觉很'
'惊吓'
'惊叹'
'思维_'
'德语'
'并向'
'年份'
'布朗'
'届奥斯卡'
'少年'
'小行星62'
'容_'
'害羞_'
'完美_'
'孟'
'如果有人'
'如果有'
'太过'
'大象'
'大会第'
'外交_'
'在走廊'
'在背'
'国立'
'因此他'
'和马'
'和他们'
'和T'
'告诉他们'
'发誓_'
'反射'
'十六'
'势力'
'分钟后_'
'写的_'
'关门_'
'关注_'
'克里斯托'
'先锋'
'傻瓜_'
'做饭_'
'依靠'
'但总'
'任何_'
'他试图'
'他完全'
'他又'
'他再次'
'他们没'
'人被'
'习俗'
'乌克兰_'
'为基础'
'中毒'
'下来'
'上说_'
'上看'
'三个_'
'ящим'
'чёрно'
'чудесн'
'чувств'
'чес'
'хватало_'
'учреждения'
'умент'
'уб'
'трое_'
'точно'
'тм'
'течени'
'существова'
'способно'
'специ'
'сопро'
'солнечны'
'созна'
'соедин'
'рыцар'
'родителям'
'разуме'
'разоб'
'путешестви'
'профессиональн'
'пространстве_'
'произве'
'прои'
'прич'
'похи'
'попытк'
'понимать_'
'положения_'
'поддержки_'
'плох'
'переве'
'пара_'
'отправился_'
'опол'
'обход'
'обстоятельства'
'обсл'
'нник'
'неки'
'небольши'
'мяс'
'морд'
'мнени'
'мирно'
'мино'
'миллион'
'милици'
'мерно'
'материально'
'масса'
'лучш'
'кры'
'короля_'
'кля'
'кер_'
'искр'
'инский_'
'изб'
'зая'
'засмеял'
'заработа'
'законы_'
'загля'
'железнодорожн'
'жден'
'еск'
'енник'
'дж'
'держит'
'держал'
'действующ'
'дд'
'двор_'
'годам_'
'видишь_'
'большого_'
'большинств'
'больны'
'бледн'
'бани'
'ански'
'Южн'
'Смотр'
'Рэ'
'РУ'
'Программ'
'Почти_'
'Оста'
'Нидерланд'
'Нео'
'Кажется_'
'КС'
'Израил'
'ЕД'
'Город'
'wer_'
'stor'
'rea'
'phy'
'ok_'
'ler'
'ind'
'far'
'dge'
'ant_'
'ae_'
'ada'
'Por'
'Pen'
'Mc'
'Kor'
'Gol'
'Fed'
'1989年'
'1919'
'15年'
'153'
'128'
'马利'
'阴谋_'
'银色的'
'遭'
'逻辑_'
'通报'
'运作_'
'越好_'
'貓'
'读书'
'证实'
'被吸'
'蚁'
'華_'
'莓'
'茄'
'范围_'
'航班'
'臀部'
'脸朝'
'联合国安理会第'
'而无'
'维罗妮卡'
'绳子'
'童年_'
'竟然'
'穿_'
'祭司'
'祖父_'
'砾'
'知情'
'的非'
'的活动'
'的方法_'
'的情况下'
'的性'
'瑪麗'
'爱是'
'然后跑'
'焰'
'涅茨'
'每次都'
'正确地'
'欧洲_'
'桌子上_'
'栅栏'
'杭'
'服役'
'有这'
'搞笑_'
'捆绑'
'抓到'
'抑制'
'我感觉'
'我们今'
'態'
'忽视'
'快乐'
'志愿'
'忍受_'
'张开'
'弗罗'
'废除'
'店铺'
'工作者'
'展览'
'屏幕'
'就是我'
'就像是'
'富有的'
'密封'
'实践'
'季节'
'姑'
'如你所'
'她肯定'
'她感'
'奥斯卡'
'坪'
'地面_'
'地质'
'在睡'
'在世界'
'在3'
'土耳其_'
'国际公'
'团体_'
'可能被'
'卡米'
'卑鄙的'
'卑'
'半数'
'刊_'
'准备好了_'
'军的'
'内裤'
'共同的'
'克西'
'元素'
'你这个混蛋_'
'但自'
'伟大_'
'会引'
'会受到'
'伊利亚'
'他将'
'他叫'
'今'
'什金'
'严厉'
'两侧'
'不远'
'不止'
'不少'
'一个漂亮的'
'ёс_'
'ьевич_'
'ыша'
'учены'
'успела_'
'уно'
'уле'
'убежден'
'турист'
'теори'
'танн'
'схват'
'стк'
'старши'
'списк'
'солнца_'
'скаж'
'семей'
'связанн'
'сверх'
'рич'
'развод'
'работала_'
'проник'
'предст'
'покинул'
'повод'
'падени'
'организаций_'
'оказывается_'
'огор'
'ога'
'ование_'
'обле'
'обиж'
'оа'
'носит'
'неприятно'
'нди'
'насе'
'мол_'
'мов_'
'мною_'
'мала'
'кровать_'
'контролир'
'конечн'
'климат'
'кир'
'кафе_'
'като'
'камне'
'инди'
'ивал'
'зор'
'зли'
'звани'
'заслу'
'зарплат'
'зара'
'ждение_'
'гун'
'глад'
'герои'
'генерал'
'гала'
'выше'
'выш'
'вын'
'волну'
'вероятно_'
'вай'
'богат'
'бабушка_'
'але_'
'Шл'
'Чарл'
'Томас_'
'Тв'
'Смол'
'Следу'
'Сау'
'Пала'
'Мартин_'
'Любовь_'
'Лав'
'Кел'
'Вов'
'Вместе_'
'Вет'
'Аки'
'АТ'
'then_'
'rus_'
'ond'
'nta'
'ndr'
'how_'
'cr'
'Nov'
'Fer'
'F1'
'Dis'
'Dian'
'Artem'
'AA'
'30日_'
'139'
'113'
'0万'
'쓪'
'黑海'
'面具'
'阶'
'采矿'
'迪亚_'
'远远'
'这样做'
'这不仅'
'还有许多'
'辯'
'车厢_'
'跌倒'
'贱人_'
'谓伪'
'诺维奇'
'西卡'
'袭击了'
'被冲破_'
'菲利普'
'莫夫'
'花园里'
'自己做'
'腐'
'绝对不'
'穗'
'秋季'
'礼貌_'
'的精神'
'的精'
'的法'
'的时刻_'
'的方向'
'的布'
'的一名'
'留给'
'电筒_'
'生下'
'犯下'
'烏斯'
'淹死_'
'浴室'
'没什么_'
'比你'
'次会议'
'業_'
'枝_'
'最好的_'
'書_'
'是这样'
'无知'
'旅行者'
'旁_'
'摩斯'
'排球'
'拿出'
'我说的'
'我要去'
'我的腿'
'我们很'
'我亲'
'感兴趣'
'得更'
'很幸'
'很奇怪_'
'录音'
'开火_'
'床上'
'幼儿'
'帕克'
'帐篷'
'工艺'
'居住的'
'对象'
'夺走'
'夕'
'墓地_'
'城里'
'坑_'
'在附近'
'在过去'
'在窗户'
'在不'
'国防'
'因为没有'
'和信'
'员额'
'吉普'
'变成_'
'发表了'
'发射器'
'原地_'
'卢布的'
'凉'
'况_'
'冬季奥林匹克运动会'
'你們'
'作者_'
'作出反应_'
'他的名字'
'他父亲'
'从小'
'从他'
'今早'
'今天的'
'亵渎'
'书记'
'乐观'
'之子_'
'与我们'
'上诉'
'上打'
'三个月'
'一部'
'一生中'
'ящие_'
'являл'
'ющихся_'
'эст'
'эльф'
'ываю'
'чного_'
'царь_'
'хом_'
'хла'
'учиться_'
'учебн'
'умно'
'укры'
'тельност'
'страшны'
'соседне'
'слове'
'сла'
'скам'
'сив'
'сж'
'рны'
'рник'
'рная_'
'распредел'
'разбит'
'пуль'
'прошла_'
'принимать_'
'приготов'
'правил'
'поу'
'положительн'
'подарок_'
'подари'
'плотно'
'планирова'
'парад'
'оставил'
'основа'
'оско'
'олн'
'ованны'
'нян'
'ньк'
'нтн'
'ницы_'
'мусор'
'мей'
'ловк'
'кси'
'крайн'
'королевств'
'колхоз'
'класс'
'камень_'
'ити_'
'ирования_'
'интереса'
'запу'
'живет_'
'ерб'
'дополнительны'
'детстве_'
'дерева_'
'дедушк'
'гене'
'гвард'
'встав'
'вовремя_'
'вени'
'вати'
'бумаг'
'болезни_'
'бова'
'атор_'
'анта'
'альт'
'Хорош'
'Фин'
'Тен'
'Советско'
'Сов'
'Сем'
'Роз'
'Расска'
'Поня'
'ПУ'
'Оль'
'Международн'
'Корол'
'Кари'
'Интересно_'
'Елена_'
'Европе_'
'Германи'
'Вай'
'Библи'
'vir'
'star'
'sov'
'rom'
'read'
'pic'
'net'
'les'
'ks_'
'iy'
'could_'
'TO'
'She_'
'Mr_'
'Kh'
'IP'
'Hel'
'Ex'
'Denis'
'Daniel'
'Br'
'127'
'126'
'121'
'....'
')：_'
'),'
' - '
'黄色'
'鸦'
'频率'
'靼'
'面临的'
'阿瑟'
'门廊'
'追着'
'这里很'
'躲在'
'身边'
'贵族_'
'诈'
'许诺'
'西南'
'蔓延_'
'蒂耶'
'蒂尔'
'落后'
'而受'
'细微的'
'约为'
'索洛'
'粒子'
'米拉_'
'筹备'
'立_'
'科夫斯基_'
'示威'
'矮人'
'的道路'
'的红'
'的热'
'的旅'
'的国家_'
'的代表'
'疏'
'电视台'
'用双手'
'生效'
'玫瑰'
'玛丽亚'
'牛奶'
'熟人'
'点的'
'激烈_'
'温柔'
'清楚地'
'注意力'
'泉_'
'没有受'
'永生_'
'水里'
'欢呼_'
'楼上'
'树林_'
'树木_'
'栋房子'
'板上'
'有多么'
'有人把'
'更高'
'是对'
'时间不多'
'旧_'
'政权_'
'放弃了'
'放下'
'探望'
'拉脱维亚'
'抵制'
'打破了'
'所以她'
'房屋_'
'房东'
'我睡'
'我找到了'
'我很高兴'
'悔'
'总结'
'德的'
'征_'
'异常'
'寻常'
'安排_'
'它会'
'子女_'
'夸大'
'失败了_'
'天亮'
'天上'
'处境'
'埃拉'
'在沙'
'在乌克兰'
'在G'
'和天'
'吧'
'各个'
'台湾'
'双层'
'加拿大_'
'判决'
'册'
'其他地'
'兄弟的'
'僵尸'
'像以前'
'使人们'
'住在那里_'
'传说'
'会发生什么'
'以防'
'付款'
'他說'
'他没有'
'他比'
'他抓住了'
'他感'
'他不知道'
'不是所有'
'不应该'
'上床'
'ёрн'
'янул'
'ьниц'
'шле'
'хирург'
'фри'
'уста'
'услыша'
'упре'
'ульс'
'удовлетвор'
'ток'
'тно_'
'тил_'
'тельным_'
'тельная_'
'тайн'
'судьба_'
'стви'
'ссылк'
'срочн'
'создан'
'созв'
'следстви'
'ско_'
'секрет'
'рхи'
'родной_'
'рван'
'рассказывал_'
'размеро'
'развед'
'профессор_'
'пришло_'
'принц'
'приложени'
'прекрасно'
'подда'
'отсутствие_'
'останется_'
'орн'
'онного_'
'оду'
'огу'
'обернул'
'нья'
'неп'
'нд_'
'наруши'
'напа'
'наличи'
'мэ'
'мос'
'моем_'
'мери'
'мальчишк'
'мальчика_'
'крестьян_'
'контракт'
'комб'
'коллег'
'классн'
'канск'
'ирн'
'изобрет'
'извини'
'ивае'
'замен'
'зали'
'енном_'
'ейско'
'доро'
'доказа'
'дог'
'директор_'
'детства_'
'десят'
'дар_'
'выпр'
'вшегося_'
'встретить'
'вспомни'
'вро'
'впечатл'
'войска_'
'водн'
'видео_'
'вещ'
'бро'
'арно'
'апр'
'ане_'
'адыва'
'Фре'
'Форм'
'Филипп'
'Стран'
'СУ'
'Расп'
'Подр'
'Парк'
'Оле'
'Одна_'
'Мот'
'Може'
'Мест'
'Люби'
'Калифорни'
'ИК'
'Евро'
'Джи'
'ДН'
'Ву'
'Ват'
'БУ'
'Арми'
'Академи'
'ute'
'rm'
'ram'
'ni_'
'my'
'low'
'lo_'
'into_'
'era_'
'eno'
'dom'
'able_'
'\u_'
'Un'
'Serge'
'Rub'
'RIA_'
'Nat'
'Jar'
'Et'
'ET'
'EC'
'Ast'
'3号'
'1984_'
'1921'
' /'
'ꆢ'
'高山'
'马克思'
'首脑会议'
'音乐会_'
'隐藏着'
'阿曼'
'错过'
'锅炉'
'錯'
'里面有'
'释放了'
'都不知道_'
'遗忘_'
'还有一个'
'農'
'辆车'
'越来越大_'
'谣言'
'诺夫斯基'
'请你'
'讲话'
'解散'
'观_'
'行使'
'蠢_'
'蛋白'
'萨斯'
'良好的'
'能在'
'罪行'
'粪'
'箱里'
'第11'
'第0'
'秒_'
'科里'
'眼光'
'的智'
'的尸体_'
'的妇女'
'的交'
'的一些'
'爪子'
'燕'
'然后一'
'炎_'
'湖泊_'
'深刻的'
'注明'
'沙发_'
'永远不'
'橙色'
'棕色的'
'梯子'
'未经'
'望着'
'有声'
'有一位'
'暴力_'
'普莱'
'显而易见'
'星期一'
'时的'
'於'
'改造'
'指挥_'
'持有'
'拉德'
'扑'
'我学'
'我保证'
'我们认为'
'我不知道你'
'我不懂_'
'戈登'
'感到困惑_'
'快到'
'忧'
'循环_'
'很紧_'
'很不'
'当地的'
'当_'
'弱的'
'式的'
'开始思考'
'并提'
'幫'
'崩溃'
'屋子'
'就像我'
'导师'
'寺庙'
'审查_'
'安心_'
'存_'
'头晕_'
'夫和'
'天的'
'大眼'
'夢'
'多少_'
'地图_'
'在空气中'
'在二'
'善意'
'和K'
'吸_'
'同情_'
'发生的事'
'反映了'
'参与者'
'劳_'
'动力_'
'制订'
'几内亚'
'冬奥会_'
'其他_'
'共有'
'傢伙'
'停车场'
'停车'
'仿'
'以及在'
'他手'
'他失'
'亲王的'
'争议'
'书中'
'举起'
'两小时'
'世界盃'
'万一'
'一周'
'一个穿'
'яка_'
'яем'
'явлени'
'юнош'
'ъя'
'шага'
'чёрт'
'чере'
'ходу_'
'финанс'
'уры_'
'угрожа'
'углу_'
'увидев_'
'тян'
'трус'
'такт'
'суть_'
'ствую'
'статус'
'спросить_'
'случайн'
'сильно'
'серди'
'рочн'
'рить_'
'редко_'
'рда'
'рва'
'расст'
'раздался_'
'пыталась_'
'публик'
'приходится_'
'позо'
'плач'
'плане_'
'письма_'
'оу'
'открыт'
'отдела_'
'определенны'
'ология_'
'окружающи'
'одни'
'нят'
'ником_'
'неиз'
'находятся_'
'направленн'
'найд'
'навстречу_'
'муч'
'мера'
'люс'
'лоб'
'лежал_'
'кухню_'
'кот_'
'конкретны'
'клин'
'касс'
'имее'
'звук'
'запо'
'ерн'
'дыхание_'
'доступн'
'дил_'
'деревьев_'
'движени'
'дан_'
'грубо'
'горя'
'голубо'
'выта'
'вызва'
'вопросу_'
'воль'
'возьм'
'валась_'
'бред'
'бо'
'бай'
'атори'
'ард_'
'анна'
'активи'
'Юго'
'ХО'
'Теор'
'Смотри_'
'Разум'
'Правил'
'Орл'
'Международный_'
'Император'
'Джек'
'Брю'
'Антон_'
'Александр'
'you'
'sor'
'port'
'ovich'
'ny_'
'ken'
'gy'
'cri'
'ane'
']。_'
'SO'
'Russian_'
'Gro'
'Dmitri'
'Christ'
'Bre'
'Bat'
'?"_'
'</_'
'196'
'1904'
'158'
'107'
'.: _'
'－ _'
'鳥'
'驳'
'颂'
'電腦'
'雕塑'
'集会_'
'阿纳托利'
'阿巴'
'阶梯'
'阴暗'
'邻居_'
'那裡'
'那天晚上'
'那一'
'遵循'
'通过了'
'送进'
'迷失'
'这位女'
'还记得'
'辈子'
'路程'
'走下'
'赢得了'
'赌博'
'识字'
'规范'
'观察_'
'要么是'
'被毁'
'被任命为'
'衷'
'表格'
'艾德'
'腿上'
'背_'
'肯尼'
'翻译_'
'罚款_'
'编造'
'纳克'
'精神的'
'米哈伊洛'
'米兰'
'砍了'
'目标是'
'皮耶'
'的骨'
'的起'
'的说法'
'的房间_'
'的悲'
'的圆'
'百分之'
'灭绝'
'火柴_'
'游艇'
'波兰人'
'法院_'
'法案'
'没有问题_'
'没了'
'毫无意义的'
'殴打_'
'此类'
'横'
'样子_'
'杯子'
'来访者'
'新加坡'
'斗争'
'敏感_'
'换衣服_'
'指数'
'把电'
'找找'
'我的脸'
'我生'
'我希望你'
'我以前'
'意志_'
'总裁'
'很害怕_'
'当成'
'当前'
'开始了_'
'建筑物'
'废弃'
'小鸟'
'委员会第'
'她与'
'基亚'
'坟墓'
'地注'
'國際機場_'
'图书馆_'
'和G'
'呈'
'名义'
'口气'
'发生了一'
'卡迪'
'动摇_'
'加勒比'
'劇_'
'前线_'
'几乎不'
'准确'
'僧侣'
'偏见_'
'使用了'
'体重'
'但突然_'
'伯恩'
'会发生'
'伊万诺维奇'
'他们之'
'亲吻_'
'享'
'亚历克斯'
'个国家'
'两周'
'不爱'
'不够'
'不信任'
'不仅仅是'
'一边'
'一切都是'
'一分钟'
'一个月_'
'яв_'
'эксперт'
'ьное_'
'ыз'
'чал_'
'цари'
'фект'
'ушел_'
'участв'
'утк'
'устало'
'улов'
'украшен'
'ужин'
'уезжа'
'тус'
'тонки'
'тип'
'тинг'
'существующ'
'страдани'
'споко'
'сосредоточ'
'сооружения_'
'секунд'
'секретарь_'
'сво'
'рирова'
'реше'
'разным'
'работ_'
'просве'
'произнёс_'
'произведени'
'прое'
'приходит_'
'прито'
'представ'
'послу'
'портрет'
'подходит_'
'пау'
'оты'
'отно'
'отказ'
'определенно'
'оправда'
'озно'
'обла'
'нулась_'
'ностью_'
'нок_'
'мст'
'мощ'
'мме'
'масл'
'любов'
'лья'
'корабль_'
'конь'
'коммун'
'комисси'
'карьер'
'каждым_'
'йдя_'
'исчезн'
'исти'
'ильн'
'звуки_'
'залож'
'заго'
'еща'
'древ'
'гч'
'гостин'
'вторая_'
'вступ'
'волос_'
'влюб'
'верил'
'бутылк'
'бры'
'бок_'
'американско'
'ажд'
'адрес'
'адк'
'авлен'
'Юл'
'Центр'
'Хам'
'Хал'
'Три_'
'Сул'
'Пла'
'Опять_'
'Окс'
'Нэ'
'Конвенции_'
'Ес'
'Гус'
'Ворон'
'Вера_'
'Большо'
'Аст'
'Ами'
'tim'
'ril'
'mel'
'kk'
'ite'
'hk'
'gal'
'fra'
'NI'
'Location_'
'Kur'
'Cit'
'1966'
'1931'
'174'
'!!_'
' :'
'： &_'
'默默默'
'高峰'
'马什'
'首领'
'颊'
'非正式'
'难道'
'阿森'
'铲子'
'钻石_'
'配_'
'邪恶_'
'那是什么_'
'那将是'
'这首'
'这个城市'
'运送'
'跟她'
'账'
'让那些'
'訊'
'西尔'
'被遗忘_'
'萝'
'荣耀_'
'艾琳娜'
'舞会'
'罗莎'
'终生'
'籍_'
'签名'
'第三_'
'笛'
'窃'
'空洞的'
'秘书_'
'神秘_'
'知道这'
'睡觉'
'的谈话'
'的肉'
'的管'
'的灵魂'
'的消息'
'的到来_'
'男人在'
'琌'
'珠宝'
'玛莉'
'火山'
'港口'
'浮游'
'沮丧_'
'没收'
'沟'
'沙龙'
'比斯'
'梅利'
'桥梁_'
'本书'
'服役_'
'有用的'
'有强'
'无能为力_'
'斯瓦'
'放了'
'接收'
'挖_'
'报告称_'
'扎哈'
'我立刻'
'成年人'
'懷'
'总理_'
'心脏病'
'德斯_'
'彼得罗维奇'
'幸运的是_'
'帮助她'
'帮助他'
'屈服_'
'就好'
'富有'
'实验室_'
'守护者'
'子里'
'娜塔莎'
'女巫_'
'多样性'
'增强'
'地看'
'在第一'
'在桌子上'
'在床上'
'在家'
'在于'
'唐_'
'和实'
'和发展'
'告知'
'向我们'
'去你'
'厘米_'
'印象'
'剩余'
'到地'
'别再'
'分离'
'公寓里'
'你所'
'但可'
'但到'
'但事实'
'但也'
'伤害你'
'伤害他'
'仲裁'
'代替'
'五分钟'
'予以'
'了其'
'书写'
'乌鸦_'
'主持'
'世界盃_'
'上方'
'七年'
'一开始'
'ярост'
'яе'
'ьност'
'широко_'
'чт'
'черт_'
'хан_'
'ушла_'
'участи'
'упит'
'уль'
'уй'
'ува'
'товарищ'
'термин'
'телефон'
'тайны'
'справедлив'
'спасти_'
'сну'
'снов'
'российски'
'резолюци'
'распростран'
'радостно_'
'радо'
'прошли_'
'проход'
'происхождени'
'прими'
'представляю'
'поясн'
'полю'
'пользова'
'плав'
'патр'
'пам'
'отрыв'
'осознан'
'основан'
'озд'
'огромный_'
'огл'
'овна_'
'обой'
'обв'
'нужны'
'необходимость_'
'немно'
'немецко'
'неме'
'находя'
'направ'
'нала'
'накоп'
'наво'
'мый_'
'молодых_'
'мешк'
'мае'
'лого'
'лекци'
'ладони_'
'красавиц'
'коров'
'концерт'
'коми'
'книга_'
'йко'
'исполнител'
'изменени'
'иви'
'заявлени'
'зама'
'живых_'
'ерна'
'единственный_'
'европейски'
'ебе'
'доста'
'группе_'
'госпитал'
'гор_'
'ген_'
'вряд_'
'возьми_'
'возраста_'
'внук'
'вклад'
'вдохнов'
'вв'
'ванны'
'боюсь_'
'ало'
'аже'
'Цвет'
'Уб'
'Сум'
'Сне'
'Семен'
'СК'
'Ря'
'Ради'
'Представ'
'Пин'
'Пат'
'Ока'
'Нек'
'Марин'
'Леонид'
'Котор'
'КТ'
'Иран'
'Зимни'
'Заг'
'Дом_'
'Гов'
'Восток'
'Бой'
'Австри'
'zar'
'year'
'tions_'
'net_'
'life_'
'iti'
'ice'
'duc'
'dec'
'ax'
'TI'
'SH'
'Rep'
'Kra'
'Ker'
'Google_'
'Egor'
'Dmitry_'
'1987'
'1979'
'1952'
'167'
'124'
'); _'
'",'
'!" '
' )'
'캪'
'黑暗中_'
'首_'
'饼_'
'风暴_'
'面上'
'雪地'
'集中在'
'障碍'
'阿勒'
'间谍_'
'铁轨'
'铁丝网'
'金属_'
'重量'
'那里有'
'那些无'
'邀请我'
'這個'
'过了一'
'转折'
'起初_'
'赞成'
'购买了'
'表达了'
'螝伪蟻'
'虽然很'
'薩爾'
'莱尔'
'英文'
'芝'
'自身'
'给了我'
'结束时_'
'第九'
'突然变'
'神话_'
'破坏了'
'眉毛_'
'的要求'
'的蓝'
'的脸_'
'的科学'
'的目的'
'的桌子'
'的核'
'的力量_'
'的丑'
'登陆'
'疯子_'
'瓦的'
'玛丽_'
'牧民'
'煽动'
'然后看'
'灵活'
'灵_'
'灰烬_'
'淋'
'海底'
'波特_'
'歌手_'
'槍'
'榴'
'有限公司'
'有信'
'最高法院'
'曲棍球'
'无名小卒_'
'文书'
'摩西'
'排放'
'捕鱼'
'戴维'
'我告诉'
'我儿子'
'懒惰'
'愿_'
'恐怖_'
'总会'
'得出结论'
'很漂亮_'
'弄湿'
'廷_'
'座位上_'
'店里'
'年龄_'
'帮你_'
'巴爾'
'妈_'
'她太'
'她为什么'
'奥多'
'大批'
'大战'
'多尔_'
'埃利'
'在舞'
'在寻找'
'在哈'
'和白'
'和20'
'吾'
'发生了变化_'
'协议'
'勳章_'
'勇敢'
'动静_'
'功_'
'切断_'
'出版物'
'内的'
'八年'
'假定'
'倾向'
'倒在地'
'俄罗斯和'
'你的手'
'你们_'
'但我会'
'价值观'
'他来'
'从一个'
'仍然在'
'为什么要'
'中期'
'一个半'
'ёд'
'яди'
'ывают_'
'шве'
'чемпионате_'
'уху'
'уступ'
'тёт'
'ть'
'трёх_'
'тоск'
'тос'
'тес'
'сыгра'
'сыва'
'стоять_'
'сохраня'
'современны'
'собрать'
'смотря_'
'сдела'
'сара'
'самоу'
'сайте_'
'родно'
'рель'
'расы'
'распи'
'пь'
'проходя'
'продолжать_'
'программ_'
'принесл'
'прел'
'построен'
'подпис'
'подле'
'пог'
'планете_'
'отход'
'ответственность_'
'остальных_'
'осмотр'
'опасности_'
'объявлен'
'обращени'
'обр_'
'обно'
'нер'
'непонятно'
'невидим'
'нга'
'науки_'
'наступа'
'насто'
'наследи'
'мрачн'
'молни'
'механи'
'массово'
'малы'
'маленькая_'
'любом_'
'лир'
'лил'
'кампани'
'исследовател'
'использования_'
'ины'
'инци'
'имел'
'идо'
'идн'
'зелены'
'затр'
'заставил'
'задан'
'ея_'
'емый_'
'дядя_'
'дущ'
'дорого'
'дио'
'дин_'
'дики'
'гостя'
'гет'
'вслед_'
'воспита'
'возл'
'вое_'
'внима'
'вав'
'бун'
'большей_'
'безумн'
'аче'
'аров'
'адвокат'
'Чуд'
'Стефан'
'Стал'
'Напо'
'Нап'
'Надеюсь_'
'Конг'
'Код'
'Ким'
'Кажд'
'Друг'
'Всего_'
'ВИЧ_'
'Быстр'
'Богом_'
'Бей'
'Альберт'
'Аль_'
'would_'
'wat'
'uz'
'ti_'
'stra'
'ney'
'lex'
'in的'
'cent'
'ame'
'World_'
'VI_'
'VE'
'RC'
'Pat'
'New_'
'MA_'
'KU'
'HA'
'CR'
'Bor'
'203'
' -- -- '
''
'香肠'
'飞行_'
'題'
'露_'
'限_'
'野蛮人'
'醒_'
'那儿_'
'道路上'
'迷宫'
'这让'
'这似乎是'
'过度'
'轻_'
'路易_'
'负责人_'
'论文'
'让孩子'
'装饰_'
'被锁'
'至少有'
'自尊_'
'背景_'
'肮脏_'
'职责_'
'而来_'
'经过了'
'线上'
'纸_'
'編'
'籃球'
'節_'
'答_'
'筋'
'突出'
'稿'
'短暂的'
'看守'
'的经济'
'的父亲'
'的母'
'的下'
'病房'
'电话响'
'生了'
'珠宝_'
'犹太教'
'特和'
'热衷'
'添'
'深度'
'涨'
'没有说'
'没有对'
'每天_'
'棒_'
'桶里'
'查看'
'查明'
'更像'
'无休止的'
'文学_'
'敲响'
'数次'
'撒了谎_'
'掌上'
'捉'
'我梦'
'我在这里'
'我不再'
'想出'
'情的'
'悲伤的'
'恰当'
'微不足道_'
'形成了'
'弱点_'
'幽'
'幼儿园'
'布魯'
'專'
'容器'
'孤独'
'如果你不'
'她看到'
'她甚至'
'她听'
'夺走了'
'失明'
'外表'
'坐牢_'
'在医院'
'圣人_'
'回头'
'咬了'
'和奥'
'听到他的'
'原_'
'北约'
'前额'
'利润'
'出现了一'
'关闭了'
'克和'
'光明_'
'傲慢_'
'便宜'
'使其'
'佩特罗'
'住所_'
'似乎有'
'伯尔'
'会知道'
'伏特加'
'令人振奋'
'代的'
'他爬'
'他注意到'
'他向'
'他们对'
'他们互相'
'亚科'
'争辩_'
'乡巴佬_'
'主导'
'中出现'
'不记得'
'不见_'
'不是我的'
'♫ ♫_'
'ябрь'
'ьям_'
'ьской_'
'чет_'
'ционно'
'цем_'
'хват'
'футбольн'
'ферм'
'услышал'
'урод'
'уем_'
'удивил'
'угольн'
'текст_'
'сть'
'стоят_'
'стараясь_'
'стане'
'социали'
'скучн'
'родила'
'рели'
'революции_'
'разведк'
'разби'
'пси'
'проли'
'прол'
'природн'
'приезжа'
'преследова'
'представляе'
'правов'
'поставил_'
'попробу'
'позвон'
'подж'
'передать_'
'онны'
'онал'
'озеро_'
'овое_'
'неудач'
'неожиданн'
'небе_'
'национальной_'
'направлении_'
'напит'
'метри'
'мельк'
'мель'
'лок'
'лаборатори'
'круг_'
'коч'
'кип'
'кви'
'кажд'
'исторически'
'ировал'
'желания_'
'ерв'
'ейше'
'еви'
'дь_'
'держать_'
'граф_'
'выдви'
'вч'
'встреч'
'вправ'
'включен'
'взяли_'
'верх'
'ближайше'
'ая'
'адми'
'Челове'
'Университет_'
'Уг'
'Стро'
'Сот'
'Робин'
'Рит'
'Прик'
'Поч'
'Последни'
'Пил'
'Петро'
'Отт'
'Нав'
'Музе'
'Много_'
'Кс'
'Коль'
'Дум'
'uh'
'trans'
'ther'
'sw'
'ski_'
'si_'
'sam'
'ove'
'oro'
'opo'
'lig'
'ler_'
'ky_'
'kha'
'ff'
'evi'
'body_'
'att'
'age'
'Ry'
'Peter'
'Mad'
'Leon'
'Fontank'
'Edi'
'4cH000000_'
'169'
'144'
'"!_'
'高昂'
'首脑'
'领土_'
'项目的'
'雷达'
'难过_'
'阿列'
'鏡'
'醇'
'都要'
'通过的'
'逃往'
'送来'
'这也是'
'输入'
'车上_'
'评估_'
'记不'
'警长'
'語言_'
'见到你'
'裤'
'袍'
'蔑视'
'莱特'
'艰'
'舞_'
'至200'
'脱光'
'美女_'
'署_'
'罩_'
'罗斯_'
'网球'
'繁荣'
'總教區_'
'米罗'
'管理局'
'简历'
'签名_'
'站在我'
'穿越'
'种子'
'码_'
'石块_'
'睡_'
'盯着我看_'
'的门'
'的规定'
'的答'
'的攻击'
'的建'
'的人都'
'电报'
'犬_'
'爵_'
'焦虑_'
'澄清_'
'浪费时间_'
'泽尔'
'注册'
'棕'
'柱子'
'枪杀_'
'析'
'有效的'
'暴_'
'是你_'
'是人类'
'春季'
'无法忍受'
'施_'
'改革_'
'握住'
'提案'
'推进'
'指望'
'拖下'
'护卫'
'扶'
'打开门_'
'手被'
'手中_'
'战争中'
'我忘'
'我们走'
'我们坐'
'成一'
'情绪_'
'恢复正常_'
'很重'
'强壮的'
'張'
'弗朗西斯'
'开始的'
'建造了'
'库兹'
'广告_'
'年轻时'
'帝国的'
'尼科夫'
'导演'
'家族'
'定居'
'孟加拉'
'妻'
'好多了_'
'奥林匹克'
'头上'
'在夏'
'在同一'
'土壤'
'困境_'
'喝醉'
'哈萨克人'
'咳嗽_'
'和反'
'吵_'
'君'
'可怕的_'
'几分钟_'
'关切'
'六_'
'保持安'
'你睡'
'你可以看'
'你为什么不'
'住在一起_'
'但同'
'伸出手'
'企业_'
'以不'
'他的话'
'什卡'
'了一名'
'乘客_'
'东北'
'丑陋的'
'不及'
'上来'
'一枚'
'一切都会'
'一件事_'
'энерги'
'экзамен'
'ыло'
'шпи'
'шны'
'шения_'
'череп'
'целова'
'функцион'
'уэл'
'усмехнулся_'
'улыбк'
'улица_'
'трудност'
'тланд'
'тельное_'
'суп'
'сумк'
'стрель'
'стену_'
'ставит'
'способн'
'специалист'
'спасат'
'соро'
'слезы_'
'слава_'
'сери'
'рик_'
'прошлы'
'проме'
'принялся_'
'принима'
'прер'
'правила_'
'послышал'
'последстви'
'поправ'
'помогал'
'позд'
'подготовки_'
'персонаж'
'пек'
'овало'
'обсуждени'
'обслуживани'
'нуться_'
'нств'
'недовольн'
'мона'
'мон_'
'мик'
'мастерс'
'мана_'
'личности_'
'левой_'
'кратк'
'крайне_'
'космос'
'команды_'
'кожа'
'категори'
'истан'
'интересу'
'иле'
'идиот'
'иво'
'захоче'
'зараб'
'законч'
'забе'
'ечно'
'дружес'
'дождь_'
'гоня'
'гармони'
'вяз'
'выдерж'
'выглядит_'
'всякий_'
'врат'
'враж'
'восто'
'воспользова'
'ворон'
'вольн'
'вирус'
'вещь_'
'вечно_'
'веке_'
'веж'
'ваших_'
'ваем'
'бывши'
'бог_'
'Центрально'
'ТВ'
'Сти'
'Скорее_'
'Санта_'
'РСФСР_'
'Лок'
'Дале'
'Вып'
'Вся_'
'Асс'
'ula'
'thr'
'shk'
'mes'
'lus_'
'lis_'
'lie'
'ica'
'grad'
'ges'
'ei_'
'call'
'bur'
'ben'
'Spe'
'SR'
'Mash'
'LL'
'King'
'GU'
'Franc'
'Elena'
'Al_'
'; ._'
'1942年'
'1917年'
'151'
'148'
'147'
'...-'
' ... _'
' !_'
'龟'
'鸡_'
'领导的'
'雅克_'
'隧道_'
'阿什'
'阐述'
'阁楼'
'链_'
'铅笔'
'钱包'
'鐘'
'那个混蛋'
'達爾'
'遊戲_'
'遊'
'进行的_'
'这是最'
'这才'
'达里'
'辦'
'起源_'
'购物'
'诺斯'
'说到'
'诉讼'
'被吊'
'蓝_'
'莉亚_'
'艾滋病毒'
'艾哈迈'
'色的'
'良好'
'腐蚀_'
'能让'
'肌肉_'
'美国的'
'美国国'
'羅伯特_'
'罗曼诺'
'绝不能'
'类别'
'确实很'
'睡了'
'看到一个'
'的笑容_'
'的秘密'
'的情况'
'的土'
'癌'
'留下的'
'珍视'
'狐狸_'
'特征'
'爵'
'满了_'
'海地'
'氨'
'比尔'
'毁_'
'死者的'
'歷史_'
'梅德韦杰夫'
'柔软_'
'权威_'
'机器人_'
'本人_'
'有四'
'有一条'
'是完'
'日光'
'教训_'
'支出'
'摘'
'提交的'
'掩盖_'
'掩'
'接_'
'挂了_'
'拖进'
'抵达_'
'手中'
'所说_'
'我聽'
'我们马上'
'我们回'
'戈斯'
'應'
'想要_'
'惊喜_'
'患有'
'恭'
'心脏_'
'德拉_'
'得很快_'
'形状'
'建筑师'
'庄'
'带走'
'尼亞_'
'姆斯_'
'好运_'
'好人_'
'她跑'
'她坐在'
'奧爾'
'奥运'
'奥尔加'
'复制'
'在N'
'土_'
'因为那'
'和黑'
'和我_'
'吃午饭_'
'原谅我'
'北_'
'化合物_'
'刺伤_'
'刊'
'分手'
'出差'
'关掉'
'候_'
'俗'
'你是_'
'你只是'
'以防万一_'
'他會'
'他是一'
'他安'
'人为'
'个女孩'
'东南'
'世界末日'
'且'
'与她'
'不能让'
'上帝之'
'一千'
'эффективно'
'ыни'
'ывали_'
'шет'
'чиво_'
'человек'
'хлеб_'
'характер'
'усы'
'умы'
'увеличени'
'тёпл'
'тук'
'тле'
'тас'
'тарелк'
'сюжет'
'считал_'
'судьб'
'стул'
'страх'
'сторонам_'
'спрашива'
'способности_'
'соци'
'собственной_'
'смысла_'
'слабо'
'сио'
'расч'
'пром'
'прибы'
'предположи'
'предназначен'
'праздник_'
'потерял_'
'позволяет_'
'подходящ'
'победит'
'пк'
'передви'
'оши'
'оце'
'отвор'
'остановить_'
'ород'
'одол'
'обня'
'област'
'обвиня'
'нто'
'нси'
'новости_'
'миллиард'
'мечтал'
'мечт'
'мент_'
'мгновенно_'
'лишни'
'лили'
'лесо'
'кухн'
'кув'
'конкретно'
'комп'
'кад'
'исполня'
'изн'
'изирова'
'земля_'
'заявление_'
'ерну'
'ерки'
'евре'
'дрожа'
'домик'
'доклад_'
'готовил'
'гостей_'
'горл'
'гель'
'выдав'
'выглядел'
'воспр'
'вздох'
'вало'
'блин'
'близ'
'армия_'
'Эмил'
'Те_'
'Среди_'
'Сек'
'Сев'
'СМИ_'
'Российск'
'Появились_'
'Несмотря_'
'Наш_'
'Между_'
'Крис_'
'Как'
'Западн'
'Джен'
'Дети_'
'Глу'
'Вашингтон'
'Билл'
'Арк'
'Аре'
'АД'
'zin'
'zer'
'vk'
'vers'
'ture_'
'tell'
'rai'
'para'
'nte'
'fic'
'dra'
'dit'
'adi'
'Sec'
'Paul'
'PC'
'Ob'
'Kal'
'Jam'
'Im'
'Char'
'Bon'
'AP'
'AK'
'=='
'1945_'
'1916'
'156'
'145'
'麦加'
'髓'
'马格'
'饥饿_'
'餐馆_'
'隔壁的'
'院子里_'
'闹_'
'钟头'
'金斯'
'郊区'
'邮票'
'遗传'
'迷路了_'
'走走_'
'赞美'
'贩运'
'计算_'
'观察到'
'被埋在'
'袜子'
'袋子里'
'落实'
'莫洛'
'莫拉'
'船上'
'自由的'
'腾'
'脆弱_'
'职位_'
'罪犯'
'罗德_'
'罗夫_'
'终结_'
'组织和'
'緬'
'精神和'
'精彩'
'神奇'
'知识分子'
'相信自己'
'盯着我'
'皮特'
'的胜利'
'的空'
'的古'
'畫_'
'男人们'
'瓦莱'
'状_'
'然后打'
'烧_'
'潮'
'溜'
'淫'
'波罗的海'
'沙尔'
'沃爾'
'水流'
'模糊的'
'森堡'
'核查'
'来形容_'
'有意思_'
'有人在'
'月份'
'普洛'
'是不可'
'敞'
'收拾'
'支_'
'操纵'
'捐赠'
'挣'
'我的生'
'我惊'
'我就知道'
'愉快_'
'情人_'
'悲剧_'
'彼此相'
'弗雷德_'
'弗里德里希_'
'幸存者'
'平等的'
'展览_'
'层次'
'屁'
'尽了'
'就像他'
'射_'
'富尔'
'宴'
'安吉'
'学位'
'奴_'
'天才_'
'在I'
'土著人'
'回_'
'和老'
'和精神'
'和亚'
'味的'
'后被'
'叶卡捷琳'
'可爱的'
'召唤'
'古董'
'口香糖'
'取消_'
'发生了_'
'参加_'
'十八'
'区域_'
'劳工'
'别害怕_'
'击中了'
'出版了'
'关起来_'
'倒在'
'保罗'
'你告诉'
'作战_'
'但对'
'但她的'
'伯格_'
'代表團_'
'他去'
'他们决定'
'人了_'
'主义者'
'丧'
'丝带'
'不要_'
'不下'
'ято'
'янно'
'языки_'
'эта'
'шанс_'
'чувстви'
'ческ'
'циан'
'хорошие_'
'ускор'
'удовольствием_'
'туман'
'тте'
'традиционн'
'точнее_'
'сценари'
'суме'
'стихи_'
'способен_'
'спал'
'создание_'
'соде'
'совета_'
'слуг'
'слова'
'скорост'
'скон'
'свое'
'рога'
'рова'
'решить_'
'ратн'
'рассказывать_'
'развле'
'протяну'
'пропусти'
'приобрет'
'прийти_'
'препод'
'предложил'
'пота'
'пород'
'поо'
'помогл'
'полет'
'подожд'
'подготови'
'повел'
'перемещ'
'памятник'
'пак'
'ответа_'
'остается_'
'особ'
'основн'
'осве'
'онов_'
'озер'
'овский_'
'общественны'
'нте'
'несе'
'необыч'
'небо'
'направился_'
'множеств'
'кресло_'
'коробк'
'конч'
'кана'
'йни'
'йв'
'иками_'
'ида'
'зимн'
'заслужи'
'заму'
'жители_'
'животно'
'еч'
'естн'
'дше'
'дски'
'дикт'
'выпал'
'вынес'
'выброс'
'выбрать'
'вся'
'воров'
'волна'
'возрасте_'
'возвраща'
'вли'
'вить_'
'беременн'
'аев'
'автор_'
'Усп'
'Тон'
'Софи'
'Руб'
'Работа'
'Приб'
'Марко'
'Лишь_'
'Кирилл'
'Зим'
'Зи'
'Дай_'
'Гил'
'Гей'
'Гав'
'ВЫ'
'Более_'
'ving_'
'tric'
'stu'
'roc'
'ri_'
'ped'
'jevich'
'icul'
'ex_'
'ema'
'dov'
'anov'
'Vasili'
'Tol'
'Sen'
'Pho'
'Open'
'Ji'
'1973'
'172'
'110'
'颐颐颐'
'韦斯'
'霍_'
'雷克'
'雀_'
'陈述'
'银色'
'鎮_'
'這是'
'途中_'
'这条路'
'近了'
'踏'
'赠送'
'诊'
'讲讲'
'被带到'
'蓝莓'
'董事会'
'菲亚'
'获_'
'药物_'
'节奏'
'胡子_'
'肩膀被'
'耶夫的'
'耗'
'老朋友'
'老年'
'翠'
'美好'
'罗曼_'
'结束后_'
'維爾'
'简直'
'筹资'
'突然的'
'碰_'
'短短'
'眼中'
'相比'
'皮革'
'的设'
'的行为'
'的作'
'男孩的'
'男人的'
'用脚踢'
'生育'
'瓶子_'
'瓦西里耶维奇'
'照射'
'然后走到'
'滿'
'滩'
'湖泊'
'温_'
'混淆_'
'洋_'
'没有出'
'没_'
'汀_'
'每个人都在'
'每一个人'
'残忍'
'死的_'
'楚_'
'来过'
'杀_'
'有必要'
'有一些'
'最重要的'
'晚餐_'
'晚点'
'是白'
'是天'
'春_'
'无尽的'
'敌对'
'放射'
'放下_'
'支持者'
'摧毁_'
'摔跤'
'扰'
'所以这'
'我把他'
'我们被'
'我们不是'
'成果_'
'感谢他'
'怨'
'很快_'
'往前走_'
'建筑工'
'座位_'
'废墟'
'幹'
'干涉'
'希臘'
'就是你'
'小巷_'
'对自己'
'壳_'
'基督_'
'坐在一起_'
'在哪里'
'在V'
'喉咙'
'唱片'
'和建'
'和卡'
'告别'
'听我说_'
'吓人_'
'吉他'
'可怕'
'另一只'
'古_'
'取得的'
'发现他'
'压_'
'卑鄙'
'升高_'
'升起_'
'匪'
'劲_'
'利斯_'
'冲锋枪'
'全球化'
'偷走'
'偏离'
'俩_'
'侦察'
'侏'
'你什'
'但我知道'
'传到'
'仆人_'
'亮了_'
'亮_'
'了那'
'了出来_'
'买的'
'书的'
'乔_'
'中东'
'不安'
'一道'
'一杯'
'一个身'
'щу_'
'широки'
'шим_'
'шари'
'чудо_'
'чать_'
'чани'
'цов'
'ходили_'
'фу_'
'успокоил'
'указал'
'трубку_'
'толст'
'тные_'
'теч'
'теле_'
'тал_'
'считают_'
'счастливо'
'сует'
'судь'
'сторонни'
'статисти'
'станци'
'совместно'
'смерт'
'скот'
'серьезно_'
'русского_'
'речи_'
'региона'
'рассмеял'
'раскрыт'
'пур'
'продаж'
'пров'
'прикосн'
'преступления_'
'посвящен'
'поняли_'
'понимая_'
'помеша'
'пома'
'пола_'
'поддержа'
'подава'
'племен'
'перел'
'передо'
'оне_'
'ольств'
'оват'
'нци'
'нтов'
'нство_'
'нными_'
'нив'
'нде'
'начи'
'настро'
'наклон'
'мышлени'
'младши'
'мети'
'местных_'
'математик'
'любого_'
'лице'
'лент'
'крылья'
'крош'
'книг_'
'каждому_'
'йше'
'ичн'
'итет'
'искусств'
'инде'
'изм'
'запрещен'
'запи'
'завершен'
'еса'
'енько'
'должности_'
'дневн'
'дико'
'деревне_'
'действ'
'гус'
'городо'
'выраст'
'выражени'
'восхи'
'вме'
'вист'
'верно'
'бою_'
'блон'
'атн'
'ассоциаци'
'авс'
'Фред'
'Точно_'
'Такой_'
'Солнце_'
'Пое'
'Петрович_'
'Нер'
'Нас_'
'ИД'
'Доктор_'
'Вра'
'Буде'
'Барб'
'Антон'
'zy'
'vil'
'vic'
'nz'
'lib'
'ions_'
'gat'
'bli'
'aa'
'Wo'
'Univers'
'Sm'
'Sco'
'Hea'
'FC'
'Ele'
'Cat'
'Ca'
'CD'
'?'
'1920年'
'1914'
'119'
'0年代_'
',  _'
'颐颐_'
'颁奖典礼_'
'阿卡'
'银河'
'那不是'
'邓'
'选择的'
'追赶_'
'迪米特里_'
'迟早'
'达尔_'
'说法_'
'要走'
'製'
'装备'
'被切'
'蜜蜂'
'蛋白质'
'膝盖_'
'背上_'
'肥_'
'職'
'耻辱'
'者不'
'美利'
'罐子'
'统一_'
'纳西'
'纳斯_'
'綱_'
'紧紧紧紧'
'級_'
'精确'
'类似_'
'积累'
'瞧_'
'睁睁'
'真实的'
'相信他'
'相似'
'的魔法'
'的钱'
'的光'
'的2'
'瓦多'
'猶'
'猎人_'
'煤炭'
'激进'
'滑雪'
'流氓'
'波浪'
'泡沫_'
'法令'
'泉'
'河流'
'沃尔夫'
'汽油'
'此事'
'格里戈里'
'来到这'
'杀掉'
'杀手'
'札'
'更为'
'星期天'
'早期'
'撒谎了_'
'推测'
'接着说_'
'找到他'
'戰鬥機_'
'我们不会'
'我不會'
'成员国'
'憎恨'
'愤怒和'
'惡'
'情况的'
'恤'
'很伤心_'
'弱者'
'弗里德'
'开到'
'延伸'
'年轻的_'
'幅画'
'巴什'
'已经过'
'局势_'
'尼德'
'就走'
'就知道'
'就不可能'
'将与'
'室内'
'客气_'
'安格'
'守着'
'她带'
'太空_'
'天花板_'
'大片'
'大使馆'
'处女'
'埃里'
'地狱_'
'在脸'
'在木'
'国际社会'
'国家元首'
'回避'
'四月'
'和心'
'和加'
'和中'
'吹了_'
'叫醒'
'历史中'
'前一天'
'到来'
'利昂'
'创意'
'凶手_'
'凡_'
'公開賽'
'入口处'
'保护他'
'你连'
'但只有'
'付钱'
'他的眼睛_'
'他们被'
'从现'
'从中'
'人进'
'人体'
'人们认为'
'人之'
'五年_'
'乱动_'
'中華'
'个人的'
'丛林'
'一个年轻人'
'ёз_'
'ящ'
'яш'
'шп'
'чение_'
'цветы_'
'хнула'
'фей'
'упл'
'увидели_'
'у'
'троп'
'тны'
'тите'
'тео'
'сук'
'стон'
'степен'
'специально'
'состояния_'
'словом_'
'ситуация_'
'системе_'
'сердц'
'священник'
'рой_'
'рисун'
'режисс'
'рб'
'рассказ_'
'рала'
'разум'
'развернул'
'рабочих_'
'пункт'
'процессо'
'проходит_'
'причине_'
'поставил'
'порядка_'
'подтвердил'
'подробн'
'подно'
'поверить_'
'планы_'
'опоз'
'опасны'
'олог'
'олен'
'окном_'
'оккуп'
'оборудовани'
'нты_'
'ничн'
'непосредственно'
'нале'
'называем'
'названи'
'мысленно_'
'местные_'
'курс_'
'каст'
'йца'
'йки_'
'ишься_'
'иты'
'знак'
'зах'
'жае'
'ести'
'енти'
'дружи'
'дров'
'домов_'
'департамент'
'дени'
'деж'
'гск'
'гры'
'греческ'
'государственно'
'горьк'
'горел'
'говорите_'
'выяв'
'выкр'
'встречу_'
'войск'
'вер_'
'важн'
'быти'
'бросила'
'беспоко'
'аск'
'Эрн'
'Эле'
'Шк'
'Чан'
'Утро'
'Уста'
'Университет'
'Суда'
'Сп'
'Соо'
'Слова'
'Скаж'
'Проб'
'Новый_'
'Настя_'
'НАТ'
'Миров'
'Кул'
'Конференци'
'Конт'
'Извините_'
'Владимиров'
'Веро'
'Васили'
'Бах'
'Ани'
'Андреев'
'Англи'
'Алексеев'
'ć_'
'reg'
'ome'
'land'
'isi'
'dl'
'cur'
'VI'
'ND'
'Mer'
'Lud'
'8月_'
'700_'
'220'
'1943年'
'".'
'：《_'
'훐'
'龙的'
'鼓掌'
'魔_'
'馬克_'
'风格_'
'韩国'
'隐藏的'
'门槛'
'間_'
'都需要'
'都放'
'遍了'
'过你_'
'过于'
'达斯'
'贝拉'
'诞生'
'装着'
'蜂蜜'
'蛙'
'蛋糕'
'虽然有'
'虽然我'
'艰难的'
'舒适_'
'至今'
'自己的_'
'耶稣的'
'维多'
'绕'
'纪录'
'约瑟'
'米远_'
'穷人_'
'程度_'
'科学和'
'福斯'
'破_'
'眾'
'看着他的'
'的需'
'的记忆'
'的耳'
'的案'
'的子'
'的受'
'的产'
'玩了'
'狂热'
'版本_'
'炉子'
'活下去_'
'法蘭'
'沙丘'
'沉默地'
'求婚_'
'永恒'
'水池'
'死人_'
'正是在'
'正教'
'樹'
'暴行'
'昨天的'
'斯洛'
'提前'
'拿着一'
'拘留_'
'技能_'
'战斗机'
'我醒来'
'我看到一'
'我弄'
'我尝试'
'我喜欢_'
'我再次'
'成人_'
'意义'
'惠_'
'德罗'
'德国的'
'得够'
'得了'
'很平静_'
'很大的'
'廖'
'应付'
'幸运_'
'年逝世_'
'平坦'
'居住在'
'尽头_'
'尖锐的'
'宣布了'
'定居点'
'安置'
'威士忌'
'她必须'
'多少钱'
'夏季奧運會_'
'夏季奥林匹克运动会'
'塔里'
'堆_'
'基尔'
'坚固'
'地进'
'在没有'
'困难的'
'回答了_'
'喝茶'
'哥斯'
'和教'
'周一'
'听话_'
'含义'
'同样的_'
'吃掉'
'可以说_'
'即使他'
'卡纳'
'協會_'
'十四'
'包含了'
'前面'
'别急'
'免疫'
'停留'
'停下了_'
'你知道吗_'
'传来的'
'令人发指的'
'他笑'
'他立'
'他的手_'
'他们现在'
'他不是'
'从_'
'人们不'
'事项'
'了对'
'也是如此_'
'主持人'
'为了不'
'中国人'
'丢在'
'不清'
'不仅是'
'一年_'
'一个简单的'
'яло'
'ядерно'
'ющую_'
'экз'
'ьё'
'ышн'
'широ'
'хрен'
'ходи'
'фет'
'усну'
'упил'
'уми'
'травм'
'твое_'
'сю'
'сформ'
'стук'
'стен_'
'сочин'
'сорва'
'сокра'
'совершенн'
'собственно'
'сня'
'сниз'
'сниж'
'сможем_'
'сельское_'
'святы'
'светил'
'русской_'
'ровн'
'рис_'
'рж'
'реши'
'провед'
'приме'
'представители_'
'попе'
'поощр'
'помог_'
'поменя'
'пойдё'
'пожил'
'пите'
'очевид'
'оформ'
'осу'
'оставши'
'осм'
'орг'
'онс'
'ожил'
'овл'
'обороны_'
'новым_'
'нном'
'небес'
'народн'
'напу'
'нало'
'нава'
'мун'
'мск'
'монастыр'
'мин_'
'миг'
'маленькие_'
'льного_'
'логически'
'континент'
'ключ_'
'ительн'
'исключ'
'ирск'
'интересно'
'инс'
'иго'
'зача'
'засты'
'жур'
'жест'
'жаю'
'жажд'
'етесь_'
'допусти'
'граждан_'
'гори'
'выборы_'
'вспы'
'вла'
'видов_'
'ведьм'
'варива'
'будучи_'
'благодарност'
'атр'
'Это'
'Эмм'
'Уа'
'Сы'
'Согла'
'Рейн'
'Рев'
'Разд'
'Пока'
'Пале'
'ПО_'
'Новости_'
'Йе'
'Гран_'
'Голов'
'ws'
'wis'
'wen'
'ut_'
'nus_'
'mak'
'lc'
'lb'
'gna'
'did_'
'cra'
'ask'
'also_'
'XX_'
'WI'
'Sou'
'Ps'
'Jun'
'Evgen'
'Eu'
'ER'
'1963'
'1915'
'143'
'142'
'133'
'!- _'
' " _'
'랽'
'麻烦'
'高尚的'
'马尼'
'题为_'
'静止'
'阿伦'
'阳台上'
'长达'
'钢铁_'
'采取行动_'
'部族'
'通行'
'迈克尔_'
'赦'
'谷物'
'议程_'
'装备_'
'裂_'
'被困'
'被发现_'
'行动计划'
'蓝色_'
'荒谬'
'自私'
'臆'
'肾脏'
'而你却'
'翻了_'
'罪名'
'续_'
'窗外_'
'稿_'
'移交'
'秃'
'福克'
'祖先_'
'看法_'
'盔'
'监护'
'的飞'
'的时间_'
'的敌人'
'的措'
'的嘴唇'
'男友'
'理性的'
'爱德华_'
'炮弹'
'灾害'
'清洗'
'淘汰'
'海边'
'海豹'
'沉积'
'氣_'
'梨'
'样做'
'树的'
'术语'
'期的'
'服务的'
'有点奇怪_'
'最重要的是'
'最具'
'曾经有'
'晚安_'
'是他的'
'星期_'
'敲诈'
'敬_'
'散_'
'提及'
'控制着'
'抓住她'
'我也是_'
'我不记得'
'我不能_'
'慢慢地_'
'忍不住'
'引起了'
'建造的'
'已经准备好'
'左翼'
'崇拜_'
'小时后'
'导演_'
'家中'
'宇宙_'
'嫌'
'她去'
'她以为'
'头痛_'
'太太'
'天文学'
'大了_'
'外面有'
'外交官'
'塞德'
'塑造'
'基本的'
'场地'
'地的'
'在水'
'在房'
'在北'
'在做'
'國王'
'国际机场_'
'和机'
'和平的'
'听我'
'吞下'
'后才'
'可持续发展'
'另一位'
'反苏维埃'
'参谋长'
'厨师'
'原谅_'
'卢西'
'卡爾_'
'卡佳'
'十分钟'
'勺子'
'動畫'
'加拉'
'割_'
'利安'
'凤'
'决定要'
'冲到'
'冰球'
'内尔'
'其余'
'克罗地亚'
'克劳'
'停留_'
'保守'
'你说的'
'你被'
'你回'
'但你们'
'他惊'
'他们以'
'仔细看'
'从车'
'交叉'
'世纪的'
'上将'
'一架'
'一只小'
'一句'
'янк'
'энь'
'энергия_'
'ыч_'
'ыть_'
'ществ'
'шум_'
'частны'
'хранил'
'фоне_'
'уща'
'устрем'
'умн'
'улыбал'
'узнае'
'увид'
'убо'
'трон'
'трал'
'тонко'
'террор'
'тем'
'строго_'
'статья'
'старался_'
'следующее_'
'складыва'
'скива'
'серьезн'
'свис'
'самоо'
'русские_'
'родов'
'реальны'
'реальности_'
'раствор'
'размер'
'пта'
'пропи'
'прикры'
'предоставля'
'похорон'
'погибли_'
'перенос'
'пав'
'отрез'
'открыла_'
'осужд'
'остановк'
'осен'
'орск'
'олк'
'ограничен'
'оград'
'нской_'
'нско'
'нима'
'никам'
'нежн'
'находи'
'нако'
'нави'
'наверх'
'мр'
'морски'
'медицинско'
'лестниц'
'космически'
'коре'
'колд'
'йр'
'йна'
'ищу'
'использует'
'исключен'
'иностранных_'
'импери'
'изме'
'изации_'
'изаци'
'зр'
'землян'
'заранее_'
'запрос'
'заки'
'живе'
'жалоб'
'ечны'
'етт'
'ером_'
'дор'
'дока'
'дель'
'дед'
'дае'
'давн'
'гроб'
'гей'
'выпив'
'вое'
'внешни'
'взв'
'вдво'
'брит'
'боги'
'берег_'
'безв'
'адрес_'
'Электро'
'Хос'
'Треть'
'Пошли_'
'Пожа'
'Мя'
'Мори'
'Меди'
'Мах'
'МУ'
'Лука'
'Кв'
'Илья_'
'Золото'
'Дай'
'Вя'
'Вадим'
'БР'
'Анатоли'
'vsky'
'urus_'
'uld'
'mir'
'mean'
'king_'
'diff'
'cht'
'chan'
'bia'
'anth'
'alo'
'acti'
'Yar'
'Spa'
'RT'
'RD'
'Met'
'Jos'
'GE'
'Ea'
'Del'
'Cre'
'Ci'
'Adam'
'900'
'1972_'
'1965'
'173'
'-"_'
'鳏'
'马厩'
'馬里'
'首都的'
'飞船'
'雇主'
'附近有'
'间房'
'铅'
'錦'
'里耶'
'酱_'
'都充满了'
'道夫'
'運動_'
'迈克'
'载_'
'跳进'
'赶出去_'
'走在'
'走出来_'
'贿赂'
'货运'
'象征_'
'西克_'
'耻'
'耳_'
'而不是_'
'罗伊'
'罕见'
'紧急救'
'称之为'
'科摩罗'
'看着她_'
'看一'
'的颜色'
'的金'
'的研究'
'的明'
'的年轻人'
'瘤'
'王的'
'火焰_'
'火山_'
'激烈的'
'潜艇'
'演讲_'
'滕_'
'温暖的'
'消耗'
'海关'
'永远不会'
'民族的'
'毁的'
'武力'
'樹_'
'樱桃'
'来越'
'来了'
'条条'
'最常'
'时间的'
'日本人'
'掉了'
'挖了'
'持久'
'拥'
'拐杖'
'把枪'
'把手放在'
'扮'
'成长'
'感觉有点'
'意义上'
'想的'
'悲伤'
'志愿者'
'徽_'
'年级'
'年前'
'平等_'
'巴格'
'左_'
'山脉的'
'屆夏季奧林匹克運動會_'
'封信'
'密码'
'实现的'
'字幕'
'她曾'
'大奖赛_'
'大多'
'壁炉'
'墨西哥_'
'坦白'
'坚信'
'坐在他'
'地板上'
'在壁橱'
'在埃'
'图拉'
'噪音'
'器的'
'員'
'咒语_'
'和伊'
'后背'
'可能有'
'召开'
'口袋_'
'又变'
'去那'
'十月'
'匆忙地'
'办公'
'分开'
'出示'
'兴_'
'光明的'
'保佑'
'但我没'
'但如果'
'他所'
'他并'
'他妻子'
'什么名字_'
'什么事_'
'亲人_'
'了最'
'乞'
'举起手'
'主教_'
'丸'
'中解'
'严肃'
'与_'
'一辈子'
'一起走_'
'一步'
'一个新'
'яи'
'ька'
'чков'
'хлеб'
'хин'
'формул'
'финансировани'
'фельд'
'утвер'
'уны_'
'улица'
'удн'
'убийств'
'тревог'
'старе'
'созданн'
'снежн'
'смысл'
'сильны'
'серьезны'
'свя'
'рут'
'рта'
'роли_'
'рован'
'рика'
'раю'
'расстав'
'разли'
'прохож'
'произошл'
'проез'
'проверя'
'прича'
'прекращ'
'православн'
'поэ'
'пошл'
'понимает_'
'понима'
'пользу'
'получае'
'показала'
'познакомил'
'поже'
'подсо'
'подня'
'подели'
'подвал'
'поворот'
'побе'
'пеш'
'перестал'
'пауз'
'патри'
'панс'
'пальцем_'
'пальцами_'
'оценки_'
'отвечает_'
'онной_'
'омы'
'оед'
'овор'
'оваться_'
'обру'
'нахож'
'мад'
'ляе'
'лог_'
'кухне_'
'краю_'
'кора'
'консультаци'
'князь_'
'инвест'
'золоты'
'знакомо'
'зеркало_'
'закричал'
'заверши'
'заведени'
'завед'
'жён'
'жестоко'
'ество_'
'енств'
'душевн'
'диалог'
'детс'
'горе_'
'гну'
'глух'
'главным_'
'главного_'
'выпл'
'временно'
'возраж'
'возв'
'вечн'
'венн'
'бывший_'
'бумаги_'
'бок'
'бедно'
'аромат'
'ариа'
'анско'
'аки_'
'айте_'
'Чис'
'УН'
'Твор'
'Такое_'
'Сама'
'Роди'
'Роберт'
'Пох'
'Отр'
'Отлично_'
'Осо'
'Никогда_'
'Нан'
'Мир_'
'Дир'
'Дви'
'Гле'
'Военн'
'Васильев'
'Берлин'
'Америк'
'Ала'
'ses'
'rus'
'ont'
'nk_'
'mot'
'loc'
'kat'
'id_'
'gt'
'Zu'
'Um'
'So_'
'Sasha'
'Robert'
'Rad'
'Hal'
'Arc'
'1961'
'ퟷ'
'풱'
'鰻_'
'骨头'
'香烟'
'饾'
'鞠'
'难堪_'
'门户_'
'關係_'
'长老'
'锋'
'里被'
'醉了_'
'酊'
'都快'
'那些不'
'道德的'
'逝'
'迪纳'
'违反了'
'这边'
'这本'
'辖'
'轻微'
'车里'
'軟'
'躲到'
'趟_'
'走着'
'豹'
'设置'
'警告_'
'要不'
'被绑'
'被撞'
'被偷'
'蛾蛾'
'薩_'
'落在'
'自称是'
'自由了_'
'胸前'
'胡言乱语_'
'肝'
'而你_'
'美国总统'
'缆'
'统治_'
'经济和'
'红的'
'絕'
'級聯賽_'
'粮'
'米尔_'
'突然出现_'
'秀'
'祭'
'神学'
'碱'
'着她'
'看起来有点'
'皇_'
'的领导'
'的语言'
'的胸'
'的爱'
'的房子'
'的审'
'的头_'
'的内容'
'界的'
'理解的'
'狭'
'独立的'
'独特'
'物体_'
'灭_'
'模型'
'桌子上'
'格鲁'
'根据我'
'柱子_'
'枷锁'
'有能力'
'暖和'
'暂停'
'景象'
'无关_'
'斯堡'
'斯基區_'
'教练'
'收取'
'撒谎'
'指出的'
'拉尼'
'把火'
'手段'
'手持'
'所以我不'
'房间里'
'我正'
'我忍'
'我们希望'
'我不知道该'
'成绩'
'戀'
'意大利_'
'德尔_'
'微不足道的'
'建立一个'
'废物'
'广泛的'
'干燥'
'帕特里克'
'师的'
'布拉格'
'已经到'
'崩'
'崇高'
'尼古拉耶'
'对付'
'富有_'
'家庭的'
'妮娜'
'夹克_'
'太久_'
'外星人'
'士兵的'
'塞斯'
'基督的'
'场上'
'地平线'
'地區_'
'在飞'
'在花园'
'在心'
'在前'
'和2'
'吸毒'
'及利'
'化了'
'别这样_'
'利比亚'
'切割_'
'冲动'
'冠_'
'克在'
'兄弟们_'
'僵'
'假设_'
'保_'
'侮辱'
'伸出'
'伴侣'
'他打'
'他太'
'他在这'
'他只'
'他们非常'
'从窗户'
'从山'
'仅在'
'什科'
'人死亡_'
'交出'
'事务_'
'为什么没'
'为3'
'中的人'
'个月_'
'上没有'
'三年_'
'一个由'
'一个像'
'ящих_'
'ьми'
'ьма_'
'щенно'
'чувств_'
'чени'
'циальн'
'целей_'
'хв'
'фотографии_'
'философи'
'устал'
'уск'
'умею'
'удов'
'уголовно'
'тюр'
'трои'
'тви'
'тами_'
'сын'
'сумел'
'стары'
'спуска'
'спори'
'спине_'
'сосу'
'собирае'
'случаях_'
'служил'
'службу_'
'славян'
'скольз'
'ске_'
'русски'
'римск'
'ренн'
'рач'
'разу_'
'разряд'
'разруши'
'професси'
'потра'
'посме'
'последних_'
'понятия_'
'подтвержда'
'пляж'
'очереди_'
'оты_'
'открыть_'
'осуществления_'
'остановил'
'осле'
'одиночеств'
'овод'
'обратил'
'нтр'
'невест'
'находились_'
'наказ'
'мых_'
'модель_'
'мирово'
'мерз'
'медвед'
'маль'
'лони'
'лову'
'ливый_'
'лестнице_'
'лем_'
'кори'
'конференции_'
'контроль_'
'компьютерн'
'итесь_'
'исте'
'исследовани'
'иск'
'ирование_'
'инст'
'ивали_'
'значительно_'
'зато_'
'засе'
'задержал'
'забав'
'жск'
'жко'
'жала_'
'ею'
'естр'
'ерг'
'ень'
'ема'
'елк'
'дружб'
'доск'
'доми'
'дома'
'демократическ'
'грози'
'герое'
'гай'
'выходн'
'выте'
'ври'
'вош'
'влад'
'больших_'
'боле'
'берт'
'баро'
'банд'
'ательно'
'ально'
'аешь_'
'Юрий_'
'Эди'
'Эдвард'
'ЩЕ'
'Чо'
'Черт_'
'Тё'
'Слыш'
'Сдела'
'Свя'
'Свобод'
'Рядом_'
'Полин'
'Отп'
'Отв'
'Оказа'
'Монте'
'Мисси'
'Люс'
'Льв'
'Либер'
'Королевств'
'Ког'
'Деп'
'Гуа'
'Герц'
'Видимо_'
'Ван_'
'Бак'
'Бабу'
'Ассамблеи_'
'Аргентин'
'tk'
'tie'
'sp_'
'sil'
'should_'
'poli'
'num'
'let'
'ić_'
'ilo'
'ika'
'gle'
'fun'
'fla'
'ede'
'cus_'
'agr'
'Ty'
'TH'
'Shu'
'Rob'
'Lon'
'INT_'
'Georgi'
'Far'
'Ass'
'123'
' /_'
'틔'
'춣춣'
'鼓_'
'鱗'
'高档'
'音乐家'
'雪崩'
'锁上'
'铁路_'
'重要的_'
'那又'
'送到'
'还能'
'运动的'
'辱'
'转身_'
'躬躬'
'超級聯賽_'
'谢尔'
'讽刺_'
'订单'
'警官'
'触动'
'解雇'
'被禁止'
'被排'
'行业'
'螺'
'蔚'
'荒谬的'
'艾拉'
'艾伦'
'色色'
'舞台上'
'肉体_'
'耻的'
'美好_'
'维塔利'
'结束之'
'粹'
'粉色'
'类型'
'米卡'
'米利'
'确切'
'研究所_'
'砍下'
'睡眠_'
'着了_'
'真不'
'眉毛'
'目击者'
'的轮'
'的死亡'
'百科'
'疼痛'
'男爵'
'男_'
'申科'
'瓦砾'
'理性_'
'理事会_'
'猪_'
'潛'
'漂浮'
'清白'
'清晨_'
'混凝土'
'活得'
'洛维奇'
'死去_'
'棕榈树'
'检察院'
'梯_'
'梏'
'档'
'核_'
'树上_'
'本身就是'
'未成年'
'更糟_'
'时代的'
'教学'
'播放_'
'播_'
'摩洛哥'
'描述了'
'按下'
'投票_'
'扩'
'打他的'
'才能够'
'战术'
'我爸'
'我很难'
'我差点就'
'我们一起'
'很棒'
'开除'
'常驻'
'布尔_'
'巨人'
'尼娜'
'尔特'
'实际上是'
'安的'
'孤儿'
'威斯'
'好朋友'
'她所'
'她仍'
'奇怪的_'
'多维'
'多年_'
'坚固的'
'址'
'在所有'
'在塞'
'善良的'
'哭哭'
'和联'
'呼声'
'吞噬了'
'只能在'
'发起'
'压倒'
'占据了'
'力量和'
'别乱'
'初次'
'兰卡'
'先生被捕前'
'修正案'
'你笑'
'你想要'
'似乎不'
'会说'
'伊甸'
'伊斯坦'
'任_'
'以某种'
'他们甚至'
'人格'
'人来'
'人性'
'两人都'
'世界大战'
'世代'
'与一'
'不一'
'上车'
'上最'
'一整'
'一个叫'
'ёй_'
'ёж'
'ющими'
'ъ_'
'щиц'
'шеств'
'чувствовала_'
'черны'
'хорошего_'
'хло'
'фре'
'физ'
'уха'
'уты'
'упу'
'уну'
'трону'
'тна'
'темно'
'тана'
'таль'
'сходит'
'сход'
'схем'
'судя_'
'судьбы_'
'строит'
'спроси'
'сокращени'
'совмест'
'смех'
'слышала_'
'служи'
'сложил'
'сильный_'
'сильн'
'сеть_'
'серьёзно'
'серь'
'рки_'
'рие'
'решений_'
'ремен'
'распа'
'рада_'
'работают_'
'пуз'
'прошел_'
'процесс'
'просну'
'пристр'
'принимаю'
'признани'
'приглаша'
'правы'
'поцелу'
'пох'
'понимала_'
'полот'
'положен'
'полиц'
'показывал'
'подразделени'
'подобное_'
'повезло_'
'пки'
'питани'
'песо'
'ох_'
'отва'
'описани'
'ограничени'
'объяснил'
'обраб'
'няк'
'новен'
'нея'
'нервно'
'мёртв'
'мужск'
'любовни'
'льц'
'логия_'
'личе'
'лиг'
'лека'
'леди'
'ладон'
'кт_'
'краск'
'красив'
'крае'
'костр'
'колонн'
'кина_'
'камня'
'ительный_'
'истинно'
'испор'
'искусства_'
'знат'
'зелёны'
'займ'
'заговорил'
'жило'
'ждут_'
'етн'
'ектор'
'дк'
'делегаци'
'даро'
'городской_'
'города'
'голуб'
'ганск'
'восстановлени'
'вопроса'
'войск_'
'ветра_'
'великолепн'
'бя'
'брать_'
'атов'
'арс'
'алк'
'ако'
'аккуратно_'
'авля'
'Эп'
'Худ'
'Фро'
'Уд'
'ТО_'
'Стивен'
'Соедин'
'Сове'
'Сибир'
'Светл'
'Ранее_'
'Рак'
'РТ'
'ОМ'
'Москву_'
'Мистер_'
'Мара'
'Лос_'
'Лиза_'
'Лео'
'Коз'
'Иисус_'
'Ие'
'Живо'
'Жд'
'Доб'
'Григорий_'
'Вопрос'
'Внутр'
'Бю'
'tti'
'run'
'rds_'
'nth'
'little_'
'human_'
'cle'
'chil'
'Tw'
'Tha'
'Natalia_'
'Ken'
'Eng'
'Dasha'
'Cap'
'Ale'
'747_'
'6号'
'1972年'
'1930年'
'150_'
'10条_'
'！ ！ ！'
'鸟的'
'魯_'
'騎'
'韓'
'除了我'
'陌生'
'野蛮人_'
'重新安'
'遭到了'
'通道_'
'选手_'
'进攻_'
'还会'
'迄今'
'轻而易举'
'轉'
'躲藏'
'跟你说'
'跑得'
'贷款'
'调查委员会'
'读_'
'诺瓦'
'该公司'
'话题_'
'言自语_'
'视_'
'见到了'
'被刺伤_'
'血腥'
'蝶屬_'
'莉莎'
'苦_'
'芝加哥'
'色的_'
'肾'
'羞愧_'
'糟的'
'精力'
'筒_'
'第二天'
'窗帘_'
'稍稍'
'矛盾_'
'的财'
'的波'
'的机会_'
'的星'
'的想法'
'的对'
'的住'
'疲'
'生产_'
'瓦尔_'
'瓦利'
'环_'
'爱沙尼亚'
'炭'
'灌输'
'澳'
'满怀'
'海浪'
'波洛'
'水域'
'民主共和'
'框架_'
'根本没'
'某一'
'東西_'
'有害'
'普林'
'星球_'
'日期'
'日常'
'无知_'
'无疑'
'方案的'
'救赎_'
'撲'
'撤回'
'撒旦_'
'据_'
'挑选'
'投降'
'抓住我'
'把脚'
'执政'
'手伸'
'所取代_'
'房里'
'我认'
'我可'
'我们早'
'我不需要'
'我不认'
'成为一个'
'情报局'
'心地'
'得那么'
'彈'
'引擎_'
'开会'
'建造_'
'康复_'
'并对'
'年前_'
'年以来_'
'干事'
'帕夫洛维奇'
'师傅'
'工作时'
'工会'
'岸上'
'居_'
'小时内'
'小子_'
'密度'
'她面前'
'大教堂'
'填满'
'在镇'
'在车'
'在森林'
'在日'
'在当'
'在夜'
'在十字'
'圣经'
'土豆'
'圈子_'
'因为所有'
'唱_'
'和感'
'告訴'
'吹到'
'吸气_'
'同样_'
'台上_'
'可见'
'可夫'
'可以理解'
'变态'
'受欢迎'
'包围了'
'加剧'
'前3'
'到达_'
'几天_'
'决定了'
'冒险_'
'其中一人'
'关于这'
'倡议'
'俱乐部的'
'信件'
'佩雷'
'你早'
'你妈'
'会议室'
'会儿'
'会像'
'以来一直'
'令人吃惊'
'他说他'
'他是否'
'他拿'
'他开始'
'他后'
'从外'
'亦'
'五世_'
'二十年'
'事了_'
'争夺'
'了第'
'不相信'
'不寻常的'
'上爬出来_'
'шути'
'шку_'
'шим'
'чным_'
'цивилизации_'
'хоро'
'хли'
'химическ'
'уходил'
'уем'
'угов'
'увлек'
'уверенн'
'увеличи'
'убедить'
'торопи'
'таз'
'стить_'
'ствова'
'сотни_'
'содержа'
'собственн'
'собираюсь_'
'слабы'
'сериал'
'середине_'
'сад_'
'ропол'
'рко'
'республик'
'ребёнка_'
'рассказ'
'расскажу_'
'разра'
'пух'
'путешеств'
'прояви'
'прочь_'
'проводит'
'принято_'
'правам_'
'появ'
'поставлен'
'последовал'
'посетител'
'помогает_'
'пользу_'
'плакал'
'пишу'
'пистолет_'
'пилот'
'пей'
'педи'
'пах'
'партий'
'отри'
'отов'
'отлично_'
'отдава'
'остров'
'особенност'
'оск'
'оплат'
'окаж'
'оже'
'одиноч'
'ограничи'
'обе_'
'нти'
'ночн'
'неи'
'начне'
'начинается_'
'настроение_'
'насме'
'надцать_'
'нагр'
'мощны'
'мог'
'месту_'
'медл'
'лёгко'
'лят'
'льки'
'лико'
'легенд'
'куст'
'курса'
'купа'
'кровью_'
'крикнул_'
'кости_'
'конв'
'кожи'
'картин'
'кает'
'исчеза'
'изменя'
'избе'
'ившие'
'ивш'
'зум'
'зом'
'зли_'
'зир'
'згл'
'заше'
'зац'
'заряд'
'занимае'
'забро'
'енька_'
'друж'
'достоинств'
'досто'
'достижения_'
'достижени'
'делал'
'двига'
'давайте_'
'гом_'
'гнал'
'гич'
'встретил_'
'враче'
'восемь_'
'вид'
'взаимодействи'
'бурн'
'бомб'
'больниц'
'берг'
'ауди'
'атлет'
'асы'
'анич'
'алось_'
'Ход'
'Такие_'
'Стои'
'Сказал'
'Систем'
'Север'
'Свер'
'Пр'
'Оли'
'Нау'
'Мэт'
'Монт'
'Лер'
'Константин'
'Инф'
'Зин'
'Здравствуйте_'
'Дис'
'Группа_'
'Гв'
'Вис'
'Венг'
'Валери'
'Бут'
'Алан'
'АРК_'
'š'
'zen'
'ways_'
'ster'
'need_'
'ico'
'gla'
'get'
'foli'
'Stu'
'Ran'
'MT'
'Jur'
'GP'
'Fontan'
'EM'
'Dra'
'Dor'
'Dav'
'3D'
'1993年'
'1922'
'1918_'
')))'
' \'
' ( _'
'）；_'
'鼻孔'
'骗人_'
'香槟_'
'顶部'
'響'
'音乐会'
'陵'
'阿瓦'
'阵地'
'长期以来一直'
'里没有'
'醉_'
'都知道'
'遗憾'
'運會_'
'这是他'
'转移到'
'车站'
'跑了_'
'豚'
'读书_'
'说法'
'该去'
'设想'
'议程'
'要求的'
'被带'
'行道'
'蓝眼'
'艾利'
'航空公司'
'舊'
'腰部'
'胎_'
'维斯'
'練_'
'索拉'
'突然被'
'秘鲁'
'社会和'
'碼_'
'眼前'
'相处_'
'的重'
'的记'
'的相'
'的男人_'
'的武'
'的支'
'的提'
'的基'
'的历史'
'的儿童'
'的一切_'
'留下来'
'男人和'
'生涯'
'瓶_'
'王后'
'獅'
'猜测_'
'猎物_'
'演奏'
'液体'
'永生'
'構'
'术_'
'普森'
'普京_'
'昆虫'
'早晨_'
'无私的'
'方便_'
'敖'
'政党'
'换了'
'抽象'
'承受_'
'找你'
'打伤'
'打中'
'截至'
'很痛'
'很安静_'
'庞'
'库尔德'
'庆祝活动'
'市民'
'巷'
'就会变'
'小說_'
'小声'
'对手'
'家乡'
'她告诉'
'头上_'
'夫斯'
'大獎賽_'
'多米尼'
'多瓦'
'塞门'
'埃及_'
'坠毁'
'地问'
'在草原'
'在耳'
'在白'
'在平'
'土耳其人'
'困住了_'
'园里'
'嘲笑_'
'哈德'
'哈尔科夫'
'向了'
'史蒂夫'
'另一种'
'变了_'
'受害者的'
'发给'
'又又'
'去年_'
'卡洛斯'
'动的'
'利比'
'出狱_'
'出来了_'
'准时'
'冰激凌'
'兴奋'
'光是'
'信念'
'但是你'
'伪造'
'休息了_'
'以为我'
'人员的'
'人受'
'乐团'
'不言'
'不稳'
'上课_'
'三名'
'三号'
'一丝不苟_'
'、 _'
'•_'
'ёх'
'ярко_'
'яну'
'ющиеся_'
'ючи'
'ьско'
'ыне'
'ывн'
'школа_'
'чувство'
'человеческого_'
'худо'
'хотим_'
'форт'
'уха_'
'управление_'
'ули_'
'тч'
'тупи'
'требую'
'тку_'
'теми_'
'тация_'
'сумму_'
'страну_'
'столб'
'стов'
'статье_'
'стару'
'союзн'
'союз_'
'сотрудничества_'
'сообраз'
'сожале'
'собственного_'
'служба_'
'сложност'
'свободу_'
'свеже'
'сала'
'саж'
'рен_'
'результаты_'
'результата'
'региональны'
'ребят_'
'проще_'
'противника_'
'причем_'
'приключени'
'приве'
'пред_'
'последней_'
'понадоби'
'покрыва'
'покачал'
'поехал'
'подсказ'
'погло'
'пир'
'пассажир'
'отвра'
'орк'
'опыт'
'определённ'
'ону'
'онный_'
'огня_'
'огн'
'общени'
'образу'
'обоих_'
'нст'
'носом_'
'нирова'
'нере'
'напряжени'
'напряж'
'мужчину_'
'мост_'
'маленькой_'
'лежащ'
'лараци'
'кск'
'крупно'
'корм'
'корабле'
'ключи'
'квадрат'
'йс_'
'исправ'
'иным_'
'ийско'
'игру'
'замы'
'замок_'
'зала_'
'закончила'
'зависит_'
'женщинам'
'ерск'
'енно'
'еля'
'елю'
'дора'
'главе_'
'географи'
'высокой_'
'высказа'
'выбе'
'вшим_'
'впечатление_'
'возбужден'
'вожде'
'военного_'
'внизу_'
'виден'
'веле'
'валось_'
'бру'
'бизнес_'
'безр'
'бежать_'
'баль'
'або'
'Юри'
'Шве'
'Хочу_'
'ФА'
'Учит'
'Уж_'
'Скор'
'Реч'
'РА_'
'Прошу_'
'Прохо'
'Прод'
'Приш'
'Позд'
'Пог'
'Питер_'
'Пис'
'Паул'
'ПРИ'
'Нин'
'Наташа_'
'Наз'
'НН'
'Мы'
'Мила'
'Мать_'
'Крест'
'Коп'
'Китае_'
'КУ'
'Иса'
'ИЙ_'
'Джордж'
'Гру'
'Гарри_'
'Вьетнам'
'Божь'
'Битва_'
'Аркади'
'×_'
'wal'
'suc'
'nne'
'lot'
'gran'
'ft'
'fore'
'didn_'
'Time'
'Serif_'
'Irina'
'International_'
'Charl'
'Ama'
'31日'
'2008年夏季奧林匹克運動會'
'1cH'
'1908'
'1896'
'157'
'101'
'000卢布_'
'*******'
'鼻子_'
'魔术'
'骄傲_'
'馈'
'隧道'
'随机'
'陨石坑_'
'重要的是'
'里亞'
'途径_'
'选举委员会'
'适合_'
'退_'
'述_'
'这个地方'
'运_'
'边缘'
'躺'
'跑道'
'足球运动员'
'起来很'
'赶到'
'赫斯'
'资助'
'贪婪的'
'调_'
'该怎么'
'警察局_'
'論'
'調'
'要素'
'裙子'
'被抛弃'
'被扔'
'蔽'
'航空母'
'至少是'
'自由地'
'腰'
'脚印_'
'能看'
'联_'
'职业_'
'而是为了'
'羞'
'经过一'
'细微'
'红十字'
'索科'
'竞技'
'穆斯'
'科尼'
'眠'
'盒_'
'盒'
'皇后'
'的船'
'的电影'
'的日子'
'的命令_'
'畫'
'电_'
'生殖'
'甚至更'
'瑞克_'
'珍妮'
'猫咪_'
'狱_'
'特洛伊'
'牧羊人'
'活跃_'
'泵'
'注意到了_'
'波里'
'没有这'
'死的'
'死在'
'步枪_'
'欢迎_'
'椅子上'
'梦里'
'柜子里'
'柜_'
'枪手'
'来临'
'杜鹃_'
'有人说'
'更难'
'是指'
'是上帝'
'明斯克'
'明年'
'整个生命'
'放在了'
'撞了'
'排斥'
'指的'
'拉德_'
'拉到'
'抓了'
'把钱'
'技能'
'找到你'
'打印'
'我脑'
'我很好'
'我应该'
'我为什么要'
'成就'
'想说'
'惧'
'悼'
'性质_'
'念_'
'忠诚_'
'得上'
'干扰_'
'帕夫洛'
'市的'
'已经有'
'差异_'
'山脈_'
'尼尔'
'就跑'
'寺院'
'宽恕_'
'家长'
'审理'
'安然无恙_'
'姑娘_'
'妞_'
'她身上'
'她身'
'她认'
'她的眼神'
'太大'
'大区'
'多边'
'复仇'
'墙上_'
'塞雷'
'基督教_'
'地回'
'在神'
'在森林里'
'在最后一'
'在我们的'
'在意'
'在工作'
'在俄罗斯_'
'四周'
'和安'
'和国际'
'和M'
'吃的'
'史密斯_'
'只看'
'古斯塔夫'
'发送'
'卡斯特'
'包里'
'包括_'
'劃分的'
'前几'
'出租车'
'几何'
'做得'
'值得_'
'你怎么知道'
'但这种'
'传单'
'伊特'
'令人遗憾'
'他们几乎'
'他们一'
'仔细观察'
'了解他'
'买家'
'九十'
'主权'
'主张'
'中的一'
'中充'
'两张'
'上面_'
'ыла'
'шоу_'
'человеческой_'
'хте'
'хра'
'фици'
'федеральн'
'уска'
'уна_'
'увидит'
'тым_'
'трениров'
'тона_'
'тила'
'стск'
'строк'
'строе'
'сотрудники_'
'содержащ'
'согласн'
'скрыл'
'сказа'
'сестры_'
'светом_'
'свежи'
'салон'
'рыно'
'рту'
'рассчитыва'
'различи'
'разговора_'
'работой_'
'проходи'
'протокол'
'программа_'
'прови'
'пробе'
'присутств'
'принятия_'
'праве'
'послал'
'пораж'
'помнил'
'полёт'
'получаю'
'положил_'
'полковник_'
'погибш'
'поверхности_'
'перев'
'ощущения'
'основных_'
'описыва'
'онных_'
'окол'
'одет'
'овени'
'обещал_'
'обеспечени'
'нервн'
'невин'
'нача'
'натур'
'нару'
'наг'
'мира'
'менно'
'международного_'
'международно'
'машин_'
'любят_'
'ламент'
'крути'
'крестьян'
'конце'
'кас'
'ицей_'
'искренн'
'институт'
'игрок'
'ивают'
'ивал_'
'зуба'
'зами'
'жено'
'енско'
'енности_'
'ельный_'
'ед_'
'дёт_'
'дь'
'духов'
'дурн'
'думаете_'
'донос'
'диз'
'гум'
'грязн'
'готова_'
'городски'
'голубы'
'гир'
'вшейся_'
'вплот'
'вошел_'
'восприяти'
'вопрос'
'вова'
'внешн'
'вдал'
'вариант_'
'боч'
'большом'
'больно'
'бешен'
'арь_'
'ари_'
'азн'
'авлива'
'Хил'
'ХА'
'Фели'
'Та_'
'Смерт'
'Самы'
'Пол_'
'Подн'
'Пекине_'
'Нина_'
'Национальн'
'Напомним_'
'Михаила_'
'Мех'
'Клар'
'Казалось_'
'Игра'
'Зато_'
'Зат'
'Запо'
'Герман'
'ГЛ'
'ГЕ'
'Встре'
'Вл'
'Весь_'
'Больши'
'Ассамбле'
'» (_'
'zon'
'work'
'vić'
'try'
'ton_'
'sig'
'onic'
'lish'
'ire'
'inu'
'gir'
'enko'
'eme'
'els'
'berg'
'aya'
'ath'
'XV'
'Vis'
'Uni'
'Tam'
'Petrov'
'Microsoft_'
'Fir'
'ED'
'David_'
'DI'
'AD'
'1月_'
'1959'
'10分'
'......'
')(_'
'    '
'驼'
'飓风'
'频道'
'频繁'
'非常重要'
'非常严'
'静静静'
'闻着'
'门前'
'长途'
'长时间的'
'镜子里'
'铁丝网_'
'这类'
'过时'
'辛苦_'
'转让'
'身着'
'跪在'
'趾'
'赐_'
'贵宾'
'让女'
'西藏'
'被摧毁_'
'被人'
'衣橱'
'蒸'
'菲爾'
'莎拉'
'苏维埃社会主义共和国'
'膨胀'
'能力的'
'组建'
'維_'
'等你_'
'第二天早'
'立场_'
'空的'
'离开我'
'看法'
'看到这'
'盲目'
'的立'
'的总'
'的思'
'的微'
'的干'
'的巴'
'的士兵'
'的城'
'的上'
'的S'
'白雪'
'痴'
'界限'
'生病'
'生活和'
'现在她'
'爾特'
'熔'
'然后是'
'炉_'
'灰_'
'浪漫_'
'泊'
'汶'
'汉斯'
'民主主'
'步枪'
'枪声'
'权的'
'有点紧张_'
'有点_'
'最低'
'更大的'
'時間'
'是通'
'旦'
'无声的'
'斯泰'
'教你'
'救我'
'撫撫'
'摘下'
'提供_'
'探视'
'挽'
'振动'
'指引'
'拉米'
'把门关上_'
'把眼睛'
'打招呼_'
'手铐_'
'房间里_'
'房子里'
'或不'
'我老婆'
'我想起了'
'我十'
'我们自'
'我们和'
'恶化_'
'思想和'
'忽视了'
'座位'
'库拉'
'床垫'
'年世界'
'年1月'
'巴伦'
'已经结束'
'工程师_'
'届会议_'
'屆奧林匹克運動會_'
'尼古拉耶维奇_'
'将这'
'宪'
'宝贵的'
'它也'
'婚姻_'
'妈妈和'
'她手'
'失踪了_'
'大块的'
'外人'
'埋葬_'
'埋伏'
'坏的'
'地板'
'在这方面_'
'在某'
'在布'
'在实'
'圣马'
'圆_'
'国人'
'和长'
'和军'
'和儿'
'吵醒'
'否认_'
'向俄罗斯'
'吉姆_'
'合物'
'口头'
'口号'
'即将到来的'
'升级'
'勺'
'前景'
'别说'
'别告诉'
'利亞_'
'分歧'
'再见'
'冈_'
'其中_'
'免于'
'克爾'
'做好'
'修_'
'俄罗斯总统'
'你说过'
'你认'
'你只'
'体制'
'但所有'
'伯特'
'伊恩_'
'他的人'
'他怎么'
'于是我'
'乡下'
'也许我们'
'中流'
'中没有'
'不清_'
'不会有'
'一个强'
'　_'
'”(_'
'ёрд'
'ярк'
'экспо'
'эко'
'шно_'
'чност'
'чали'
'цветн'
'холм'
'ходя'
'ходит_'
'форд'
'учё'
'учитыва'
'утил'
'уникальн'
'узнала_'
'удобно'
'увиди'
'убра'
'тянул'
'тра_'
'тни'
'тие'
'тельс'
'твоем'
'тверд'
'тать_'
'тайно'
'съезд'
'стоило_'
'стни'
'смотри_'
'скв'
'ситуаци'
'систем_'
'сзади_'
'свето'
'самую_'
'рожде'
'риз'
'реформ'
'расширени'
'рассказыва'
'расскаж'
'расположенн'
'протяжении_'
'приходи'
'приступи'
'принос'
'представитель_'
'предполага'
'постели_'
'посл'
'порт_'
'понятн'
'подн'
'пну'
'перей'
'пач'
'относя'
'остр'
'осп'
'особн'
'оров_'
'оран'
'оказать'
'обнаружен'
'обл_'
'обзор'
'нциал'
'нуты'
'нская_'
'неот'
'неизвестно'
'независимо'
'находилась_'
'настоящ'
'напи'
'найден'
'моральн'
'метр'
'лч'
'лле'
'лихо'
'лифт'
'лео'
'кусоч'
'куртк'
'коже'
'кате'
'картины_'
'кала_'
'кабин'
'йш'
'истинн'
'исключительно_'
'ирующ'
'ировали_'
'ио_'
'изы'
'измени'
'излуч'
'изби'
'зоны_'
'знам'
'зии_'
'зации_'
'захотел'
'жк'
'ездил'
'едова'
'едо'
'драм'
'должност'
'делов'
'действительност'
'действие_'
'девушке_'
'деб'
'двадцат'
'дают_'
'густо'
'горит'
'годо'
'гда_'
'выразит'
'выигра'
'встала_'
'военн'
'видео'
'взрыва'
'взор'
'величи'
'бург_'
'больницу_'
'бесплатн'
'бери'
'анов'
'алов'
'Яс'
'Шр'
'ЧА'
'Хоть_'
'Хм'
'Хл'
'Хиро'
'Фран'
'Фан'
'ФИ'
'Ся'
'Степан'
'Советск'
'Скажи_'
'СТА'
'Пит'
'Особенно_'
'Обл'
'Нью'
'Николаевич_'
'Небо'
'Национально'
'Наталь'
'Маша_'
'Лид'
'Ленин'
'Кана'
'Иосиф'
'Иисуса_'
'Иван'
'Иб'
'Жив'
'Долго'
'Дне'
'Гло'
'Валер'
'Бла'
'Бир'
'Архи'
'Артур_'
'vit'
'vid'
'ulat'
'tel'
'tea'
'stre'
'sb'
'q_'
'ppe'
'per_'
'oth'
'nti'
'ness_'
'nel'
'medi'
'li_'
'ić'
'iya'
'gm'
'gan_'
'fs15_'
'cl'
'cio'
'United_'
'Red'
'Pra'
'Phil'
'PR'
'Ky'
'HI'
'Der'
'Anatoly_'
'1958'
'1929'
'109_'
'鸟类'
'非常感谢'
'際'
'降至'
'间接'
'追逐'
'这些事'
'跨越'
'质疑_'
'财富_'
'谢谢你的'
'说话'
'说的那'
'说得对_'
'覺'
'西装'
'被用'
'被剥光'
'被剥'
'被刺穿_'
'表现_'
'行星_'
'血的'
'螺旋'
'蛤_'
'蕉'
'草案_'
'良_'
'自己和'
'自己去'
'腦'
'能不能'
'股票'
'羊毛'
'缓解'
'维奥莱'
'纳德_'
'第12'
'竹_'
'砖头'
'短暂'
'睡吧_'
'真实的_'
'看待'
'监控'
'皮带'
'皇室'
'的阿'
'的比'
'的感觉'
'的书'
'疑问'
'用途'
'玩意'
'猛烈的'
'犯错'
'然后冲'
'烧焦了_'
'演习'
'游泳池'
'海军_'
'洗了'
'法语'
'河里'
'汤姆'
'步伐'
'来一'
'村子'
'杀了我'
'曾经_'
'日至'
'日内瓦'
'无情'
'文斯'
'效的'
'政党_'
'搬迁'
'担保'
'托尼'
'战斗机_'
'我笑'
'我本'
'感到_'
'愚蠢'
'想让'
'悬崖上_'
'悉'
'德利'
'很温暖_'
'很明显_'
'引发'
'引_'
'年轻人的'
'年3月'
'希伯'
'帅'
'已经消失_'
'已经完'
'巧克力'
'尽全力'
'尼奇'
'就一'
'宽恕'
'安全地'
'她可'
'太迟了_'
'天花板上'
'大脑_'
'大不'
'地铁_'
'在马'
'在笑'
'在战'
'在地下'
'在其他'
'回事_'
'噩梦_'
'唱片_'
'和波'
'和时间'
'听到了_'
'君士坦丁'
'向下'
'后续'
'同性'
'吉尔吉斯'
'各位_'
'吃饭'
'叛国'
'变得非常'
'变形'
'又发'
'去哪里_'
'单身'
'协定'
'医务'
'加工'
'割断'
'前面的'
'刷'
'冷酷'
'六年'
'全都'
'內_'
'傑克'
'信封'
'侮辱_'
'你的意'
'但我们不'
'但A'
'休斯'
'们一'
'他的嘴'
'他往'
'他听到'
'从第'
'从口袋里'
'什么意思_'
'亲近'
'亮光'
'交易所'
'亚诺'
'为她'
'个地方'
'下楼_'
'一方面_'
'一个大'
'一个令人'
'€'
'ёш'
'яни'
'яде'
'ыгнул'
'щаю'
'шах'
'часте'
'ходим'
'ффи'
'фильма_'
'учреждени'
'упн'
'туч'
'темнот'
'суде'
'стул_'
'стойк'
'спрята'
'сохранить_'
'сохран'
'сотвор'
'составляет_'
'соглас'
'собе'
'следова'
'сиди'
'сделаю_'
'свидани'
'решать_'
'район'
'разум_'
'разрыв'
'размышля'
'развитию_'
'пято'
'пуска'
'прята'
'проч'
'противоречи'
'промышленно'
'происходило_'
'продолжил'
'принял'
'прико'
'предло'
'последнего_'
'поси'
'помест'
'полном_'
'полез'
'поздрав'
'пожалуй_'
'подальше_'
'пили'
'перепис'
'передал'
'перебр'
'очевидно_'
'официальны'
'относит'
'орден'
'орат'
'опл'
'озера_'
'огромным'
'овыва'
'обож'
'нова'
'низк'
'непос'
'народно'
'местност'
'ментал'
'ляци'
'любовью_'
'ландск'
'крив'
'копа'
'ицк'
'испыта'
'использован'
'исполни'
'интернет_'
'илет'
'икаци'
'игн'
'здоровье_'
'зви'
'захвати'
'записа'
'зана'
'забира'
'ждали_'
'жало'
'ечен'
'ере_'
'ельны'
'елин'
'дши'
'драгоценн'
'добав'
'деревни_'
'делает'
'действовать_'
'горяч'
'головн'
'глупо'
'гара'
'выключ'
'всяки'
'впо'
'вп'
'возник'
'военной_'
'видимо'
'верны'
'вера_'
'венно'
'бэ'
'бутылку_'
'бассейн'
'арг'
'ани_'
'аку'
'Хочешь_'
'Уп'
'Турции_'
'Толст'
'Справ'
'Собо'
'Симф'
'РИА_'
'ПЛ'
'Новая_'
'Нил'
'Ника'
'Мысл'
'Мое'
'Ков'
'Кло'
'Йорк_'
'Истин'
'Ирина_'
'Зай'
'Ер'
'Дела'
'Газ'
'Википедия_'
'Великой_'
'ВН'
'Быт'
'Брай'
'vu'
'use_'
'urg'
'uar'
'tal_'
'spa'
'sion_'
'sing'
'ria_'
'rest'
'mini'
'mina'
'mag'
'iana'
'essa'
'ela'
'bat'
'Sn'
'Sand'
'Moroz'
'Leonid'
'Kam'
'Fro'
'Den'
'Cent'
'; )'
'600_'
'228'
'210'
'. .'
'): _'
') (_'
'， “_'
'퓂'
'龜'
'龌龌_'
'鱷'
'马赛'
'马德'
'马丁_'
'驅'
'馬丁'
'食者'
'频道_'
'顿涅茨克'
'顶上'
'隔壁_'
'都必须'
'邀请他'
'递'
'连串'
'这件事'
'这一事'
'辩论'
'车队_'
'蹤'
'跟那'
'跟着他'
'跟别人'
'起的'
'贵的'
'负_'
'读到'
'详细地'
'警探'
'言语'
'视着'
'褐'
'被撕'
'被拖到'
'被动'
'蚤_'
'舌头'
'自行车'
'胡闹_'
'胡_'
'翼_'
'缝纫'
'维拉'
'绝望'
'纳维'
'纳的'
'精灵_'
'管理人'
'窑'
'离开他'
'福祉'
'眼的'
'眉'
'直截了当'
'的黑暗'
'的预'
'的运'
'的评'
'的血'
'的虚'
'的笑'
'的形式'
'的典'
'瘫痪'
'留在这里_'
'申请_'
'甚至在'
'理性'
'玻利'
'灣_'
'满_'
'游客_'
'渗透_'
'渊'
'消极'
'活力的'
'注意的'
'沼泽地'
'没有我'
'沙皇'
'毕业后'
'死刑_'
'棵树'
'档案_'
'東京'
'杰_'
'杯酒'
'来访_'
'机上'
'有才华'
'是对的_'
'是关于'
'日记_'
'摩托车'
'摔下来_'
'拿走'
'扭转'
'扩张'
'我还没'
'我爬'
'我冒'
'成熟的'
'應該'
'意识到自己'
'当时他'
'弗兰克_'
'开设'
'幅_'
'希斯'
'市镇'
'已經'
'已成为'
'山上'
'屏幕上_'
'小型'
'将成为'
'封闭'
'室里_'
'室里'
'她笑'
'她家'
'她几乎'
'她一直'
'女士们'
'失去的'
'夫妻'
'大火'
'多大'
'多多'
'埃文'
'地说'
'在网'
'在社'
'在沉'
'在半'
'在几'
'和技术'
'和恐'
'和E'
'和C'
'台上'
'反驳_'
'友好'
'叉子'
'又回'
'势力_'
'副手'
'制作_'
'则在'
'切爾'
'出生的'
'出售_'
'典_'
'其次'
'兰德'
'克里姆林'
'克特'
'光线'
'兄弟会'
'像往常一样'
'假装_'
'倒塌'
'修订'
'保管'
'体育_'
'传来'
'他醒'
'从大'
'仍然存在'
'人一样_'
'交_'
'亞歷山大_'
'亚美尼亚人'
'了一只'
'书上'
'九年'
'中将'
'个孩子'
'不符'
'不清楚_'
'三层'
'ёны'
'яюще'
'янн'
'экипаж'
'ыки'
'шут'
'шив'
'царе'
'цам_'
'финансово'
'фель'
'уютн'
'устроит'
'ург_'
'уму'
'умол'
'тщ'
'трога'
'точку_'
'теории_'
'тень_'
'телу_'
'счастью_'
'существенн'
'структуры_'
'строител'
'стоящ'
'стабильн'
'спрос'
'спрашивал'
'солнечн'
'смело'
'сгор'
'связа'
'светлы'
'сведени'
'свали'
'сбе'
'рог'
'регулярно'
'рги'
'рга'
'разреш'
'пункто'
'противоположно'
'провинция_'
'приятно'
'причина_'
'припа'
'приде'
'преданн'
'превосход'
'права'
'потом'
'понимаю'
'полков'
'покида'
'поговори'
'пленн'
'пламен'
'перекл'
'передач'
'ошен'
'очка'
'оценива'
'отключ'
'орит'
'ожн'
'огромное_'
'оба'
'нут_'
'нож_'
'ничем_'
'нер_'
'недоумен'
'недост'
'начинают_'
'нач'
'научить'
'надое'
'набор'
'мош'
'мно'
'металлическ'
'место'
'лока'
'лоб_'
'лизи'
'ленный_'
'ленд_'
'лаб'
'крепки'
'км'
'ключе'
'китайск'
'квартал'
'ителя_'
'историческ'
'институт_'
'ило'
'ико_'
'ие'
'зни'
'здн'
'звали_'
'заци'
'заключается_'
'жки_'
'железны'
'дун'
'доче'
'дон_'
'двойн'
'дано'
'дава'
'группу_'
'глуб'
'выражение_'
'выйде'
'вшее'
'встре'
'вооруж'
'взглянул_'
'ванно'
'важне'
'болта'
'боли'
'боко'
'бод'
'асн'
'арабск'
'адр'
'ЧИ'
'Там'
'Согласно_'
'Сло'
'Скоро_'
'Светлана_'
'Сб'
'Русско'
'Путин_'
'Про_'
'Пора'
'ОД'
'Николая_'
'Нам'
'Мог'
'Лам'
'Испол'
'Индо'
'Дорог'
'Дин'
'Двор'
'Даш'
'Гражданск'
'Вп'
'Африка'
'Алекс'
'ü'
'vis'
'two_'
'sla'
'pris'
'pir'
'nor'
'nka'
'med'
'look'
'idi'
'eas'
'doc'
'dem'
'dal'
'come_'
'chy'
'cam'
'burg'
'bes'
'anc'
'Tele'
'Sho'
'Sergee'
'Ren'
'Nor'
'Nin'
'Mart'
'II'
'FFFF'
'Eric'
'Ell'
'Chin'
'Cher'
'Alekse'
'50年'
'222'
'204'
'1983'
'1976_'
'1975'
'1971'
')}_'
'！ -'
'骚'
'马哈'
'马克斯_'
'香肠_'
'领带'
'面部'
'雪茄_'
'險'
'阴影'
'防空'
'闪烁'
'锐'
'遭受了'
'遇到了'
'遇_'
'逆'
'退缩_'
'这显然'
'这个故事'
'贪婪'
'貴'
'调查人员'
'诺夫哥罗德'
'许可证'
'被拖走_'
'被击中'
'街对面'
'蟹'
'蒿_'
'蒂诺'
'蒂姆'
'航空公司_'
'聚集在一起_'
'联合国系统'
'职位'
'考试_'
'美貌'
'缺陷_'
'缩小'
'线人'
'紧紧紧'
'競'
'称是'
'神职人员'
'破产'
'睡眠'
'眼镜'
'的马'
'的行为_'
'的网'
'的统治'
'的看法'
'的白'
'的母亲_'
'的专'
'白天_'
'症状'
'用手指'
'焚烧'
'澳洲'
'演变'
'游行_'
'渠道'
'泰勒_'
'注定要'
'泡泡泡'
'没有他'
'气温'
'毒素'
'歌声'
'杀了你_'
'最重要的_'
'最大努力'
'暗的'
'智利_'
'是可以'
'旱'
'斯诺'
'文化的'
'敲门'
'救出来_'
'搏'
'提斯'
'描述_'
'投诉'
'打死'
'手握'
'所以才'
'房舍'
'我觉得你'
'我建议'
'我家_'
'我们家'
'恐怖分子'
'怨恨_'
'御'
'影响力'
'庞大'
'已经崩溃了_'
'已开始'
'工人_'
'尽管他们'
'就应该'
'就像她'
'尔塔'
'对我们来说'
'富人'
'家园_'
'官员_'
'安息_'
'学位_'
'委托'
'始于'
'夷'
'头颅_'
'大脚'
'大叔'
'塔尔_'
'坦尼'
'在索'
'在死'
'在各'
'囚禁'
'哀悼_'
'咖啡馆_'
'和科'
'和现'
'和方'
'和B'
'可以看到'
'只有那些'
'只有他'
'受到伤害_'
'取代了'
'友好的'
'却无'
'卡巴'
'卖方'
'出路_'
'冬天'
'再生'
'兴奋_'
'光学'
'先知_'
'傻子_'
'催'
'做爱_'
'俄罗斯人民'
'但正'
'但无'
'但我想'
'似乎在'
'伤害了'
'会见'
'会来'
'伊格纳'
'们是'
'他的父'
'他的朋友'
'他们想'
'他们将'
'他之'
'亲戚_'
'亚历'
'了电'
'么说'
'主的'
'两个_'
'不起'
'不平'
'上发'
'》 '
'”，“_'
'яйц'
'явши'
'ьба_'
'штурм'
'шаги_'
'шав'
'член'
'четырех'
'цид'
'целя'
'хорошая_'
'хитро'
'форму_'
'ухо_'
'урож'
'управлени'
'упи'
'улыбка_'
'улирова'
'ук_'
'удивительно_'
'тист'
'тика'
'тени'
'темноте_'
'творени'
'суж'
'столкн'
'ственно_'
'среду_'
'справедливост'
'сообщение_'
'собирать'
'снять_'
'сиро'
'симпати'
'самим_'
'родился_'
'риа'
'решит'
'распространя'
'разреши'
'разгр'
'рабо'
'пч'
'прото'
'простор'
'приём'
'прише'
'приведе'
'приб'
'преобраз'
'прекрасн'
'предсказ'
'поцеловал'
'помога'
'получив'
'полка_'
'политик'
'показывает_'
'позвал'
'подчеркну'
'подойд'
'подозрева'
'пога'
'писал'
'персонал'
'педа'
'пать'
'пало'
'отцом_'
'осит'
'нови'
'нности_'
'нехо'
'неодно'
'некоторым'
'неис'
'негр'
'началась_'
'намерени'
'мь'
'мыслей_'
'мух'
'муниципал'
'мн'
'министерств'
'милост'
'мете'
'месяц'
'мелоч'
'март'
'магазин_'
'лёгки'
'лог'
'лист_'
'лест'
'лежала_'
'йти_'
'интегр'
'има_'
'ильск'
'илов'
'иги'
'знакомств'
'земн'
'запом'
'закрыл_'
'закона_'
'зака'
'заз'
'забыть_'
'живым'
'еро_'
'ениям'
'елон'
'ези'
'дря'
'довольн'
'длинно'
'длив'
'дим'
'детям_'
'дари'
'гана'
'гает_'
'выяснил'
'вытяну'
'выска'
'выразил'
'выпуск'
'выгод'
'входя'
'входит'
'вторых_'
'вска'
'вселенной_'
'воп'
'волнова'
'возро'
'возникн'
'возможностей_'
'включил'
'вилл'
'взял'
'вей'
'важное_'
'бюро'
'бс'
'берег'
'аэро'
'ашива'
'астр'
'аналоги'
'Чита'
'Хуан'
'Хаб'
'Фед'
'ФС'
'Ура'
'Трен'
'РГ'
'Послушай_'
'Побед'
'ПОЛ'
'Осе'
'Олег'
'Одни'
'Над_'
'Медвед'
'Кэт'
'Компани'
'Комм'
'Кав'
'Интерфакс'
'Зол'
'Закон_'
'Габ'
'Бек'
'Бад'
'Африки_'
'Александров'
'Адам'
'á'
'take_'
'ovic'
'ot_'
'mul'
'most_'
'ght'
'enti'
'ella'
'cap'
'bot'
'ata'
'ai_'
'Whe'
'Ura'
'Semyon'
'Semen'
'Q_'
'ID'
'IA'
'HT'
'HR'
'GNU'
'Fran'
'CN_'
'CI'
'Alic'
';;;'
'6个'
'1953'
'* *_'
'' _'
' № _'
'룶'
'魔鬼_'
'鬥'
'骤'
'驾驶_'
'驱动'
'颍颍'
'靠_'
'非常清'
'队伍_'
'阀'
'问题上'
'里希_'
'郊'
'那帮'
'那只'
'邀请_'
'通道'
'迷失了'
'这确实'
'达的'
'赞助'
'赛季'
'赚了'
'让所有人'
'让所有'
'认真的'
'警察局'
'謝_'
'装饰'
'装满了'
'被淹'
'薯'
'脑袋里'
'肯定会'
'而我却'
'者将'
'群体_'
'群众'
'缠'
'维纳斯'
'绝望的'
'纳尔'
'碘碘'
'的音乐'
'的错'
'的角落'
'的西'
'的经验'
'的灰'
'的椅子'
'的枪'
'的婚'
'的坚'
'的呼声'
'的准'
'的公司'
'界定'
'画像'
'由_'
'理智_'
'玩的'
'狩猎'
'潜意识'
'滴_'
'消费者'
'海外'
'洗手'
'洁_'
'河岸'
'沉_'
'气候变化'
'毫米_'
'毫'
'毕竟'
'毕业生'
'此时_'
'止_'
'查理'
'杀了他_'
'有人问'
'有些东西'
'旅途'
'斯普'
'教室'
'教员'
'擦伤_'
'抱抱抱'
'报道了'
'护照'
'抛'
'所能'
'我明白_'
'我如'
'我告诉过你_'
'得太'
'徒劳'
'弗雷德里克'
'开玩笑'
'平台'
'带着一'
'希腊人'
'希腊_'
'希特'
'容忍_'
'安静地'
'好起来的_'
'好事'
'她们的'
'奶酪_'
'夜夜'
'多利'
'坠毁_'
'坐了'
'在阳光'
'在晚'
'在德国'
'在开'
'在学'
'在外'
'品牌'
'和预'
'和海'
'和水'
'和P'
'和I'
'周日'
'吻_'
'吵架_'
'听到_'
'向大'
'名的'
'吃早饭'
'司法部'
'可以自'
'叛徒'
'又一个'
'厄_'
'即使我'
'印第安人'
'印第安'
'卢克'
'匕首'
'勃_'
'加利福尼亚'
'前面有'
'前4'
'刑事案件'
'冷淡'
'决_'
'冬季奧運'
'冬奧會_'
'兹的'
'关切_'
'倡议_'
'侄子'
'你确'
'你没事'
'但这是'
'但无法'
'但情况'
'伪谓伪谓伪谓伪'
'份的'
'件好事_'
'以为自己'
'他通'
'他脸'
'他总是'
'他停'
'他们并'
'从哪'
'人們'
'人们总是'
'亞歷山'
'乌拉'
'之路_'
'之旅_'
'不确定'
'不满意'
'不幸_'
'不允许'
'上撒'
'一度'
'一代'
'яются_'
'ятно_'
'ягод'
'юридическ'
'эле'
'ьен'
'ыто'
'щ_'
'штата_'
'шай'
'чон'
'чаю'
'хала_'
'хав'
'фы'
'фестивал'
'ующих_'
'успокаива'
'усме'
'упала_'
'уваж'
'убийство_'
'трой'
'требует_'
'тив_'
'текущ'
'тани'
'сюр_'
'сторона'
'средни'
'сражени'
'сохранил'
'слышу_'
'сказано_'
'сель'
'сели'
'сдержа'
'сапог'
'ряда'
'рп'
'размещ'
'проявлени'
'процессе_'
'процент'
'профил'
'противник'
'промы'
'производи'
'продл'
'призыв'
'прижал'
'прибе'
'почита'
'почв'
'потолк'
'постоя'
'порой_'
'популярн'
'политика_'
'позади_'
'подч'
'пого'
'погляд'
'повес'
'перспектив'
'паспорт'
'отобра'
'отвлек'
'ответи'
'особенн'
'опыта_'
'опт'
'оконч'
'обыч'
'объяти'
'ныне_'
'нку_'
'ните'
'никак'
'незаметно_'
'независимост'
'невероятно_'
'назвал_'
'морской_'
'мелоди'
'логик'
'лнова'
'литературн'
'лине'
'лика'
'лз'
'кусок_'
'косну'
'колледж'
'киш'
'кис'
'кг'
'карты_'
'йг'
'ища_'
'испол'
'информа'
'изучени'
'измен'
'излож'
'изво'
'зы'
'зол'
'зерн'
'здоровья_'
'засн'
'запе'
'западно'
'занимался_'
'закру'
'заключи'
'жертва'
'жем_'
'ждала_'
'ерско'
'ельной_'
'евал'
'дошл'
'домашни'
'динами'
'девочку_'
'дверью_'
'дак'
'голь'
'говори_'
'выми'
'выд'
'выборо'
'вско'
'всеобщ'
'восстанови'
'ворот_'
'воо'
'вони'
'воен'
'водитель_'
'виш'
'висим'
'взм'
'веш'
'вертол'
'блик'
'беру'
'балл'
'арест'
'ального_'
'але'
'абс'
'аба'
'Сердц'
'Родин'
'Прост'
'Председатель_'
'Похоже_'
'Петербург_'
'Оче'
'Открыт'
'Обычно_'
'Ню'
'Надежд'
'Могу'
'Михайлов'
'Лек'
'Культ'
'Крыму_'
'Европ'
'Гул'
'Выпускники_'
'Всев'
'Витали'
'ВВ'
'Бед'
'Бег'
'Африке_'
'Афганистан'
'Анг'
'Акт'
'y的'
'xo'
'tta'
'rich'
'oa'
'nis'
'mn'
'ik_'
'ides_'
'gov'
'fri'
'fil'
'evic'
'emb'
'ction'
'cla'
'cia'
'again'
'Us'
'Michael'
'M2'
'Lit'
'Kaza'
'EV'
'Bab'
'212'
'2020年'
'1969'
'1967'
'1923'
'141'
'132'
' ;'
'麻_'
'颓颓'
'领土上'
'霍夫_'
'金色的_'
'都过去了_'
'都会被'
'都_'
'那儿'
'遺'
'這些'
'这是不'
'边说'
'辑_'
'软弱'
'转达'
'路口'
'趴'
'足球甲'
'走近'
'购买_'
'買'
'谁也'
'请允许我'
'说明了'
'试图把'
'識'
'見過'
'要求我'
'西亞_'
'被砍掉'
'被杀_'
'蝶_'
'藏匿'
'船上_'
'舒适'
'胜利的'
'肿'
'而这种'
'羞耻_'
'羊群'
'维耶'
'细节'
'竞争对手'
'私营部门'
'硬币_'
'短裤'
'瞎'
'真空'
'的阴影'
'的词'
'的组'
'的生物'
'的环境'
'的父母'
'的日'
'的收'
'的可能性'
'病情'
'疫苗'
'留下一'
'田地_'
'用拳头'
'瓦特'
'父亲和'
'爱他_'
'熟人_'
'热水'
'滤'
'消歧'
'浩'
'注意到了'
'武装部队'
'欺骗_'
'椅_'
'桶_'
'柠檬'
'染色'
'柏_'
'枯'
'条路'
'有用'
'有時'
'有时甚至'
'是S'
'是2'
'昨天_'
'方程式'
'斯加'
'敲敲'
'政府官员'
'撤退_'
'摇摇'
'推荐'
'接纳'
'捐'
'拿起'
'拿破仑'
'拥抱了'
'拖了'
'投了'
'托拉'
'打斗'
'打我'
'打到'
'打交道'
'才能_'
'手册'
'所谓'
'所以没'
'我的孩子'
'我用'
'我好'
'我头'
'我们得把'
'成千上万'
'慕尼黑'
'感到惊'
'悬挂'
'恒星'
'怎么做_'
'忙的'
'德维'
'干得好_'
'希望看到'
'希姆'
'已经_'
'已不'
'崔'
'岁的男'
'山区'
'局面_'
'尼茨'
'尼爾'
'尼泊'
'就像你'
'少了'
'小小小小'
'小卒'
'家门_'
'实施_'
'定居_'
'它们是'
'娃娃_'
'妹'
'妈妈的'
'如果是'
'她经常'
'她母亲'
'大街'
'基里'
'在集'
'在门前'
'在野'
'在自己'
'在游'
'在地板上'
'在发'
'团的'
'喊着_'
'哭着哭'
'哭着'
'和谐_'
'和基'
'和圣'
'和R'
'吸引人'
'吸取'
'听到他'
'吃晚饭_'
'号码'
'叫我_'
'只有你'
'又出现了'
'卷_'
'刺青_'
'创造性的'
'出生于'
'出來'
'兹尼'
'具体的'
'克萊'
'像那'
'傻逼_'
'俗_'
'使她'
'使他们'
'你的生'
'你父亲'
'佐夫_'
'但我却'
'但即'
'但为了'
'会怎'
'伊凡诺'
'令人鼓舞'
'他必'
'他们认为'
'人已'
'亲眼'
'五分钟_'
'了吧_'
'两年期'
'东西都'
'东西可以'
'不要把'
'不一样'
'下雨_'
'一枪'
'一方'
'一会儿'
'一个高'
'〓_'
'」'
'「_'
'ёг'
'ялась_'
'юи'
'щики_'
'чут'
'цивилизаци'
'ценны'
'цена'
'хс'
'хода'
'ущ'
'уль_'
'ужасно_'
'уда_'
'тёмн'
'тят'
'тыс_'
'тропи'
'точка'
'тект'
'татар'
'столу_'
'стать'
'старост'
'среды_'
'спя'
'соф'
'собственно_'
'собака_'
'слез'
'скуча'
'связан'
'рисова'
'редки'
'рассказывал'
'рассвет'
'распу'
'рако'
'размера'
'пятьдесят_'
'пятнадцат'
'пряч'
'протя'
'произво'
'пригод'
'почк'
'похож_'
'поти'
'пострада'
'постоянно'
'поставить_'
'пост_'
'попыта'
'показан'
'познани'
'подробност'
'подзем'
'подарк'
'погруж'
'платформ'
'плана_'
'пид'
'пи_'
'петербур'
'пера'
'отчаянн'
'отозвал'
'отношению_'
'отал'
'освобожд'
'освободит'
'окон'
'ожидае'
'огов'
'ович'
'объяв'
'обнима'
'нужно'
'носител'
'невозможн'
'находил'
'настроени'
'настояще'
'население'
'народу_'
'наки'
'мужик_'
'мужем_'
'моро'
'мерт'
'мгновен'
'льни'
'лел'
'лал'
'лайн'
'куск'
'куро'
'крупн'
'клуба'
'китайско'
'кел'
'картину_'
'каменны'
'йствова'
'йп'
'использование'
'исо'
'индивидуальн'
'имею'
'избирател'
'иды_'
'зь_'
'зрел'
'здо'
'звуч'
'заявля'
'записк'
'запад'
'заняти'
'заметно_'
'живущ'
'еты_'
'етск'
'ема_'
'еврейск'
'дня'
'дите_'
'дит_'
'дик'
'дизайн'
'данном_'
'границы_'
'глупост'
'гард'
'вых'
'выра'
'вую_'
'второ'
'вспомнить_'
'временно_'
'вздохнула_'
'версии_'
'ведущи'
'вашу_'
'бодр'
'близо'
'ближайши'
'беспре'
'бей'
'башк'
'бабушк'
'аше'
'Член'
'Тако'
'Сь'
'Спорт'
'Сле'
'Слава_'
'Сити_'
'Сиг'
'Семён'
'Рум'
'Роза'
'Реб'
'Петра_'
'Окт'
'Нижн'
'Наб'
'Мод'
'Мише'
'Марш'
'Лена_'
'Константино'
'Ири'
'Инг'
'Еле'
'Дре'
'Дж'
'Гэ'
'Гай'
'ГР'
'Выбор'
'Вооруж'
'Волг'
'Васильевич_'
'Британ'
'Белы'
'Афин'
'Ата'
'Абд'
'xa'
'ws_'
'with'
'tw'
'though'
'sus'
'plan'
'org'
'km'
'itu'
'iro'
'inst'
'ferop'
'end_'
'ds'
'chr'
'YTET_'
'Vir'
'State'
'Max_'
'God'
'Gan'
'GB'
'3cH'
'360'
'350'
'31日_'
'217'
'1991年'
'1913'
',.. '
' -'
'） -- -- _'
'컒쏇'
'쯽'
'만'
'늻'
'马科'
'面有'
'阶层'
'醒'
'部落_'
'遮住'
'道上'
'选票'
'过他'
'车被'
'趋势_'
'起诉_'
'赠'
'该走了_'
'该法'
'试图将'
'论点_'
'說話'
'裡_'
'被视为'
'被砍了_'
'被涂'
'被封'
'袖子'
'衣橱里'
'衡量'
'螝'
'董事'
'萨德'
'舟'
'羞辱_'
'美丽_'
'罗尼'
'網路'
'約翰'
'粗俗'
'等于'
'穿上衣服_'
'科的'
'神父_'
'碧'
'看过'
'相关_'
'直升机_'
'目的地'
'的阴暗'
'的部'
'的航'
'的能'
'的纸'
'的某'
'的数量'
'的客'
'的学生_'
'的国际'
'的中心_'
'疑虑_'
'畢'
'画了一'
'现在还'
'爱因斯坦'
'爬起来'
'照相'
'然后离开_'
'然后离开'
'点什么_'
'清_'
'海因'
'沾满'
'河的'
'没有一个'
'沃伦'
'池塘'
'水泥'
'气了_'
'正_'
'榮'
'格奥尔基'
'树林里'
'柴油'
'极限_'
'来找我_'
'杀害_'
'有血'
'最近_'
'暖气'
'是真的_'
'是世界'
'明星'
'无声无息'
'方向走'
'斯巴'
'教派_'
'救命'
'摩_'
'排练'
'挑衅_'
'拉伊'
'把女'
'打猎_'
'手里'
'所有这些都'
'我确'
'我受'
'很温柔_'
'弄清'
'工作人员_'
'屏幕上'
'小兔子'
'对我_'
'寧_'
'宣传_'
'孩子都'
'学会_'
'妈妈在'
'她不知道'
'奥斯曼'
'失误'
'失去_'
'夫拉'
'太多的'
'天后'
'复活'
'声明'
'堵塞'
'场地_'
'地盘_'
'在波'
'在新的'
'在五'
'在乎'
'在199'
'国籍'
'喊道_'
'和热'
'和德'
'和分'
'否则我'
'叶_'
'双重'
'却把'
'卖家'
'動_'
'加尔_'
'到下'
'创造者_'
'冰块'
'军人_'
'修补'
'修复'
'信托'
'保持冷静_'
'佩蒂'
'你就是'
'但必须'
'但她不'
'伸出了'
'令人感'
'他解释'
'他离开'
'他的心'
'他的家'
'他的同'
'他同'
'人類'
'二世'
'了房'
'了A'
'也不能'
'乌_'
'之家'
'丹尼尔'
'不信'
'上帝是'
'上帝不'
'上大'
'三维'
'一股'
'яю_'
'этажн'
'этаж_'
'щил'
'шите'
'шанс'
'чудовищ'
'часов'
'фли'
'ущен'
'трудов'
'тран'
'тишина_'
'тительн'
'тащи'
'сур'
'стремлени'
'стои'
'степ'
'стадион'
'сона_'
'собственност'
'слышит'
'следовал'
'след_'
'сили'
'сексуал'
'рян'
'рядо'
'рук'
'ртв'
'романти'
'родит'
'рил_'
'реф'
'ращ'
'рафи'
'рассуд'
'разы'
'различные_'
'равн'
'пье'
'проц'
'проникн'
'привлеч'
'представителя'
'появлени'
'последствия_'
'последним'
'посети'
'поражени'
'показали'
'подобра'
'подбор'
'погиб_'
'поверхност'
'повернулся_'
'побл'
'плоск'
'отпуска'
'оставл'
'основной_'
'онно'
'одеял'
'объекта'
'обус'
'обрет'
'нш'
'нф'
'ного'
'нога'
'нигде_'
'нераз'
'неправильн'
'находит'
'насла'
'набрал'
'мые_'
'муже'
'мато'
'лянул'
'ляд'
'льство'
'лучших_'
'логическ'
'лейтенант_'
'ланди'
'кошмар'
'корол'
'конкурен'
'комната'
'код_'
'кнут'
'кид'
'иями_'
'инспек'
'инду'
'имена'
'изображен'
'знакомый_'
'зия_'
'земл'
'зашл'
'захл'
'законн'
'задача_'
'заговор'
'загадочн'
'живы'
'живу_'
'жет_'
'етическ'
'емы'
'ельность_'
'добы'
'дино'
'дево'
'гриб'
'городско'
'голодн'
'газеты_'
'высок'
'выпить_'
'вул'
'ворота_'
'воло'
'воинс'
'вмеша'
'вку_'
'вечност'
'вернулись_'
'верить_'
'вдо'
'безус'
'безза'
'бедн'
'авш'
'ава_'
'ЭС'
'Хас'
'Фр'
'Фонтанк'
'Уче'
'Тама'
'Сун'
'Сту'
'Средн'
'Света_'
'Санд'
'Руд'
'Президент_'
'Попро'
'Повер'
'Пик'
'Перес'
'Ох_'
'Офиц'
'ОО'
'Ноб'
'Международно'
'Марии'
'Лучш'
'Лиз'
'Кё'
'Кр'
'Капитан_'
'ИЕ_'
'ЗН'
'Друго'
'ГБ'
'Антони'
'Австр'
'tat'
'see'
'say_'
'rd_'
'ops'
'omi'
'kan'
'ite_'
'hear'
'hai'
'fie'
'ern'
'elle'
'char'
'amp'
'They_'
'Sev'
'Petrovich'
'PO'
'One'
'Mis'
'Awa'
'Ara'
'900_'
'270'
'1964年'
'1954'
'1935'
'131'
'111_'
'109'
'.  '
'-=_'
'램'
'뗘'
'鸽子'
'鲜血'
'馬斯'
'领事'
'障_'
'院子_'
'阿丽'
'闻起来'
'闯进'
'问她'
'钩子'
'里斯_'
'醒来后'
'都以'
'那家伙'
'这比'
'这是第'
'轰'
'足球锦标赛'
'贴着'
'诉_'
'讹'
'让别人'
'讨论了'
'誰'
'說過'
'觉得有'
'被堵'
'蟲'
'虽然_'
'虛'
'虎_'
'蒂斯'
'草地上'
'茵'
'芬蘭'
'艾尔'
'膏'
'腰带'
'肺部'
'聚会_'
'联邦_'
'职能'
'置于'
'结盟'
'纳米'
'纪律'
'糖果'
'笔记本_'
'笔_'
'笑了一'
'突然发'
'离我'
'破了'
'睡梦'
'睜'
'真的很'
'看到他_'
'看你'
'直升'
'直到最'
'目睹'
'的衣服'
'的短'
'的步'
'的概念_'
'的森林'
'的样'
'的协'
'的关系_'
'生活很'
'獵'
'物种_'
'爱好'
'煎'
'潘_'
'海员'
'浮现_'
'流浪汉_'
'流出'
'活下来了_'
'没见'
'沟通'
'永久性'
'民国'
'毒药'
'死后_'
'正如我'
'欧元_'
'柿'
'查尔斯_'
'杀的'
'朱利'
'本来'
'最可怕的'
'星系'
'星期六'
'无罪'
'方的'
'新闻界'
'新的_'
'教徒_'
'教区'
'救世主_'
'支柱'
'控制的'
'拳头_'
'招待'
'抑郁'
'扔进了'
'打架'
'所有的_'
'所在_'
'我知道我'
'我的意思'
'我满'
'成了一'
'性质'
'快的'
'必须_'
'心情'
'德涅'
'建筑的'
'底下'
'应急'
'庆'
'年轻女'
'年至19'
'希拉'
'币_'
'工程_'
'对面的'
'对他来说'
'密特'
'实在'
'它已'
'它变'
'孤单_'
'姿态'
'如果你没'
'好像他'
'她眼'
'多年来'
'外貌_'
'处处'
'塞尼'
'基里尔'
'坚强'
'在尼'
'在场'
'在另一'
'在十'
'圣的'
'喻_'
'品质_'
'和斯'
'和整'
'和国家'
'听不到_'
'史密'
'可信'
'发作'
'参谋'
'厌恶'
'历史的'
'匿'
'匆'
'包围'
'助_'
'动态'
'前门'
'到那'
'别_'
'列克'
'准确_'
'克羅'
'先生的'
'傲'
'備'
'信仰的'
'但我还'
'但仍'
'伪装'
'伦斯'
'伤痕_'
'传言'
'伊娜'
'以上的'
'他显然'
'他意识到'
'他如'
'他在那里'
'他们说_'
'他们来'
'从地球'
'人将'
'亮的'
'亚特'
'了解我'
'也许在'
'也未'
'之夜_'
'主动'
'中得'
'个世纪'
'丘_'
'世世'
'专家组'
'不介意'
'上班'
'三明治'
'一词_'
'一些_'
'一个非常'
'一个男人'
'一个伟大的'
'яние'
'юду_'
'экск'
'ьского_'
'ывается_'
'щина'
'чувствует'
'чивы'
'чата'
'цил'
'художественн'
'хохот'
'хард'
'финал'
'фел'
'учёны'
'участвовал'
'установил'
'упомина'
'узи'
'тю'
'торговл'
'товарищ_'
'тный_'
'тельство'
'телег'
'танцева'
'существо_'
'средство'
'спус'
'справи'
'социальны'
'сохранени'
'совершил'
'собрались_'
'сложи'
'скорость_'
'сказан'
'скажем_'
'рукав'
'ровно_'
'ритм'
'ресс'
'революционн'
'рго'
'раль'
'разница_'
'разговаривал'
'развал'
'равит'
'работали_'
'прыж'
'просит'
'происходяще'
'проверить_'
'причиной_'
'присел'
'приняты'
'приняли_'
'признат'
'приводит_'
'преступно'
'посы'
'полюби'
'получит'
'получила_'
'положении_'
'полицию_'
'подстав'
'пл'
'паре'
'очередн'
'охраня'
'отражени'
'отом_'
'открывает'
'отд'
'остановит'
'овц'
'обрыв'
'обнаружили_'
'нуло_'
'нормальны'
'ническ'
'неизвестн'
'нежел'
'недостат'
'небесн'
'нашёл_'
'начальств'
'наслед'
'нанес'
'надпис'
'мота'
'молодеж'
'льски'
'лой'
'ложны'
'лка_'
'личи'
'лить_'
'лж'
'куста'
'кун'
'коренн'
'комитет'
'командова'
'команда_'
'клето'
'классе_'
'испугал'
'интернет'
'имет'
'иза'
'заплати'
'запах'
'западн'
'замор'
'жида'
'еси'
'доступа_'
'доставл'
'дой_'
'дого'
'десятилет'
'демо'
'действи'
'гуд'
'гостиниц'
'годах_'
'гимн'
'гидро'
'галс'
'вышло_'
'выпусти'
'встреча_'
'вруч'
'воплощ'
'виг'
'взросл'
'вб'
'больн'
'болезнь_'
'бет'
'безопасн'
'ахи'
'арны'
'ао_'
'анн'
'англи'
'Яг'
'Шах'
'ШЕ'
'Цин'
'Фридрих_'
'Фина'
'Урал'
'Уни'
'Уль'
'Труд'
'Сера'
'Россию_'
'Пт'
'Подожди'
'Парень_'
'Основн'
'Олимпиада_'
'Объ'
'Норвеги'
'Меч'
'Мартин'
'Люк'
'Лэ'
'Лау'
'Кош'
'Коб'
'Камен'
'Казан'
'Ильи'
'ИЗ'
'ЕР'
'Дере'
'Гн'
'Всем_'
'Бет'
'Баз'
'under'
'uch'
'tec'
'rma'
'ral_'
'omo'
'mont'
'lor'
'kt'
'ition'
'ish_'
'give'
'fn华文楷体_'
'fac'
'ence_'
'bul'
'Zl'
'Valentin'
'There_'
'TV'
'TU'
'Sarah'
'Reference_'
'Poly'
'Pal'
'Net'
'Matt'
'Interfax'
'Eve'
'All'
'206'
'15分'
'0分'
'..., _'
'":'
'". _'
' $'
'黄金_'
'鸭'
'高尚_'
'颋'
'面谈'
'霍斯'
'需要帮助'
'陸軍'
'防火墙'
'阁下'
'间谍'
'镇静'
'铁丝'
'野蛮'
'酶_'
'邏'
'運動會_'
'迷_'
'迫害'
'迪娅'
'进入了'
'这栋房子'
'这孩子'
'辜'
'辆汽车'
'辆_'
'轻易'
'跳下'
'起來'
'走得很'
'费利'
'谦'
'议员_'
'詞'
'解决了_'
'见证'
'西娅'
'西奥'
'被击败_'
'血清'
'蒂莫'
'落下'
'菊'
'莱德'
'茨基_'
'英勇'
'花花'
'舞台_'
'自己在'
'脚被'
'肋骨'
'聲音'
'聆听_'
'耶和华'
'维卡'
'给他一'
'线的'
'纸条'
'纳特'
'红军'
'維斯_'
'类型的'
'米莎'
'祥'
'瞬间'
'看这'
'看到他的'
'相当于'
'皮尔'
'的维'
'的科'
'的礼物_'
'的理由'
'的文章_'
'的意义'
'的低'
'的A'
'男爵_'
'甲板'
'用木'
'用了'
'瓊'
'理智'
'现了'
'环境的'
'狭窄'
'独裁'
'特人'
'熬'
'然后进'
'烦人_'
'火器'
'灌木_'
'淹没'
'涅夫'
'洛杉矶'
'注视'
'波多'
'没有结'
'沃德'
'求助_'
'水果_'
'氟'
'段时间_'
'残骸_'
'歧视_'
'條約_'
'案的'
'标签_'
'柏林_'
'来解'
'显现'
'是否有'
'时间内_'
'新教'
'教养'
'放在我'
'擴'
'提请'
'掠'
'捐款'
'拯救_'
'抹黑_'
'抱抱'
'手的'
'所言_'
'我曾经'
'我到'
'我们吃'
'想过'
'想到这'
'惊讶'
'归还'
'强硬'
'弗斯'
'开放_'
'度和'
'幸运'
'巴比'
'岗位'
'岁的女'
'山地'
'小提琴'
'寻找一'
'对一'
'宪章_'
'安卡'
'它被'
'姿'
'好玩'
'她出'
'她一'
'奥德'
'奥巴马'
'声的'
'塔玛'
'地带_'
'在远'
'在联'
'在温'
'在月'
'在左'
'在圣'
'在冬季'
'在伊'
'國家隊_'
'国会'
'喉咙_'
'和外'
'和克'
'名單_'
'司机_'
'另一些人'
'叔叔的'
'发育'
'卡羅'
'卡拉_'
'博里'
'加州'
'前所'
'前一'
'出来的_'
'冰块_'
'再次_'
'兽_'
'具备'
'关了_'
'公共汽车'
'充电'
'偿'
'你身'
'你的手_'
'住宅_'
'低估'
'以往'
'他身'
'他吃'
'争议_'
'了3'
'也这'
'也能'
'也看'
'乎_'
'之处'
'丰富的'
'中部'
'个好'
'世界观'
'丑闻'
'与自'
'与国'
'不应'
'不会让'
'不仅在'
'不为人知'
'下去'
'一面'
'一日'
'一如既往_'
'一个问题_'
'一个单'
'якобы_'
'энергию_'
'ьп'
'ыта'
'шестви'
'чья_'
'чное_'
'численно'
'ческим_'
'чен_'
'цкий_'
'царств'
'хозяйственн'
'хозяйк'
'хищн'
'халат'
'формировани'
'формир'
'фик'
'фигура'
'ушли_'
'учен'
'уходит_'
'успокоит'
'успева'
'улыб'
'узнав'
'удовольствие_'
'убор'
'тчи'
'тта'
'треп'
'терп'
'темн'
'телефону_'
'твоё'
'тво'
'тарн'
'сэ'
'существа_'
'суров'
'сумасшедш'
'стыд'
'строительства_'
'сторож'
'стихи'
'спу'
'социальных_'
'составе_'
'сообщи'
'сож'
'собирался_'
'смогут_'
'сли_'
'скими_'
'силах_'
'сена'
'сельс'
'северн'
'свободе'
'рч'
'рта_'
'рованн'
'ращени'
'рассказала_'
'распоряжени'
'разочарова'
'птицы_'
'простой_'
'проро'
'проповед'
'прозв'
'принимает_'
'примеру_'
'приказ_'
'приводи'
'предыдущи'
'пребывани'
'почувствова'
'поту'
'пообеща'
'поку'
'пойма'
'позволяю'
'пож'
'перенес'
'пато'
'парни_'
'очер'
'охраны_'
'отметил'
'отг'
'отверну'
'отбо'
'отби'
'осто'
'осень'
'орф'
'орожн'
'определи'
'оппозици'
'опла'
'оит'
'огляде'
'обществ'
'обращая'
'нут'
'нуне_'
'неудо'
'несчастны'
'нент'
'ненавид'
'немало'
'невероятн'
'начальника_'
'насы'
'наре'
'наив'
'названием_'
'молоде'
'минимум_'
'мем'
'маленько'
'магическ'
'лечени'
'крати'
'кнул'
'ким'
'каю'
'картина_'
'кава'
'использую'
'иер'
'заказа'
'забыла_'
'жка'
'живёт_'
'епа'
'енг'
'езд'
'дско'
'друзьями_'
'дороги'
'добрал'
'дерн'
'грустно'
'градус'
'готовить'
'горячи'
'гитар'
'вшую_'
'входа_'
'вошли_'
'вошла_'
'воскресенье_'
'волны_'
'вно_'
'вна'
'валя'
'больнице_'
'болезн'
'белые_'
'бах_'
'асто'
'асо'
'ардо'
'анци'
'анал'
'Ян_'
'ША'
'Храм'
'Тру'
'Том_'
'Тара'
'Таи'
'Смит'
'Серг'
'Премьер_'
'Премия_'
'Ник_'
'Нел'
'Наши_'
'Мё'
'Мона'
'Мои'
'Матери'
'Мастер'
'Летних_'
'Лед'
'Кристин'
'Крист'
'Камп'
'Игры_'
'Игна'
'Ж_'
'Елизавет'
'Джин'
'Вторая_'
'Времен'
'Браун'
'Астро'
'Ёси'
'ö'
'usi'
'und_'
'ual_'
'tm'
'sma'
'rh'
'pter'
'pra'
'place'
'oy'
'kn'
'jev'
'inv'
'ile_'
'ien'
'iden'
'gl'
'eye'
'eur'
'eph'
'bed'
'bea'
'Wol'
'Slav'
'Oc'
'Music'
'Kuz'
'Gaz'
'Fri'
'Euro'
'DO'
'Bri'
'BD'
'Artem_'
'230'
'219'
'000多'
'. (_'
' "'
'黑暗的'
'鱈_'
'鬚'
'马耳他'
'馁'
'除非你'
'阿拉伯人'
'间里_'
'配偶'
'鄂'
'进程的'
'这就是我们'
'这似乎'
'跑掉'
'贷款_'
'话要说_'
'识的'
'证人_'
'设有'
'讷'
'被打'
'表现得'
'葬'
'萨姆'
'艘船'
'舰队'
'自发'
'自1'
'脆弱的'
'脂'
'联盟的'
'老年人'
'细菌'
'索菲'
'糖果_'
'第十七'
'突破_'
'磋商'
'着着'
'看着一个'
'看书'
'相结合'
'皇帝的'
'的长'
'的象'
'的视'
'的规'
'的文件'
'的执行'
'的战士'
'的尽头_'
'的单'
'的使'
'漫长的'
'漆'
'派对_'
'没有自'
'沉重'
'气球'
'毫不犹豫'
'武士'
'欲_'
'機構'
'樂_'
'榜样_'
'梅斯'
'朱尔'
'末尾'
'曼德'
'晶体'
'時_'
'星期五'
'斯蒂芬'
'斯多'
'文森'
'敲了'
'教會'
'效力'
'政变'
'搁'
'揭发'
'按计划'
'拉达'
'拉赫'
'拉下'
'扭'
'托里'
'所罗门'
'我有个'
'我指'
'我当然'
'我们最'
'我们几'
'感谢你'
'意图'
'想不'
'您的'
'怎'
'必需'
'德克'
'得到一'
'开始工作'
'希德'
'希亚'
'工资_'
'工厂_'
'就是那'
'尖端'
'小屋'
'寿命'
'对女'
'家具_'
'客车'
'审判_'
'宇航'
'她给'
'她无法'
'套_'
'头衔'
'夏洛'
'复活了_'
'在说'
'在船上'
'在现'
'在爱'
'在河边'
'在Z'
'在F'
'喷泉'
'哈利_'
'向前迈进'
'可爱_'
'叫你'
'取了'
'发生的事_'
'反应堆'
'双倍'
'厚的'
'十七'
'医_'
'动机'
'剧本_'
'到最'
'出现了一个'
'冥'
'其他人_'
'共和國'
'入口'
'克勞'
'僵硬'
'像被'
'信贷'
'信的'
'促使'
'你叫'
'但第'
'但无论'
'但后来又'
'似乎已经'
'伟大的_'
'优秀'
'伊斯蘭'
'以其'
'以上'
'仙子'
'他记'
'他们经常'
'他下'
'仍然很'
'今早_'
'了两个'
'为什么我们'
'不错'
'不朽'
'不动'
'上文'
'三分之'
'一无所'
'一侧'
'一个名'
'ядерны'
'юта'
'эффективност'
'ьют'
'ыше'
'шник'
'шенны'
'чьи_'
'чить_'
'цки'
'ционны'
'централ'
'характери'
'ффе'
'учетом_'
'утрат'
'устойчиво'
'ульт'
'указанн'
'удовлетворени'
'убира'
'трен'
'теннис'
'тен_'
'театр_'
'твар'
'странн'
'сса_'
'союза_'
'составляю'
'сорок_'
'ске'
'скажешь_'
'роман_'
'религиозны'
'регулир'
'ребят'
'рг'
'разго'
'развити'
'проводить_'
'провали'
'привяза'
'приба'
'потерп'
'попытал'
'поне'
'позаб'
'поезд_'
'пехот'
'перепо'
'пал_'
'очке_'
'очередно'
'оха'
'отнес'
'оскорб'
'окт'
'одежды_'
'объясн'
'объекты_'
'обращал'
'нувш'
'нне'
'нелег'
'некотор'
'нежно_'
'неба_'
'нашему_'
'нау'
'настав'
'медицински'
'маму_'
'магазина'
'ллер'
'лия_'
'лиф'
'летне'
'летн'
'леги'
'красивая_'
'космическо'
'командир_'
'классическ'
'кано'
'ическим'
'итальян'
'интерв'
'изна'
'избра'
'иев'
'идей_'
'здравоохранени'
'звонил'
'закры'
'зак'
'задумчиво_'
'заблу'
'ждет_'
'жалост'
'ечн'
'евско'
'дьявол'
'др'
'дожи'
'догад'
'директор'
'дила'
'деньга'
'двигаться_'
'губам'
'граждански'
'городу_'
'гиг'
'герой_'
'галактик'
'выступил'
'выстр'
'выро'
'выдох'
'выдержал'
'выб'
'впр'
'воро'
'возь_'
'виновн'
'взяв'
'вернул'
'верит'
'великий_'
'вгл'
'ватель'
'будущи'
'богатств'
'благород'
'бач'
'атл'
'анде'
'алы'
'акс'
'агаю'
'авн'
'Япони'
'Хот'
'Холо'
'Фра'
'Тул'
'Тома'
'Стэ'
'Сре'
'Сказ'
'Рег'
'ПИ'
'Ниг'
'Насто'
'Корн'
'Каре'
'Канад'
'Какое_'
'Ита'
'Ивана_'
'Ибо_'
'Звезд'
'Егор_'
'Египт'
'ЕВ'
'Джонс'
'Господа_'
'Голос'
'Второ'
'Всем'
'Воло'
'Волк'
'Бь'
'Ах'
'Алексе'
'Александрович_'
'tas'
'tab'
'some'
'sev'
'sea'
'ror'
'ris_'
'rect'
'pur'
'pis'
'pal'
'o的'
'osa_'
'op_'
'ong'
'mba'
'list'
'lia_'
'kr'
'ject_'
'itter'
'gol'
'fnMS_'
'exa'
'ech'
'ally_'
'Yas'
'Steph'
'SD'
'RN'
'Poli'
'OT'
'News'
'Nav'
'Mich'
'Lov'
'Lib'
'Let'
'Ler'
'Ivanovic'
'Ivan'
'Goo'
'Gene'
'Fr'
'Fil'
'Fedorov'
'Fedor'
'Ep'
': -- _'
'1950年'
'1949'
'1926'
'1917_'
''
'붫'
'鷹'
'高举'
'骑自行车'
'马克西姆'
'饼干_'
'风景_'
'顺利'
'韦特'
'集装箱'
'集合_'
'隐蔽的'
'陪审'
'陛下'
'阿卡迪'
'问题是'
'问问_'
'问的_'
'镇上_'
'销毁'
'链接'
'銀行'
'金斯_'
'里夫'
'都给'
'那里得'
'遇见'
'逃了'
'这是事实_'
'这女孩'
'这份'
'过境'
'贴_'
'贝格_'
'词汇'
'诊所_'
'设法'
'讲了'
'警_'
'言论'
'角度看'
'西蒙_'
'被驱逐'
'被擦'
'被捕'
'被埋葬'
'袋里'
'衝'
'蟿慰蠀_'
'虚假'
'蘇格蘭'
'英尺'
'苞'
'芥'
'腹部_'
'脸的'
'脚趾_'
'脉冲'
'联邦共和国'
'而奋斗'
'老婆_'
'翻了一'
'美元的'
'绩'
'绘画'
'绘'
'练习'
'粗鲁_'
'箭头'
'竞争_'
'神盾局'
'矿工'
'看着他们'
'监视_'
'的香'
'的计划_'
'的警'
'的竞'
'的程'
'的瓦'
'的王'
'的未来'
'的政治'
'的异'
'的存在'
'的姿'
'的呼'
'的制'
'的决定_'
'的军事'
'的兴趣'
'的共'
'皂'
'疏忽'
'男孩们'
'甲組'
'甩了'
'用处_'
'生意'
'甚至被'
'瓦列里'
'现在已'
'物的'
'然后立'
'然后到'
'烯'
'热情_'
'火堆'
'激动_'
'漫长_'
'清单_'
'波爾'
'没有别的'
'毙_'
'比克'
'比以往任何时候都'
'殖民地_'
'正义_'
'歌曲'
'棺材_'
'格尼'
'格勒布'
'查克'
'柜里'
'某个地方_'
'杨'
'村的'
'有自己的'
'有5'
'最喜爱的'
'更清'
'晚些时候'
'显得'
'是多'
'早上好_'
'新世'
'斯洛文尼'
'斯拉'
'敲_'
'数量_'
'教育和'
'攀'
'揭开'
'接下来的'
'据报告'
'招_'
'拉维'
'抹'
'折扣'
'托雷'
'才开始'
'手和'
'我洗'
'我会把'
'成就_'
'慢_'
'德米'
'很高_'
'彼得罗'
'帐篷里'
'尸体上'
'就在我'
'少量'
'少的'
'将继续'
'寻'
'寄宿'
'家具'
'宮_'
'定了'
'它将'
'好像没'
'好久'
'奶奶_'
'女生'
'太太_'
'大海_'
'大洋'
'大帝_'
'均衡'
'地下室_'
'在田'
'在梦中'
'在某种'
'在文'
'在出'
'在C'
'圣徒'
'围_'
'喂养'
'和维'
'和经济'
'和民'
'和保护'
'名单'
'可以看出_'
'只有一个_'
'反之'
'去做'
'卜_'
'动于衷'
'加密'
'加入_'
'办公室的'
'削弱'
'判决_'
'创始'
'刚果'
'切断了'
'几步'
'准则_'
'写过'
'再次出现'
'公式'
'公元前'
'兔子_'
'先前'
'僚'
'储藏'
'低于'
'但那'
'但是一'
'但很'
'会让'
'价格_'
'他说了_'
'他的工作'
'他早就'
'他害怕'
'他们不会'
'人知'
'人没'
'人民共和国'
'人把'
'人力'
'亞美尼亞'
'互联网上'
'习惯了_'
'也无法'
'九月'
'乏'
'乎寻常的'
'专家们'
'不自'
'不是因为'
'不存在'
'三天_'
'一个男孩'
'⑸'
'€ _'
'ёлк'
'ёв_'
'янь'
'языва'
'яблок'
'юар'
'эск'
'щихся_'
'шедш'
'читае'
'чая_'
'хранитель'
'фро'
'участника'
'ухи'
'утренн'
'уточни'
'успешно_'
'успешн'
'указани'
'ударил'
'уголо'
'ткну'
'тип_'
'твоим_'
'такси_'
'сумма'
'судебно'
'стоимость_'
'становятся_'
'социальной_'
'составля'
'соответству'
'солнц'
'солид'
'сова'
'смены_'
'слет'
'слеза'
'следит'
'слави'
'связанных_'
'сверну'
'рча'
'рой'
'розы'
'рну'
'регион'
'радост'
'прока'
'причины_'
'присоедини'
'приви'
'предложения_'
'преврати'
'посреди_'
'посеща'
'порыв'
'понимаете_'
'понес'
'помол'
'помогать_'
'полян'
'полчаса_'
'подел'
'повернула'
'письм'
'писатель'
'пети'
'переч'
'очну'
'отправить'
'ото_'
'относил'
'осмотрел'
'осло'
'освобождени'
'ору_'
'организ'
'ольд'
'оказа'
'ока_'
'ожа'
'ову_'
'овищ'
'обнаружил_'
'ненн'
'начальник'
'началось_'
'находящи'
'нать_'
'налого'
'называли_'
'надежды_'
'мч'
'молча'
'модели_'
'мертвы'
'манда'
'мале'
'любила_'
'лопат'
'линия_'
'лила'
'лил_'
'лева'
'кой'
'клиник'
'класси'
'качественн'
'карто'
'каждую_'
'йа'
'исходи'
'источнико'
'источник_'
'инструк'
'инвалид'
'имм'
'изи'
'иен'
'ивала'
'знани'
'зд_'
'заинтересованн'
'забыт'
'жник'
'жду_'
'ждения_'
'ест_'
'ерш'
'еру_'
'ены'
'енос'
'ельств'
'евше'
'дят_'
'доступ_'
'должность_'
'документов_'
'добиться_'
'дник'
'длинные_'
'дили'
'денн'
'денеж'
'деление_'
'дворец_'
'дай'
'грох'
'греб'
'гонк'
'гог'
'гни'
'главны'
'вытащил'
'высоко_'
'вызывает_'
'вспл'
'восем'
'возрази'
'воздушны'
'вину_'
'виде'
'вадор'
'брос'
'биологическ'
'белым'
'бегу'
'аспект'
'анный_'
'Чёрт'
'Центральн'
'ЦЕ'
'Хотел'
'Федерации_'
'Уильям'
'Удив'
'Уве'
'Тип'
'Сэм_'
'Сур'
'Стать'
'Сильв'
'Семь'
'Секрет'
'Рэй'
'Роб'
'Рич'
'Разв'
'Раб'
'РО_'
'Произв'
'Поэ'
'Поля'
'Писа'
'Машин'
'Маш'
'Маса'
'Луи_'
'Кров'
'Кава'
'Иначе_'
'Изо'
'Женщин'
'Жене'
'Жак'
'Европейск'
'Дь'
'Дун'
'Долж'
'Джули'
[...]
